<pad>
<mask>
<cls>
<sep>
<unk>
the
,
of
and
@
in
to
a
"
.
was
'
-
s
on
as
for
that
with
by
)
(
is
he
at
his
##s
it
from
were
an
had
which
be
this
but
are
first
not
their
her
after
one
;
also
its
or
they
two
have
who
has
been
new
–
she
:
when
during
time
all
would
other
into
i
over
more
1
while
him
out
game
up
only
later
most
about
three
##a
##e
between
than
2
there
no
##ing
some
may
film
before
year
made
such
000
where
second
3
season
war
years
##n
world
both
##d
##ed
however
then
used
them
being
through
these
can
song
so
5
under
against
series
/
many
north
##y
part
album
##r
##er
well
became
city
team
number
several
including
four
##t
4
united
—
state
south
##i
m
day
episode
music
said
##o
following
states
early
did
although
known
work
could
american
t
##ly
began
end
until
because
re
like
released
called
high
long
10
people
6
##l
west
million
us
st
since
british
around
$
if
back
each
found
best
national
same
september
show
along
de
another
five
off
km
took
##es
7
use
any
you
area
group
8
august
final
received
school
will
b
century
october
due
we
john
down
what
line
games
east
life
un
government
]
set
[
june
system
man
u
home
march
single
0
men
9
%
july
h
much
do
november
general
third
co
large
april
left
house
just
york
place
band
##on
based
major
##us
road
character
e
company
army
six
family
per
played
air
now
december
included
12
name
king
20
d
won
january
##m
wrote
led
according
main
river
k
battle
times
near
within
15
own
top
described
those
g
last
ship
##h
late
still
named
next
way
make
video
original
30
very
small
go
death
record
water
##k
even
di
##man
great
force
old
species
public
league
play
me
club
again
though
my
february
black
built
days
storm
c
white
side
held
##u
among
german
further
11
book
story
route
role
university
power
french
having
match
division
100
release
members
sc
local
al
point
##an
often
park
2010
continued
service
player
take
town
former
came
o
without
order
despite
red
18
##al
half
form
considered
production
england
2009
2008
party
16
few
2011
##g
star
14
island
13
court
support
moved
songs
different
##c
county
&
sea
written
become
25
f
period
little
con
##en
english
short
version
fire
lost
president
given
2007
forces
building
country
military
land
history
london
##in
gave
ii
never
good
church
##2
mu
2012
run
street
ten
returned
total
head
tropical
went
using
similar
##ers
attack
tour
lead
position
how
produced
international
published
l
western
class
pre
father
stated
17
royal
##is
recorded
ve
children
ko
bo
development
love
r
##le
aircraft
television
highway
ships
making
control
include
less
right
throughout
week
rock
##ia
##re
performance
upon
la
mi
once
##p
win
en
himself
women
young
light
##z
career
2006
##th
central
track
age
cr
law
australia
live
son
instead
ho
night
24
players
seven
away
act
title
remained
across
characters
too
months
died
low
developed
result
center
2013
previous
50
station
ft
eight
southern
w
##ic
21
james
william
felt
return
writing
sent
reported
gr
far
##x
eventually
ka
noted
areas
political
announced
various
created
reached
miles
##b
##3
field
office
design
america
22
ha
should
##7
j
seen
art
19
together
post
hurricane
followed
college
japanese
full
’
served
level
common
non
##na
performed
race
range
p
front
northern
get
able
member
bridge
style
body
killed
taken
award
mo
car
free
##6
george
mm
##ton
2005
established
originally
points
born
mid
construction
campaign
action
modern
##ra
appeared
others
success
thought
23
located
##1
special
project
see
anti
##5
started
saw
works
caused
2014
australian
addition
critics
40
##f
rather
hall
##4
features
ex
feet
case
sold
chart
decided
stage
fourth
behind
added
formed
##ne
playing
every
heavy
ever
strong
se
site
command
x
popular
dr
completed
!
football
ground
almost
pro
damage
open
28
soon
director
eastern
important
guns
population
close
initially
hit
##te
david
##um
opened
fleet
met
sound
mother
27
put
region
weeks
coast
kingdom
leading
##8
worked
working
help
present
v
towards
26
event
michael
##ie
france
ga
scene
san
championship
##9
##ch
scored
br
##ro
radio
wanted
provided
least
brought
le
2004
average
##la
henry
gold
200
training
troops
featured
either
allowed
union
navy
rest
big
brown
does
generally
wife
##ta
placed
sub
victory
2015
z
##0
real
runs
records
studio
example
cup
council
magazine
500
washington
summer
##rs
##or
joined
designed
nine
robert
human
29
hours
crew
##ism
europe
##ry
test
recording
stone
don
believed
##w
events
el
start
hill
gun
awards
am
na
replaced
opening
ra
squadron
base
##st
super
##ma
sa
mph
involved
earlier
official
captain
finished
police
fa
japan
minutes
shot
##os
successful
space
saying
must
list
month
significant
cast
possible
change
particularly
largest
2003
ce
highest
beginning
goal
hand
review
available
##ha
european
port
forced
come
operation
bay
association
society
taking
better
process
##de
films
ny
pop
cross
rec
##ter
##ian
ma
ended
media
turned
increased
outside
social
green
news
middle
charles
paul
ne
winds
lower
##lo
praised
mc
passed
ke
lake
staff
°
move
going
research
section
round
units
thomas
##v
##ri
thus
business
above
sp
community
term
god
enough
plan
appearance
ordered
type
castle
##ist
previously
##da
relationship
board
signed
canada
##ka
chief
find
2000
future
2001
31
##ar
cut
reviews
positive
grand
program
elements
bill
turn
give
additional
smith
##men
parts
##co
spent
california
infantry
##ley
told
rights
earth
money
overall
female
interest
brother
prior
lines
directed
past
attempt
press
score
ad
failed
uk
##no
2002
##ur
bar
india
required
committee
cl
lu
po
square
tr
groups
itself
novel
evidence
blue
##ted
hot
##el
##ness
##se
##ni
entire
person
com
ph
district
sometimes
£
asked
room
germany
musical
##ion
stars
##ity
whose
claimed
already
complete
ball
our
whom
introduced
material
speed
[UNK]
study
mark
usually
students
wall
debut
idea
##ge
cover
quickly
pe
loss
cu
woman
election
limited
length
si
battalion
peter
indian
ar
60
##to
##able
ro
governor
bu
arrived
issue
flight
especially
fort
commander
van
fifth
pass
food
movement
centre
village
surface
vi
##ns
minister
decision
child
ni
larger
wide
lo
department
teams
shows
?
voice
remaining
##ce
becoming
britain
latter
dark
estimated
bi
carried
##ng
defeated
industry
civil
richard
fe
ku
might
living
lack
scenes
##mo
queen
##ts
leaving
winning
face
pressure
date
services
du
suggested
episodes
depression
science
got
entered
virginia
nearly
writer
self
percent
running
sun
mass
ran
approximately
appointed
effects
ki
##ti
view
shortly
cost
los
size
operations
finally
cm
naval
key
network
changes
upper
course
federal
report
destroyed
structure
nature
provide
##do
fact
commercial
islands
higher
leader
tu
daughter
today
natural
proposed
language
empire
subsequently
em
dead
compared
n
done
##as
experience
immediately
intended
fans
##ies
tracks
fell
supported
##ine
##ba
agreed
married
education
wind
spanish
response
1999
##op
brigade
helped
inter
railway
influence
feature
contract
personal
whether
soviet
planned
create
##ling
regular
effect
awarded
longer
35
billboard
hard
manager
soldiers
chinese
via
chicago
edward
captured
yet
appear
##id
changed
trade
current
officer
health
pl
##ey
jackson
80
lord
leave
forward
imp
friends
related
something
mostly
plans
cha
remains
museum
themselves
friend
associated
buildings
private
hi
jack
dance
winter
corps
probably
45
christian
really
##der
officers
pacific
professional
##ham
johnson
countries
here
##li
numerous
minor
moving
your
producer
##nt
ge
extended
300
copies
roman
deep
mixed
always
male
capital
books
critical
regiment
da
initial
difficult
mary
poor
unit
##ble
ca
information
issued
metal
suffered
know
pu
1998
su
ba
singer
includes
##pa
wood
likely
call
individual
meeting
blood
martin
increase
movie
inc
standard
##bu
minute
singles
energy
fight
removed
lyrics
inspired
##j
atlantic
heart
problems
##ive
camp
model
location
cause
majority
need
conference
##ot
ice
offered
florida
artist
te
allow
takes
keep
terms
tons
del
independent
iron
wing
##ting
china
hour
albums
ri
status
double
creek
entertainment
##am
fall
era
texas
word
##ki
primary
damaged
raised
edition
ci
composed
revealed
whole
attacks
ranked
appears
daily
tom
particular
discovered
valley
##sp
70
goals
1997
unable
bank
##sa
launched
canadian
active
combat
extra
##ff
africa
respectively
sales
inside
horse
deal
hospital
certain
fighting
boy
##bo
greater
00
needed
##ya
va
conditions
smaller
##ner
lived
morning
sir
##sh
occurred
##land
interview
yard
attacked
foot
##ation
##di
russian
shown
makes
attempted
##ville
stand
broadcast
##ls
tv
think
traditional
yards
mission
bad
cyclone
selected
stop
##ph
angeles
reach
below
os
contains
des
sister
guitar
numbers
twenty
market
parliament
##ca
annual
referred
##va
defeat
75
girl
clear
elected
largely
fox
iii
resulted
##ci
pan
audience
direct
say
festival
peak
plot
##ga
covered
assigned
congress
##go
attention
mill
religious
issues
actor
variety
##ous
complex
listed
earned
silver
expected
access
theme
commented
schools
##mi
starting
look
##hi
subject
closed
refused
ya
giving
19th
coach
fan
oil
commission
90
prince
want
collection
competition
author
##tion
foreign
letter
##ll
ag
mac
##est
##cl
pay
ability
legal
ti
greatest
cat
script
gu
declared
1995
concert
rose
rate
plant
tower
gas
native
##son
italian
##ized
things
stories
defense
ac
##ty
levels
nearby
ben
economic
sl
produce
1996
ja
ray
wales
sports
constructed
northwest
fl
viewers
break
2016
li
words
mountain
rep
stadium
lee
highly
separate
impact
matches
advance
means
1994
za
practice
es
michigan
let
scott
writers
medical
directly
ultimately
cap
##ck
ed
continue
presented
pa
##et
reduced
ocean
##ve
fantasy
forest
zealand
ring
hold
traffic
dvd
multiple
sam
##me
tried
##ko
wa
attended
weather
accepted
african
culture
houses
executive
##cr
stating
names
box
true
mexico
effort
efforts
jo
chris
direction
notes
##od
train
inch
sha
prime
animals
rear
##fi
source
begins
northeast
##ler
marriage
ending
sides
##less
positions
madonna
enemy
financial
##vo
studies
kept
responsible
managed
resulting
cases
showed
theatre
rule
wi
dropped
im
lot
1st
spring
engine
edge
1992
jones
saint
scotland
##ens
mr
drive
##au
care
forms
hip
quality
founded
performances
greek
eye
flying
400
airport
authority
lieutenant
inches
frank
continues
##ke
die
par
36
20th
ep
peace
organization
37
combined
property
chi
kind
read
leg
academy
mer
formation
grant
emperor
territory
##pl
meant
screen
boat
allowing
##at
##ate
##fa
artists
##ment
piece
presence
artillery
acting
tournament
tri
pilot
conducted
secretary
##line
attempts
distance
build
sixth
32
job
latin
##den
companies
scale
potential
##mp
amount
##tra
##by
1991
ab
officials
policy
metres
systems
parents
transferred
1993
trial
th
uses
er
bond
sex
administration
gi
peaked
owned
relatively
primarily
##per
therefore
coming
titled
##io
subsequent
becomes
contemporary
fr
##ru
machine
remain
figure
mcc
scoring
pair
approach
actually
onto
##ron
williams
marked
portion
beat
defence
mile
allied
concluded
doctor
write
temple
recent
##ja
selling
maximum
prevent
situation
observed
broke
alongside
senior
beach
##za
paid
follow
meet
featuring
specific
##tic
calling
seconds
rating
powerful
slightly
1942
mis
plays
tree
studios
student
cold
returning
##ho
boston
##be
cal
ins
ham
rain
divided
republic
bra
digital
fi
harrison
draft
##con
nothing
secret
nor
quarter
influenced
manchester
theory
ap
##ct
historian
border
birds
pi
drama
hu
oxford
innings
invasion
sal
transport
##ium
##oc
concept
completely
promoted
##ina
meaning
sense
designated
mainly
nation
security
residents
master
##it
actions
disc
lane
bbc
charge
cities
sought
struck
passing
comedy
guest
38
physical
##lu
louis
reaching
mind
sources
admiral
##si
ancient
1944
activity
avenue
channel
focus
fu
offensive
widely
account
fish
##pe
150
##ally
arts
critic
nominated
feel
floor
alone
image
paris
gained
memorial
##ut
travel
confirmed
seasons
arms
##un
weapons
wild
americans
##wood
join
##up
joseph
eu
proved
##age
ban
flag
older
management
cy
italy
col
guard
res
imperial
serve
strength
ahead
hotel
der
filming
explained
soundtrack
ste
kill
##qui
choice
ta
causing
roads
##ard
beyond
except
brothers
1945
1941
says
rainfall
historical
comes
bomb
49
workers
##ford
share
jersey
fiction
pal
tech
begin
expressed
##ea
bring
baseball
results
##field
planet
ireland
headquarters
34
bell
1990
##ad
prominent
rev
sr
couple
officially
##rd
conflict
q
advanced
##cu
##ised
category
tells
reports
identified
heavily
worldwide
hands
husband
##ent
library
meanwhile
article
escape
cricket
mel
33
armed
trees
represented
computer
jim
waters
victoria
slow
dutch
matter
pieces
interchange
homer
ju
fired
equipment
unlike
visit
capture
data
doing
##so
believe
1943
##ber
sign
reserve
##don
watch
birth
agreement
toward
debuted
growth
places
leaders
ob
leaves
stephen
speech
figures
injury
laid
##ze
lives
##tro
##ir
2nd
consisted
unknown
aired
##ier
why
duke
treatment
argued
justice
sy
polish
content
walls
typically
64
arm
##ger
48
kg
carolina
ru
senate
appearances
affected
paper
##em
reason
1989
fun
thick
1980s
twice
vocal
versions
##ons
nu
yellow
maintained
65
reference
##ee
actors
faced
55
bat
trying
mounted
##ss
##vi
horses
mar
visited
criticized
claims
opposition
##jo
1940
wave
avoid
bird
problem
vocals
offer
stations
fellow
severe
animal
##ds
chosen
##ps
counter
steel
develop
fully
golden
39
branch
value
rare
powers
vice
1970s
nations
setting
##her
##que
activities
##ip
growing
orders
semi
1960s
frequently
ind
southeast
ll
pr
##house
twelve
47
##hr
fast
et
##ay
broken
md
landing
##il
producers
##ac
broad
##led
technology
search
protection
looking
claim
seventh
medal
urban
surrounding
wounded
600
bc
serving
newspaper
degree
grew
##ol
scottish
simply
normal
##ward
consecutive
newly
operated
color
hero
herself
+
risk
contained
opera
losing
republican
comic
homes
vote
para
individuals
ken
trans
killing
passes
assembly
expansion
sequence
famous
institute
ends
nuclear
##cha
increasing
##head
contact
electric
serious
au
lin
heard
##ana
##ish
op
catholic
cultural
pet
46
chose
trip
von
opposed
##lin
sky
bob
fuel
motion
independence
cannot
##su
ur
weekly
split
revolution
negative
website
participated
billion
moon
supply
##ul
eyes
adult
christmas
crossing
##ite
disease
incident
try
wo
##ap
wilson
thing
supporting
##nd
filmed
threat
adopted
democratic
industrial
pennsylvania
torpedo
abandoned
##yl
##om
1987
bowl
ill
regarded
basis
ant
actress
ridge
standing
creating
taylor
44
elizabeth
41
##wa
sexual
budget
che
possibly
capacity
alexander
##ant
plants
42
mount
perform
canal
1988
joe
regional
y
failure
prison
weight
chance
zone
app
draw
##les
##ini
defensive
colonel
volume
##ku
historic
bodies
contrast
southwest
rise
ideas
irish
seat
follows
extensive
snow
treaty
43
leadership
soul
mike
solo
palace
notable
lap
visual
def
foundation
##sen
younger
retired
honor
##ria
bus
girls
turns
achieved
yo
finish
dry
effective
spain
creation
drew
sand
##cy
##im
vo
constitution
briefly
##po
improved
coal
freeway
harry
marine
lady
52
granted
##gen
##rc
stay
strike
##uc
ch
pen
province
rejected
necessary
shooting
dog
purpose
caught
recently
fame
shi
steam
hockey
##yp
wars
1990s
receive
1986
##ful
currently
##tri
vehicles
organized
authorities
classic
didn
qu
roles
background
commissioned
flooding
kilometres
expanded
fair
expedition
successfully
iv
aid
dream
supreme
unique
##du
flat
determined
##tes
banks
51
fought
arthur
scientific
dan
##pt
##ig
acquired
53
families
heads
save
performing
ec
murder
##ani
suggests
deck
describes
commonly
##ec
bart
champion
singing
text
secondary
##ated
ss
cavalry
##rat
##way
goes
##tor
cell
##og
gives
scheduled
800
letters
1939
bass
controlled
types
und
rail
mentioned
vol
##han
##rt
freedom
online
picture
agent
sets
cambridge
spread
hop
genus
trains
perhaps
block
core
simple
cape
question
finds
##ua
##ize
##ys
rap
reign
price
##ide
##gan
ze
regarding
safety
ohio
120
hair
tradition
accompanied
mas
bed
rated
##ning
gulf
georgia
exchange
##and
quite
1968
nintendo
##ius
##ky
cent
garden
containing
estate
philadelphia
path
ir
alternative
95
ceremony
condition
entirely
principal
reading
joint
youth
protect
table
gay
mono
##chi
session
spin
arrival
crown
planning
85
existing
evening
##tt
##zo
hits
purchased
liverpool
1970
farm
carry
contributed
dedicated
store
miller
tell
multi
##uri
provides
1985
russia
advantage
columbia
boats
##era
stock
earl
tax
equal
brief
titles
target
charts
lewis
occupied
##mer
cars
intensity
##ag
rules
eighth
fighter
den
analysis
enter
host
occur
holding
locations
label
76
literature
bro
criticism
##rm
windows
resistance
jewish
domestic
piano
bands
asia
code
assistant
closely
grade
centuries
drawn
lands
ign
protected
note
battery
##eb
anderson
opportunity
convention
pri
1984
bow
camera
regions
receiving
platform
##hl
francisco
coastal
gain
playstation
economy
triple
roughly
andrew
korean
1967
glass
turning
calls
jr
carey
generation
hope
sites
54
##lla
perfect
sounds
boys
##ica
##ks
consists
tar
experienced
casualties
##oe
laws
method
campus
rich
bishop
bush
intelligence
selection
pin
judge
task
##ization
hundred
ai
##yn
##dy
##sha
structures
focused
viewed
anything
facilities
##ring
themes
##ms
##q
davis
engaged
acts
fruit
railroad
editor
straight
shape
1980
providing
singapore
ty
males
display
##ah
developing
hired
environment
##hn
defined
rolling
rapidly
##bury
ago
germans
basketball
##zi
1914
je
losses
bottom
walter
##hip
1918
assault
bit
matt
shared
mode
1983
everything
recognized
appeal
brian
adding
temperature
ann
towns
##sta
1964
getting
##well
mouth
int
missing
1969
56
tank
olympic
element
moment
significantly
franchise
gameplay
mine
nhl
##ji
prepared
knew
approved
ana
##ran
##tre
tail
intersection
kings
##mar
phase
mountains
poly
gate
jean
##ov
falls
steve
height
##ven
1972
launch
painting
##ore
disney
sw
##lder
card
dec
##fl
hms
cho
66
personnel
publication
spot
##ld
##lli
1971
hollywood
reaction
##ju
fly
journey
beyonce
page
baby
knowledge
1966
1982
reasons
##ker
18th
fine
shaped
introduction
tim
3rd
journal
61
##ae
watched
##kin
##ow
##gs
worth
sat
decade
storyline
renamed
1965
females
nevertheless
250
##ding
##ou
link
employed
opinion
parallel
1979
challenge
guy
injured
reputation
thirty
operating
##gh
increasingly
showing
crime
guide
##ten
ol
allies
investigation
##berg
mor
##ai
chairman
moore
declined
headed
neither
junior
finding
enjoyed
dun
qui
##pi
stages
pit
1975
connected
projects
relations
blues
crowd
converted
##ura
58
sustained
learned
existence
sar
settlement
fur
collected
hull
##he
request
literary
product
internal
popularity
allows
relief
1974
poem
cd
clark
tag
progress
##ial
professor
gray
applied
grey
##ise
1973
ways
cited
norway
violence
approached
lincoln
outer
kentucky
1950s
cells
easily
mega
tall
none
evil
entry
mean
religion
carrying
##har
##out
##pen
##the
gradually
models
salt
##lan
raw
succeeded
christ
responded
shell
spirit
aa
buried
##gi
dam
humans
views
1976
specifically
entrance
tests
##pp
maria
57
designs
kent
poll
##fr
duty
72
items
acres
express
corner
mad
talk
step
improve
prisoners
massachusetts
politics
700
firm
##shi
1946
##tz
additionally
global
seems
gone
weakened
arranged
sections
sons
similarly
62
auto
sport
orchestra
1917
message
threatened
credited
heat
animation
99
earliest
gill
pat
landfall
rural
simpsons
retained
producing
##val
lasted
parties
programs
sort
peninsula
formula
bal
fields
fore
extension
77
##bi
warning
genre
universe
byzantine
replace
alan
statement
candidate
tan
acc
##bs
combination
trust
olympics
tin
purchase
##rop
##one
1981
##fe
sydney
mtv
prize
filled
animated
supplies
maintain
afterwards
##town
ash
daniel
63
delivered
stopped
grounds
speaking
##mas
breeding
hills
romantic
inner
extremely
ottoman
##mat
citizens
divisions
wings
entitled
sell
classical
egypt
flow
miss
permanent
poland
downtown
vietnam
basic
roof
1915
engines
mit
promotion
##ev
59
1948
1960
details
contain
products
technical
deaths
simon
dean
##ssi
shear
agency
##je
alien
establish
belt
sm
crash
drop
skin
##wall
indicated
sale
adapted
apart
supporters
han
lb
##ak
function
bought
composition
labour
maryland
##ors
brad
routes
##mb
chorus
returns
survived
proposal
premier
describing
interior
hat
knots
secure
##che
##ary
##ric
94
streets
transfer
#
typical
solid
someone
studied
81
represent
brain
portrayed
sum
##sc
1916
1950
importance
arrested
ruled
voted
ass
electronic
reduce
mayor
##we
entering
wrestling
championships
giant
winner
1978
sq
writes
affairs
presidential
1963
manner
##fo
recalled
##rp
##sm
##af
equivalent
capable
causes
eleven
champions
labor
ones
concerns
feeling
##len
##rh
gordon
##rus
credit
symbol
tanks
1919
actual
images
rome
siege
adams
thousands
##fer
departure
drug
##ong
arch
composer
67
ing
gen
offers
academic
noting
owner
##ara
concerned
##nes
1977
##worth
discovery
##ei
row
admitted
##ø
funds
interested
mag
driving
recommended
thunder
corporation
decades
invited
ser
historians
##yr
ref
crossed
installed
objects
distinct
holy
rank
##lot
considerable
universal
89
consisting
lay
sessions
##tan
96
distribution
equipped
formal
meters
130
1938
82
arsenal
remainder
debate
bel
connection
conservative
ross
1962
origin
charged
##ny
armor
ready
starts
cool
raf
shore
pope
##res
programme
typhoon
enemies
utc
alliance
una
##des
1930s
colony
prey
##ists
##nce
controversy
widespread
##ub
nomination
##red
##ver
breaking
magic
garrison
hamilton
occasionally
environmental
kong
cruiser
colonial
medieval
communist
##las
##ino
duties
flu
79
weak
norman
mal
−
slowly
##lam
bio
promote
contest
68
##lar
kin
##ell
wearing
anniversary
trail
kennedy
continuing
pick
##ski
69
finals
tunnel
##sti
##ren
##hit
##ita
##lf
78
chapter
liberal
rival
97
##ep
##rn
##ari
albert
posted
premiere
##ft
aspects
certified
##mur
classes
breed
dates
identity
occurs
##water
1936
##wi
jeff
folk
##lb
demand
tony
cart
scully
vessels
dated
happy
##lia
mexican
rescue
##uk
##ue
hitler
populations
howard
92
assistance
emergency
1956
anne
accident
brand
jam
kn
fit
fund
throne
attached
income
fashion
measure
princess
##hy
depth
door
massive
mint
norwegian
resources
establishment
carl
involving
chapel
settled
74
shots
sunday
oldest
passage
pink
terminus
quick
destruction
##ser
add
accused
grow
##tte
af
exist
##ras
##rom
passengers
reform
##tu
reviewers
sing
ninth
phil
sequel
##pha
beautiful
bull
incorporated
knight
##lis
completion
obtained
opposite
memory
senator
derived
##ib
circulation
orange
styles
amp
indiana
##tar
rapid
ride
bringing
hosted
engineering
atmosphere
colour
committed
##ob
favorite
110
hell
engineer
1961
adventure
assumed
worst
eric
decline
71
ryan
denied
##tin
1920
##ster
1953
segment
##rb
adam
charges
vehicle
emi
73
rooms
##lt
suit
ram
strongly
douglas
unusual
climate
wickets
heritage
roll
var
motor
1947
begun
missions
seeing
1930
replacement
recognition
inspiration
87
factor
1937
mix
17th
flood
fictional
ts
nba
cleveland
illinois
toll
possibility
fear
sailed
desire
pictures
##rg
clubs
1958
chemical
truth
morgan
allen
acid
costs
everyone
”
reality
##ging
dynasty
mediterranean
chamber
transportation
86
spoke
andy
oregon
representatives
sh
commanded
architecture
##ett
sur
outstanding
surviving
solar
desert
punk
walk
circuit
basin
driven
missed
arab
##hen
suggest
scheme
responsibility
##pr
finishing
materials
praise
98
bruce
theater
“
ali
sit
thereafter
usa
1957
bear
kam
ford
moderate
ron
carrier
stanley
survey
bristol
tied
crisis
reception
conduct
pale
raise
##rk
beatles
otherwise
junction
tam
morris
##int
4th
av
pattern
cult
platinum
stayed
recovered
cancer
emerged
effectively
lit
cathedral
passenger
roger
differences
lisa
serves
accept
sin
##ala
attributed
faith
##ero
angle
88
aboard
representative
favor
regularly
##uis
wins
adults
properties
91
communities
catch
3d
methods
net
philip
1959
kevin
dragon
classified
audio
attracted
##hu
bid
criminal
chronicle
musicians
##pro
crosses
funding
sk
constant
robinson
1954
blu
stood
pitch
classification
stands
korea
##gon
ratings
wwe
hunting
ak
alex
carbon
mobile
1955
anna
forming
squad
accounts
strategy
falling
metro
jazz
circle
khan
lies
kim
separated
submarine
##if
shark
ward
batting
injuries
ministry
warm
outbreak
##san
battleships
mont
surrender
underground
needs
jay
votes
plane
micro
francis
##ix
relative
pol
##ula
mars
object
seemed
160
documentary
nelson
harbor
send
chain
controversial
hoped
surrounded
shoot
sol
difficulty
else
pain
max
touchdown
requested
restored
kw
spec
bridges
journalist
##all
##ure
delayed
movements
narrow
eggs
temporary
twin
credits
fat
moves
##gate
destroy
##ef
claiming
facility
tel
84
reviewer
83
##yo
authors
elections
gets
convinced
tries
respect
rivers
sweden
##car
concern
greatly
jane
1952
convection
welsh
trials
standards
temperatures
1933
battles
##ros
penalty
##ang
dar
distinguished
kan
##ries
##isation
span
races
rod
meets
tone
##wo
hundreds
defend
limit
racing
suffering
vision
93
##zu
gross
1935
arc
count
##gr
absence
fresh
##com
jews
nest
rat
##vin
painted
gan
##cal
patrick
anyone
creative
parks
easy
favour
appearing
encouraged
13th
jordan
parish
raid
croatian
determine
wrong
netherlands
scholars
premiered
fin
wooden
##ans
attend
somewhat
1910
##bar
immediate
tie
achieve
##bra
toronto
courts
format
##istic
battleship
demo
##bl
facing
##ora
ps
##sy
1951
graphics
dismissed
learning
val
1949
assist
elsewhere
conservation
##ace
##rch
consider
mail
##ney
attempting
partner
16th
ensure
##cho
ul
convoy
techniques
sang
publishing
whereas
##let
dating
horror
internet
manga
##ht
hal
zero
##rin
carter
##rac
closer
jan
radar
examples
sweet
bears
holds
fighters
thompson
measures
tor
starred
##tone
references
fitted
monument
involvement
##work
visible
##end
attacking
thin
nick
om
militia
cycle
santa
il
tribute
russell
thousand
questions
dia
extreme
##ud
7th
ages
biggest
legislation
patrol
deemed
##lor
township
adaptation
puerto
##ab
reg
##ida
##ik
conclusion
hind
interests
##ym
formerly
apparently
##ess
tip
ye
kelly
spears
buy
sen
##gar
distributed
5th
bronze
hungarian
landed
hen
narrative
leads
wright
poet
trained
behavior
modified
retirement
operate
##my
operational
##fu
##ating
det
##ome
map
longest
sees
unsuccessful
representing
visitors
legend
looked
weekend
believes
depicted
influential
laboratory
parker
secured
territories
##ek
wei
informed
dominated
poetry
childhood
coins
commonwealth
notably
oh
owners
##dra
6th
##xi
emphasis
productions
berlin
murray
firing
hart
##del
loop
##dan
watching
nfl
nan
mainstream
##sch
retreat
##ola
abbey
batman
12th
##tal
900
dna
victims
##mba
med
##eo
apparent
gaga
resolution
shut
houston
##ied
trophy
halo
legs
mini
novels
safe
warner
guardian
rein
speak
1927
instruments
lie
##lus
recordings
##kh
1913
emotional
asian
pace
attorney
skills
ski
device
impressed
nbc
reportedly
churches
deployed
1926
offices
opponents
generated
##oli
##port
##nu
driver
restoration
indians
agricultural
chase
founder
##dis
##ena
1921
happened
huge
wet
carr
housing
sharp
hearing
##ona
swedish
giants
rising
window
experiences
successor
trek
1934
cloud
cemetery
##imi
scientists
soft
learn
ut
footage
1912
lose
##ugh
agents
dialogue
ae
intense
jesus
employees
bureau
samuel
##ped
defended
treated
stable
cabinet
teeth
normally
yu
1932
apple
lowest
tre
##back
discussed
simpson
languages
bound
isbn
croatia
files
arrangement
neck
touch
videos
##nic
executed
##ded
06
maintenance
repeated
##bridge
##eg
superior
##sl
factors
##ping
goods
raaf
sho
gilbert
tenth
rebellion
flew
medium
resigned
##aw
negotiations
cooper
weapon
exception
fishing
nielsen
angel
register
comics
enters
clinton
drawing
##ick
evans
difference
require
140
formally
preferred
##pu
xbox
reveals
testing
mil
diameter
prevented
vessel
##ere
pic
residential
##uro
##ima
afternoon
anglo
melbourne
pushed
ian
rick
keeping
aged
arriving
ton
detailed
exit
rocks
address
wu
forty
jason
benefit
continental
substantial
frequent
frederick
exposed
interstate
dramatic
ear
isolated
partly
strip
habitat
moments
##sin
detroit
pure
xi
##ati
##ris
finale
ren
##rian
pine
linked
anthony
dangerous
departed
handed
sisters
##cs
##ira
extent
##ata
existed
##mann
##rti
revolutionary
##tta
1929
directors
muslim
suicide
wil
wal
##ile
1911
signal
##bro
relationships
1931
participate
stewart
pointed
instance
federation
factory
wedding
crystal
fifteen
wear
evolution
riders
1922
belief
##ins
impossible
moral
pc
israel
taught
verse
##mit
cruisers
seeking
diet
marshall
turkish
designer
bas
##qua
gang
hunt
plate
periods
##izing
arena
honour
mon
##bri
##ock
meat
metropolitan
permission
specimens
oak
sarah
lennon
az
column
stu
##ult
las
rarely
##ert
##ex
influences
aware
spending
doesn
##eno
resident
##cia
understand
concerts
ara
sank
mario
##vis
releases
dj
friendly
baltimore
creator
ranking
##ung
mat
organizations
picked
##oa
technique
personality
sullivan
brazil
##rra
diamond
encountered
pounds
upgraded
alternate
coin
load
rough
austria
colorado
jet
hear
newspapers
phone
ethnic
deputy
withdrew
somerset
compete
joining
×
orbit
ter
gates
alignment
rates
balance
ms
timber
ama
soil
advice
funeral
gene
seas
traveled
turrets
partially
sure
dev
mental
##nik
legislature
adjacent
changing
ev
signing
08
gap
greece
##gy
##tors
bombers
eagle
gallery
hydro
instrumental
difficulties
shop
##ret
##ule
remove
##ast
nazi
##llo
iowa
mines
harris
minimal
refers
criticised
jon
merchant
covering
exhibition
seats
pilots
15th
occupation
affair
amendment
æ
##ath
prompted
policies
revolt
waves
gil
plus
##ram
maya
miami
disaster
false
plain
##ich
1925
grace
intention
##ane
destroyers
nas
pot
surprise
attendance
##ii
storms
fled
sword
1928
##yt
soldier
comments
pitched
##burg
##kar
household
whilst
protagonist
sim
09
forcing
grown
quest
teacher
citing
minimum
understanding
cook
approval
##aur
copy
globe
harbour
indeed
powered
10th
sufficient
athletic
hum
seattle
##oll
1920s
covers
##pot
bros
##phi
fifty
gardens
##ada
bases
##oh
describe
possession
restaurant
cole
bath
1900
armored
woods
##ious
char
drum
1924
prop
rush
sector
pole
alabama
indicate
lan
##ith
seem
statue
##los
depending
description
situated
##rea
string
travelled
usd
enterprise
struggle
concrete
mall
=
encounter
hay
paintings
dollars
schedule
##nc
bun
##ship
pretty
##mun
cannon
finn
telling
villages
caribbean
collaboration
##ori
displayed
teaching
walker
oxygen
survive
##can
bowling
helping
values
violent
ok
survivors
australians
inn
seek
##ew
lawrence
zoo
bypass
##ming
satellite
charlie
cargo
fra
amongst
cinema
collapse
interesting
readers
organisation
rounds
9th
fortress
tend
charter
forests
supposed
asks
hem
signs
##fish
##sit
14th
communication
acted
armament
##tus
candidates
victories
##ged
console
bon
marks
sas
##rum
##ye
appointment
disco
drivers
1923
fill
dress
transition
alive
closing
dancing
degrees
eliminated
##cing
rama
repairs
stan
philosophy
remix
assisted
characteristics
medicine
colonies
gust
occasions
minnesota
smooth
##var
battalions
dispute
monster
purposes
##side
belgium
gall
reconnaissance
shu
cab
inland
##med
artistic
westward
##ord
diego
kirk
partnership
min
spiritual
constitutional
kurt
option
publicly
grammy
theo
##gg
bright
defeating
swift
##rie
##vic
vietnamese
designation
legislative
##ians
software
preserved
uncle
trouble
benjamin
panel
##lle
abilities
corn
clean
##rim
businesses
dc
percentage
hungary
##tel
christopher
resumed
##cher
pursue
roosevelt
wider
##rf
mud
compilation
fallen
intensified
believing
##art
competed
shin
duo
##kan
lock
uss
poems
sole
##ime
ammunition
##ral
sugar
##ught
125
administrative
forecast
audiences
##cre
mob
hole
provincial
residence
anime
id
105
distinctive
heading
##bal
usual
thinking
victor
##of
1908
ace
roy
flights
suitable
bach
euro
jar
##ila
1909
subjects
1905
biographer
franklin
spend
11th
amy
burns
communications
hong
documents
##ux
completing
feelings
margaret
articles
highways
submitted
##ug
argument
manhattan
marie
montreal
symptoms
arrest
lists
protest
voiced
##bel
asking
cong
tribes
##sed
dollar
rugby
villa
repair
##nos
walking
lyrical
##van
counties
mature
portland
waiting
summit
##ost
behalf
##chan
guards
mississippi
matthew
pool
genetic
##nia
evolved
ask
strategic
bulk
registered
tape
warren
##iss
atomic
##nh
assists
earn
bone
casting
drove
mention
meta
expensive
jose
poorly
wine
favorable
07
dave
360
engineers
frame
sul
##nan
explosion
##dar
##bre
targets
organ
suspended
touring
##adi
##off
##ters
##und
liked
##iel
kansas
proper
herald
replacing
shakespeare
web
1907
kick
revenue
airborne
campbell
##ities
birthday
measured
aimed
archbishop
polar
experimental
ideal
obtain
offering
##more
##nen
aside
##av
push
rice
simultaneously
alfred
stores
temporarily
wake
priest
shall
shells
lucas
##mic
##wc
boundary
filed
##oy
wore
clearly
eve
##sb
brick
playoffs
##pan
01
##osa
tamil
##eck
ea
egyptian
lion
saved
shipping
##tti
guilty
armies
##ano
est
burn
eva
sequences
penn
boss
movies
opponent
wants
##yu
clock
recognised
louisiana
seed
wolf
represents
remnants
detail
solution
##win
essential
jobs
occasion
preparation
stream
civilian
missouri
glen
tennessee
steven
engagement
faster
spotted
suggesting
wasn
graham
##cc
stern
21st
functions
blocks
correct
##sis
rebuilt
##ax
barr
perspective
talent
crews
reflected
##dale
excellent
pulled
roots
##gor
tube
ownership
dogs
drugs
smoke
##oth
autumn
cancelled
escaped
decides
furthermore
05
charity
storage
mitchell
steps
matters
surgery
##sing
##zer
amounts
clay
spa
waste
flagship
institution
mining
photo
##ben
exact
##ama
lacked
fred
lesser
publications
patterns
thirteen
clan
tha
##tis
print
##uf
##our
badly
cuts
##umb
##wr
##zed
harvey
severely
shock
striking
slaves
##lm
##oma
1904
##lit
##pre
revival
ruling
shield
earning
cuba
##lc
##olo
feed
portions
vertical
confederate
wish
##tsu
quarterback
1906
armour
beauty
layer
##xa
cam
que
slave
rob
thor
illegal
marketing
philippines
protein
allmusic
agriculture
sitting
argues
wicket
pearl
overseas
##eth
characterized
coat
controls
institutions
landscape
##nar
destroyer
dominant
flank
##sse
ari
les
throw
restricted
um
rico
ranging
application
climb
coverage
##ssa
115
transit
baker
guitarist
practices
tea
comparison
sad
03
ballad
ah
ale
aviation
tale
mainland
epic
##rst
04
##mu
threw
##gre
##wick
behaviour
origins
theatrical
contributions
##ves
##tory
explain
visiting
##hal
ranks
saturday
##vel
inhabitants
worship
valuable
##tropical
##yan
ports
doubt
expression
hunter
##sel
alleged
billy
profit
persian
demonstrated
explains
lab
lights
starring
tokyo
neo
dylan
indies
##ible
##rid
arrive
fixed
##ez
wilhelm
##sto
fastest
mirror
bet
danger
hey
meetings
prepare
lakes
carriers
census
northward
pm
peaking
vii
karl
reaches
beam
athletes
squadrons
##mm
talking
##craft
spider
##ont
holiday
planets
jury
useful
eli
tomb
apartment
virgin
leaf
hidden
households
seriously
cutting
sac
##ito
arizona
predicted
ferry
kit
abc
architect
profile
rings
choose
lanes
ticket
murphy
##ach
jump
##bit
observations
printed
parent
feels
aerial
dal
educational
##mon
bin
conventional
repeatedly
ultimate
##lock
ji
noble
##pol
##rup
abu
juan
parliamentary
##ui
ion
liberty
maha
##cci
##ids
considering
##ses
artificial
exposure
##ball
02
180
attained
##net
drums
feud
shaw
##lp
##ote
gal
bombing
consequently
loan
predecessor
##ema
chair
copper
switzerland
##ame
bombs
##cus
grass
prove
stem
##ice
##ust
skull
circumstances
perceived
rio
scout
##lip
backed
##pel
glee
oklahoma
sung
mrs
8th
looks
bis
##bla
ot
turret
bones
delivery
leslie
##hon
austrian
broadway
context
cop
promised
commanding
todd
foster
personally
##dia
##jan
remarked
stones
bee
engage
##ono
deco
melody
retain
manor
##lat
##lea
friendship
wells
ang
mir
delaware
extend
nixon
##dic
##ges
mills
strengthened
withdraw
iraq
amateur
regime
##gin
cave
acclaim
chan
pack
sunk
barry
joy
perry
##ify
symphony
##omp
dense
enlisted
margin
objective
aggressive
towers
demanded
architectural
demands
greg
##dal
funny
portrayal
##act
affect
riding
##ern
##king
##nch
##tom
electro
flowers
ib
cruise
refer
##bin
##ual
hatch
ox
raising
sixteen
##cht
##eri
marvel
insisted
physics
##pit
familiar
rihanna
sony
elevation
por
ska
illness
edwards
meter
atlanta
##sar
kids
subspecies
##py
fed
wait
struggled
##cer
beats
##use
1903
coe
membership
fewer
##bat
##vor
clothing
conversion
hudson
improvements
swimming
##tine
musician
lying
##ator
bog
dim
dressed
mate
travels
##sk
radical
##ress
beck
101
demolished
1902
settlers
compound
dub
sonic
appropriate
cash
coup
dawn
electricity
madagascar
obama
bonus
increases
##lon
##ved
stronger
insects
horn
jonathan
monte
##aurus
##avi
1901
developers
dive
##ance
##ising
fourteen
lac
definition
denmark
mechanical
founding
experiment
rhodesia
tactics
##nium
pages
lau
rhythm
discovers
blow
##par
##ush
trading
##ici
drummer
scholar
exactly
pt
shift
marry
marsh
declaration
hardy
##uta
altered
pull
arnold
papers
removal
##rl
placing
daughters
angelo
gods
airline
defending
ranges
alcohol
rachel
tracy
wealthy
agree
##ction
erected
execution
grave
phoenix
romance
wayne
decisions
expand
reed
reflect
sci
sri
##ken
failing
##cat
##dom
##ire
approaching
debt
organised
handle
##ill
##oro
discover
sv
##nk
lang
neutral
persons
concentration
loved
m2
yankees
reverse
till
airlines
exercise
mp
napoleon
##ox
decay
##itz
##time
racial
##ass
##gne
##ste
killer
magazines
venue
hence
keith
connecting
egg
hans
belgian
ds
electrical
hyper
##met
borough
morrison
serial
advertising
dale
watershed
##aga
152
liquid
109
aspect
nice
##dr
##ili
cow
indicating
sick
##cor
fossil
ina
shorter
chu
limits
##gra
elder
establishing
fleming
hearts
celebrated
mercury
tales
traveling
permitted
bag
centers
dissipated
hugh
improvement
radiation
dubbed
graduated
hydrogen
potter
defences
pun
evacuated
jimmy
ongoing
unless
illustrated
realized
stationed
birmingham
employment
johnny
##ification
##ih
putting
robin
acknowledged
adventures
navigation
##ivo
initiated
markets
##iche
survival
##zar
burning
connecticut
friday
investment
palm
truck
##hs
jupiter
withdrawal
howe
plaza
##rov
decide
precipitation
shadow
##feld
hosts
##gl
armoured
competitive
exclusive
hindu
350
log
strange
bench
bomber
discussion
succession
##for
originated
##ws
canyon
artwork
eat
partial
raids
##hin
distant
requires
##rri
quad
mccartney
##lie
##uil
external
##dd
aim
edited
marshal
photographs
wool
##ces
canterbury
colleagues
kills
volumes
specimen
dread
shallow
strongest
##mel
acoustic
donated
wig
##ł
tubes
announcement
industries
qualified
warfare
connect
tara
tenure
##ort
##pon
attitude
feeding
referring
dual
victorian
abe
graduate
guinea
##hir
##tive
coalition
cousin
##nis
construct
##ava
attending
len
rei
youngest
##top
campaigns
tooth
closest
restore
reporter
silent
conquest
slavery
##ree
gathered
discuss
parody
trough
bobby
bombardment
supplied
wheel
##sca
##oon
challenged
estimates
terminal
alpha
bearing
dom
merely
scattered
overs
devil
craft
identify
minority
traditionally
characteristic
##erly
collapsed
drinking
##lau
##eta
visits
wr
##bly
##phy
commentary
identical
annually
arrangements
promotional
##ean
axis
concentrated
cotton
southeastern
users
municipal
terrain
density
fate
justin
gender
vast
dwight
voices
##ene
##gal
democrats
portuguese
##pet
##sho
indicates
ontario
nova
##az
luke
tribe
une
*
cable
governments
recover
seized
prices
sciences
topped
sending
spy
provinces
interpretation
pluto
##aa
##ese
compounds
trend
vs
escort
investigate
check
competing
fen
accompanying
alice
dick
achievement
marge
translation
vital
amid
##ulation
publisher
screenplay
territorial
##ok
duration
certainly
fatal
willing
##rre
111
155
saga
seal
104
cara
delay
whale
##cut
download
massacre
cher
lawyer
##yne
voyage
custom
flooded
##cel
ratio
remember
pete
##tha
turkey
##ple
hitting
reinforcements
talks
neil
prisoner
recovery
sleep
##ides
beneath
cry
earthquake
ghost
magnitude
unclear
historically
ceased
hampshire
reconstruction
vancouver
##mus
alaska
uranium
wii
persona
questioned
##ned
gary
revenge
universities
indigenous
sharks
assembled
steep
volunteers
edinburgh
trio
commenting
collect
portrait
underwent
impression
lords
mess
##tem
leon
quebec
vary
buffalo
experiments
observation
collins
io
mach
milk
turner
virus
destroying
##nz
##ivity
ncaa
lifetime
pakistan
##board
document
reducing
isle
sep
yorkshire
##oni
hood
branches
jacob
tornado
##rte
antonio
principles
roberts
stops
##ato
##unt
instrument
goddess
lamb
patients
kane
kate
backing
dil
progressive
tna
tours
bats
component
consistent
kiss
gear
iso
sings
ibn
offense
sample
revised
surrendered
replied
upset
reveal
sega
imagery
rangers
##ios
##vn
fee
israeli
oliver
tough
##sey
1893
traded
##non
craig
telegraph
##rr
##sco
rifle
devices
gaming
tempo
##thi
contribution
nominations
researchers
turnpike
##game
vin
##æ
nad
1896
approaches
argentina
telephone
conceived
liner
reduction
stein
##ston
texts
voting
##nti
eastward
arrives
lip
select
1940s
lloyd
ruler
##pop
broadcasting
masters
spoken
##ified
1898
exclusively
norfolk
ruth
whatever
components
brilliant
platforms
suddenly
finland
##hill
##lay
mack
recurring
##bed
banned
mast
parachute
##ale
##sky
faces
flash
ic
kid
praising
predators
sec
uncertain
wealth
127
rebels
queensland
##ave
##cle
##mal
worn
ted
varied
ambassador
costume
worse
abuse
bore
christianity
##ien
confidence
advised
wen
orleans
reviewed
alt
apollo
multiplayer
pound
##ð
boilers
lei
neighborhood
sailing
burned
chemistry
crest
jerry
millennium
##igan
lighting
marines
phrase
##flow
evacuation
humor
ralph
requirements
signature
vulnerable
handled
hawaii
shares
shoulder
skill
taxes
warriors
##wer
camps
flower
##sley
aus
considers
practical
proceeded
springs
1899
aft
intersects
brazilian
leo
mana
celebration
descent
mansion
nicholas
davies
intervention
##ites
bernard
continuous
oslo
burton
crops
forth
ras
wit
##bb
pam
translated
understood
cock
elite
grossing
##mir
regard
stretch
##hed
emmy
taste
##oo
aftermath
bennett
fairly
representation
flows
nautical
pairs
##sson
catherine
flames
loud
opportunities
commanders
frequency
hub
##ade
finance
sail
samples
arcade
cleared
proposals
##down
##storm
##omi
kara
saxon
sight
##dh
chess
fires
hammer
panzer
roadway
obe
speaker
cartoon
crimes
output
respective
##ept
airing
numbered
reinforced
transported
presentation
toured
extending
##uo
hughes
toy
medals
connections
vincent
dig
nonetheless
rebel
commenced
companion
judges
ministers
blacks
stress
##ute
##zy
districts
swiss
beating
liz
##oi
inclusion
mason
absent
cards
indonesia
maintaining
manufacturing
##oca
harvard
qualifying
cameron
rocky
tonnes
##ole
answer
chin
dei
indonesian
##mate
exists
knee
rivals
106
relocated
belle
scores
drink
kat
##bor
decorated
cad
eating
moscow
proof
rag
rid
tiger
victim
gift
withdrawn
volcanic
pp
##ete
##pati
displaced
knights
legacy
preparing
relatives
biography
darwin
microsoft
parkway
zu
##vert
warnings
divine
102
121
commissioner
uefa
cyclones
##eu
##ico
geo
monthly
protests
##col
##ridge
laps
susan
mystery
participation
prix
##get
113
commercially
learns
republicans
##nda
elaborate
hurricanes
oz
tested
##zan
ave
biological
quiet
rains
reich
##oss
##yd
##ose
##vers
sculpture
senators
vis
##tos
pittsburgh
uprising
gale
rookie
smart
confusion
essentially
interpreted
pac
##ami
##nts
doors
jefferson
arguing
##ske
ark
displays
uniform
rivalry
salary
##gm
bible
dying
grandfather
principle
sara
archaeological
carries
pad
wallace
divorce
heath
##idi
##une
1897
concerning
cord
##ions
##list
aria
beta
kaiser
##elo
##oid
blocked
idol
interviews
lightning
shifted
##uba
boom
sultan
##hm
proto
clothes
unlikely
dinner
dust
nickname
syria
##rel
acre
rig
##ates
abd
accommodate
loyal
153
dies
##rba
chambers
cyrus
vale
##his
dem
sponsored
structural
clarke
raj
wished
courses
hd
##nor
segments
##rod
empty
angry
honey
…
diverse
traditions
parsons
rum
##eva
accurate
isotope
monarch
terry
##pin
surprised
presidency
lasting
breaks
circular
crop
fbi
sean
stevens
##iz
##ray
##rro
amazing
sheffield
##nne
blame
colors
danish
mod
snake
##iri
boulevard
reforms
##cap
bryan
deeply
jurisdiction
##els
##nie
cage
cattle
lover
diplomatic
shan
ties
regiments
stereo
tickets
applications
dancers
soap
##ties
##urs
streak
worlds
blind
remote
##has
##cast
##ery
##zing
harm
nat
photography
##ect
bowler
austin
clip
dug
##ics
disorder
owen
##gle
mixture
prospect
wreck
1890
mythology
tang
##hg
##lic
girlfriend
hoping
newton
##ologist
##uni
##vent
advancing
ky
nights
lift
tension
##kie
ao
contra
dallas
exile
faculty
coaches
collections
travelling
##gos
examination
##hat
larry
locally
malaysia
armstrong
heroes
lava
##mes
240
northwestern
retail
rai
beaten
civilians
disturbance
drafted
funded
infrastructure
chelsea
intellectual
myth
stolen
##tch
caste
nh
quarters
walt
##rit
##lim
chest
sheep
delta
trap
##run
dh
hamlet
interaction
tactical
1895
##lad
cbs
potentially
promise
charted
serbian
decisive
insurance
commerce
corporate
substitute
variation
112
manage
theories
equally
##ical
##kes
columns
explaining
merged
monastery
speculation
##iv
persuaded
suspension
##ache
golf
offshore
songwriter
tune
stick
tribune
##hae
##tas
1000
directions
##hes
##war
brooks
veteran
pursuit
tyler
villain
crazy
educated
opposing
playoff
pregnant
sporting
constantine
hook
chancellor
farmers
rhodes
richmond
socialist
spur
tide
##vu
beau
settlements
followers
impressive
loose
opens
options
##ably
##eni
error
gaining
implemented
knows
refit
reactions
baron
muhammad
requiring
deliver
devoted
scrap
charlotte
kai
rogers
similarities
flags
rocket
##ular
benefits
extinct
sentence
complained
writings
##ines
feared
flesh
resort
surge
bang
ore
##orn
bulgarian
caps
cox
processes
nose
initiative
oriented
scar
scientology
virtually
witnesses
preserve
##hot
##ull
cope
stefan
trunk
programming
##uch
keys
marc
veterans
##app
##min
hostile
##zen
johnston
operates
studying
dreams
sue
xx
##nta
##vat
addressed
weakening
##dre
abandon
favourite
knocked
altitude
harold
tak
1861
##low
colours
participants
poe
shiva
##ments
dealing
##dor
##hel
##isi
##ovic
pitcher
variations
##ened
intent
prose
##fs
challenges
prototype
sic
slight
thrown
wire
##gie
cliff
editions
extensively
judicial
tal
##ova
brit
embarked
gothic
##hic
highlighted
proteins
boundaries
strikes
trapped
₹
alam
depot
sentenced
utah
##kov
##ough
alter
boyfriend
kyle
mara
oscar
conversation
teammate
##uma
135
realistic
sized
volunteer
##vas
108
hog
metric
1889
anthem
manuscript
##lk
tigers
##ats
##kas
cardiff
dependent
resolved
##pers
root
shah
thanks
rider
tai
##nell
tasked
youtube
cod
statements
winners
explore
lacking
macarthur
separation
tools
vu
##bee
documented
##rth
##pic
sponge
categories
galaxy
hurt
obvious
significance
user
owing
politicians
rescued
stuart
organic
1891
grid
easter
myself
recruited
tier
beer
##och
isn
hp
1894
maps
##ois
forever
rom
##quin
authorized
considerably
escorted
ordinary
crashed
dip
helps
hybrid
enabled
encounters
heaven
links
housed
receives
wildlife
⁄
garnered
imprisoned
lodge
midnight
scots
##play
ashore
colored
##hea
citizen
scandal
happen
partners
renewed
##opa
beth
choir
closure
conspiracy
fran
pursued
sox
wisconsin
##cent
burial
jaw
cs
exhibit
##bility
##ond
attract
defenders
gospel
lighter
velocity
##bet
##ign
##usa
cats
jerusalem
montgomery
##aki
##alo
math
##ibe
##rad
involves
leonard
lou
##bic
batted
ivan
terra
tight
trailer
warships
paint
sap
fundamental
quit
inning
##ika
abroad
baltic
boeing
brigadier
islamic
christians
depicts
hopes
thriller
guests
migration
urged
##ack
##hil
presents
saturn
1892
blockade
fringe
metallic
##hee
##rut
frontier
homo
promoting
scholarship
barnes
troop
lone
ups
##ipe
battlefield
noise
handling
regardless
rosa
danny
haven
humanity
lev
sinking
breeds
drag
sherman
chad
dozen
eventual
thames
magnetic
remembered
rushing
suspected
##ota
capturing
internationally
##burn
darkness
pierre
provisions
wonder
>
cameo
donald
nato
occasional
pie
##oco
heir
truly
##ppa
rendered
riot
thereby
##aj
##unda
##chen
##ele
##uck
disappointed
grain
intermediate
##ving
castles
##iso
##lian
##onia
jin
photos
vic
##tat
competitions
czech
prayer
reagan
##kir
##por
conflicts
eng
license
romney
balls
bills
positively
batteries
listen
##sw
##ther
##ulo
inherited
notice
tissue
1870
ala
decreased
guild
131
450
nee
##gu
marking
pas
regulations
##sd
bark
customers
parade
proportion
stuff
##row
accidentally
anticipated
browns
excess
organisms
##uous
duc
tracked
##bus
##wn
athens
chamberlain
##vre
barbara
warned
##tia
invaded
sid
145
compromise
##stic
220
cc
pirates
154
apply
##sat
117
1888
honorary
mounts
viewing
cai
etc
feathers
heavyweight
helicopter
monitor
posts
##ska
buck
keen
reno
updated
delegates
exploration
southwestern
contracts
compositions
##hard
##hol
lions
mutual
observer
##rmi
##yst
debris
expert
nationalist
switch
coral
enjoy
runner
##cian
##lls
##log
accessible
aero
colon
##cos
159
diver
restrictions
##das
##tle
hai
strict
upcoming
voters
fisher
machines
mammals
##wl
drake
easier
fifa
besides
consumption
nancy
shaft
##ability
118
beliefs
platoon
railways
đ
graves
reader
andre
borders
comment
queens
advisor
dynamic
knowing
nephew
##chy
associate
corridor
occurring
##ient
complicated
infection
dwarf
tab
airfield
avoided
##ings
114
2000s
recreation
cardinals
gin
pitt
plates
supports
##tern
constantinople
inaugural
metre
progressed
threats
##rna
1885
devi
remake
132
maritime
mask
portugal
<
bars
corresponding
##ffi
##uti
cum
odd
rally
sharing
fossils
murdered
lance
bailey
cornwall
reunion
##bil
##illa
expect
pyramid
##not
audition
heights
psycho
##ulated
##α
directing
spaces
sheriff
noticed
memories
newcastle
particles
prom
tourist
##ban
throwing
bradley
chet
depicting
##rdi
dropping
imposed
threatening
##org
gauge
northeastern
wise
##dae
consequence
devon
lynch
alberta
shelter
pounder
##ear
integrated
produces
psychological
resignation
retro
##wan
detective
tool
relation
1865
curve
##sal
tourism
ou
convicted
dogg
exterior
politician
protestant
releasing
removing
##ulate
martial
punishment
##din
ceo
ignored
##rda
##via
decrease
##sol
mechanism
reporting
rot
vicinity
holes
speeds
undertaken
158
clouds
kun
widow
het
journalists
modest
##gue
dock
helm
pier
ramp
ritual
armenian
boot
constantly
hide
joan
sketch
##ali
##iro
ami
fantastic
intelligent
patient
usage
##hart
backs
attraction
dome
dublin
pedro
predominantly
##esh
faction
##rem
##udi
expanding
molecular
##sr
122
fortune
maine
meyer
prof
twitter
contacted
triumph
eighteen
focuses
romanian
##uli
autobiography
sheet
witness
arose
verses
##fin
dot
kenneth
uc
##tam
doctrine
fault
icon
peoples
##ening
##lee
##mine
mani
##oz
crane
independently
printing
##bia
##gel
carol
doctors
generals
grows
measuring
centered
logo
yugoslavia
1864
couldn
mere
relieved
##aka
disappeared
lil
collaborated
creature
parking
##stein
maple
springfield
##dge
##gur
malcolm
rip
##cker
##nte
duck
isaac
naming
107
asserted
celebrate
gel
volcano
canon
lesbian
mouse
warrior
editing
inform
serbia
teachers
##kr
absorbed
barrier
explanation
rib
muslims
patch
paying
touchdowns
##rak
1862
deer
harsh
lawsuit
sacrifice
##tea
156
canceled
chip
electron
gibraltar
lame
mare
saints
varying
focusing
lad
layers
linear
lp
##ifying
##wee
anonymous
excessive
montana
##zh
blast
compiled
estates
feminist
atop
elect
##ede
##sett
burke
mba
situations
versus
##fra
diversity
targeted
installment
m3
aided
blake
dakota
fungus
propaganda
##rle
din
pleased
discussing
brook
marched
monsters
submarines
##ars
saving
genes
malta
positioned
##uda
critically
nes
rotation
eddie
grove
orthodox
dee
random
##eh
tennis
##isto
##rio
absolute
jake
liver
swept
throat
venture
julian
##kel
##oke
austro
dennis
enormous
##ory
enhanced
farms
gravity
mortar
normandy
roster
230
acclaimed
creatures
networks
pride
serb
vegas
confused
genres
punt
publicity
assassination
powder
schumacher
ip
mk
plains
preceding
scientist
suggestion
syn
bonds
elevated
nasa
synth
wartime
legion
mushroom
treasury
vest
viet
##sberg
kitchen
subtropical
##cend
booth
congressional
##ude
atmospheric
grande
olivia
stability
trick
126
sacred
spots
##cin
complement
friedrich
herb
locomotives
tommy
##aro
condemned
corruption
inducted
twentieth
fortifications
stored
burger
madison
mentions
physically
purple
blamed
cincinnati
flown
mathematics
tender
##sic
103
119
tensions
##ees
##rang
challenging
coaster
detected
gamer
sailors
orton
treat
brigades
coastline
smoking
##uth
adopt
barn
concepts
farmer
scouting
retreated
viii
boo
vr
##ias
mina
walks
cream
lori
ode
phi
poverty
wagner
wan
gregory
lopez
ns
steadily
##imeter
##iti
##rot
mata
mei
##tori
darker
disbanded
tap
torpedoes
worker
spacecraft
##amp
eagles
routing
bitter
leeds
170
anger
button
convince
edmund
##form
iran
messages
sudden
ally
cia
rim
theodore
##eli
gui
hubbard
silence
##cted
capitol
composers
afghanistan
ants
disabled
holland
raja
##box
ada
spell
brings
brooklyn
demographic
mechanics
og
stark
##tter
alert
consciousness
distinction
mckinley
mt
roller
seeds
##sper
aggregate
dai
finest
swing
yugoslav
##asi
examined
demon
favored
instructions
mysterious
princeton
walked
1886
appeals
mart
themed
buddhist
referee
##achi
emerging
solely
##hos
vegetation
commitment
continent
naturally
pocket
sensitive
singers
1863
ceremonies
export
managing
24th
eligible
wonderful
##wing
petition
yd
##over
agencies
herbert
mercedes
orchestral
whales
##asa
1887
developments
file
theaters
##ail
##hall
helen
prompting
rebounds
transmission
teach
bold
calculated
fairy
screens
##sor
##tl
evan
maiden
rational
1880
chuck
curved
franco
##bert
priority
##ette
variable
conducting
innocent
sergeant
bce
funk
quoted
rounded
##heim
heavier
mca
missile
smackdown
##fan
mood
westminster
##gas
hawk
accomplished
efficient
glasgow
jets
comparing
mari
searching
otto
participating
refuses
##tr
afterward
brien
mlb
oral
phillies
slot
##sie
agrees
arguments
burr
connects
patron
tourists
##nation
bud
consideration
expressway
isles
nam
slip
##book
##lem
bran
mae
abundant
awareness
fragments
mild
monk
tracking
##qu
halt
ottawa
reserves
silk
convey
cooperation
cubic
listening
offs
clause
delegation
fake
opinions
everybody
expectations
mist
municipality
possessed
teenage
proclaimed
manning
##wind
denver
michaels
opined
spectrum
statistics
aids
angles
butler
crucial
kilometers
commentators
joke
sai
##ches
likewise
shopping
passion
pokemon
respond
shipyard
##cles
##dine
##ets
##name
138
ernest
payment
preliminary
##hand
complimented
deposits
properly
comprising
percy
##una
116
beds
celtic
ranch
deliberately
loaded
unaware
frigate
manuel
refugees
##birds
##lake
1884
bowled
deployment
reluctant
151
978
albany
emotions
executives
exercises
lifestyle
playable
contribute
explosive
glad
graphic
spite
transformed
varies
##uld
assessment
emma
hr
nickel
usher
ensemble
extends
polo
routine
savage
syndrome
width
##mis
hypothesis
steady
virtual
welcome
relay
rna
ronald
sandy
temples
##imo
1800
chiefs
nash
##iga
angels
commons
genera
pont
venues
134
elementary
antagonist
discipline
estimate
provision
signals
chester
ia
landmark
mans
underwater
129
ellen
finger
milan
millions
nl
barracks
fears
coffee
hers
mic
nevada
staged
sting
electoral
latest
radius
##ative
governors
performers
revealing
##ln
##ology
acquire
overcome
poles
##hem
##ode
##ced
##rich
bosnia
churchill
consistently
evident
gathering
permanently
##eer
carlos
formations
metals
onwards
procedure
settle
##gb
complaints
damaging
argue
counsel
renaissance
ry
chains
consent
contributing
essay
phenomenon
warrant
##oto
750
outcome
canucks
nc
##far
##hood
##lou
blair
colin
preventing
consist
farming
fever
functional
bern
##lings
assets
barcelona
locomotive
wanting
##point
190
belonging
environments
celebrity
depiction
improving
leagues
staying
witch
##eur
genesis
rays
veronica
##00
##ml
123
1876
politically
sixty
switched
1877
encourage
loyalty
preservation
rode
wheat
##fort
##iva
breast
extinction
rub
dispatched
duncan
venice
witnessed
##light
##rou
##sso
fm
teen
carved
retrieved
stalin
actively
jamaica
lancashire
##fall
pioneer
sovereign
unsuccessfully
advisory
mann
telescope
##bell
1875
channels
convert
##world
adapt
gig
interact
##dro
fitting
magical
malay
processing
richardson
belonged
blend
introduce
pig
bacteria
flotilla
infant
photograph
requirement
disputed
##ogen
immigrants
habitats
henderson
ladies
lengths
midway
preparations
vocalist
ferdinand
wellington
ballet
consequences
loves
acceptance
grants
homeless
porter
instrumentation
nicknamed
unusually
##nna
caution
collecting
consensus
incidents
kris
submerged
##hmi
##rz
##sil
##tions
circles
islam
planes
pleasure
##hra
1881
desired
distinguish
horns
nurse
cot
##ders
##gia
128
caesar
eldest
eruption
nos
raymond
##igo
##rone
dimensional
nervous
rpg
##br
advocated
crawford
detachment
lessons
reservoir
shipped
tasks
1883
brass
marble
##anal
##master
contrary
bend
paramount
publishers
trench
##rated
210
fusion
horsepower
patrols
powell
##nig
suffer
##ration
chile
strings
sync
trademark
athletics
gram
hunters
lam
maybe
objectives
spores
##fold
bigger
pagan
flame
manufactured
coronation
habit
hut
##izes
##uga
achievements
costumes
panama
##uss
chapters
colleges
jail
derby
diseases
explored
josh
outdoor
##iff
averaged
cardinal
reviewing
trinity
truman
##fied
157
advocate
chat
fierce
leicester
naked
tucker
##omy
##rine
oval
swan
##ered
##lly
##mates
destiny
diary
endangered
floyd
hung
nests
shale
spectators
speculated
##cca
##mut
##osi
##works
beast
cancel
eleventh
turbines
##ington
##pass
##sia
resemble
##boy
jumping
overlap
##0s
dish
solomon
symbols
undertook
landings
legitimate
torn
vent
##apa
##mont
##tric
calgary
comprised
hollow
roth
unveiled
##umi
comet
reds
rushed
thoughts
variant
adi
attachment
flanders
metacritic
psi
trips
##ein
##lom
124
congregation
lengthy
moor
1866
chord
judgment
literally
mosque
palestine
customs
fig
manages
ensuing
fights
motorway
swim
damages
dudley
neutron
zones
##abe
1869
aaron
auction
shirt
spare
stripped
u2
unity
bail
chaos
##pher
##yme
gather
griffin
mccarthy
##gua
##logy
jen
1871
gala
garage
hon
portray
stroke
##cit
##onic
cylinder
dissolved
hate
surpassed
bala
discussions
horizontal
subordinate
watson
cas
intact
mathematical
newman
##band
engaging
mala
meteor
prosecution
##most
##nal
1882
beijing
das
defenses
flee
gibson
hawaiian
##gil
##rate
nineteenth
relied
ˈ
adrian
confrontation
interviewed
leather
macdonald
##aha
##sum
admiralty
kepler
proceedings
coaching
maneuver
qualities
revived
seasonal
wishes
##uit
fischer
mistake
nak
reward
aj
caliber
editorial
##oga
wash
1873
adds
compact
deals
grossed
ned
rape
##vet
hank
manual
proceeds
reminiscent
##day
democracy
highlight
instructed
##ieg
chandler
itunes
nec
weighed
bermuda
destination
insufficient
reef
gains
glory
installation
interference
shelley
1867
fog
irregular
rulers
soviets
vampire
##ages
137
advances
arctic
jungle
kerr
cass
dealt
logan
lung
##agi
##cco
##stan
adelaide
appealed
bishops
selena
successive
currency
enrolled
panic
resolve
calm
fluid
monroe
bachelor
leigh
relating
slower
termed
asa
limestone
##hul
copyright
freshman
norse
torch
deter
realm
suited
##ique
1878
grammar
hemisphere
##omo
eliminate
valid
allegations
barely
berg
cultures
gut
nobel
rapper
strengthen
subtle
triangle
##hor
##mini
aliens
doo
pose
refuge
riff
trace
toxic
##cies
##hur
##lies
lifted
merchants
##bol
busy
clerk
sparrow
##att
batsman
separately
attractive
ellis
mixing
privately
1872
deeper
disliked
exhibited
fins
foul
plateau
spencer
ease
imported
masses
rumors
synthesis
##iest
ultra
stance
taiwan
thickness
##osaurus
161
ix
oct
vie
daniels
panels
##ao
##eng
curves
expense
involve
quantities
soccer
trilogy
##yer
ceiling
festivals
levi
##vati
clergy
honors
ct
dad
intra
joins
##nem
divide
item
locate
mick
newport
raven
##bid
##ject
141
1860
25th
developer
grandson
mold
package
screening
##bos
##lav
floating
proud
##bas
##ching
tram
tribal
washed
##lid
163
conform
nico
phillips
progression
riley
curtis
experts
interrupted
molecules
repaired
##mos
barrett
monuments
undergraduate
aw
contested
merit
monks
plastic
proximity
sf
##heads
baldwin
jun
licensed
machinery
surrey
pierce
shack
skinner
supporter
##pid
##wyn
comprehensive
floors
protecting
carpenter
coloured
luftwaffe
projected
royalist
##iya
cure
ek
freed
allocated
custody
romans
seemingly
casino
essex
geoffrey
kali
pronounced
totally
202
genius
southward
##eus
##nn
270
edgar
invented
##bank
1868
hang
incomplete
opt
underneath
automatic
crust
demanding
nord
ruins
basement
diesel
magnet
nobody
##atic
##eld
##lica
##nder
comb
echo
ltd
cabin
delays
puts
##vr
comparable
populated
reflecting
starr
##rah
floods
hancock
marcus
secular
abraham
keeps
stunt
terror
therapy
connor
eugene
inquiry
mai
neighbouring
til
##chu
##ume
associates
shops
tunnels
##fle
fatalities
restaurants
suspect
##ched
##ital
##itis
##chev
##ech
##fc
##lda
diving
economics
extraordinary
glider
solve
twelfth
##table
latitude
lemon
maxwell
publish
scrapped
##quest
##set
ambitious
bare
paved
struggling
unrest
##mbo
##nga
##yla
astro
descended
interactive
lunch
pavilion
sud
crowned
discontinued
stuck
ballot
holly
rs
##ril
architects
madrid
suburb
vienna
worried
collision
lt
michel
260
demonstrate
mats
muscle
openly
proceed
regained
tau
##ago
##smo
administered
speakers
##are
##horn
##tv
bassist
contracted
cuban
edmonton
halted
lancaster
seventeen
bug
chicken
generations
133
disputes
##ater
##face
##wy
declaring
erosion
harper
hm
index
lunar
marcel
ming
mvp
romania
##aine
##shire
backup
bottle
creates
descendants
janet
opted
prefer
##mina
forts
gabriel
scorer
##dt
1850
##rke
175
demonstration
domain
streams
succeed
altar
embassy
mccain
muzzle
operator
##nam
##rge
##rne
arrow
caroline
expo
sprint
suburban
bent
bowie
jokes
sierra
##power
florence
jeremy
maxim
mora
scenario
barber
plymouth
survivor
##cki
climbing
mori
stud
turks
upgrade
##hus
##tein
elderly
lithuanian
maj
treasure
##iers
calvin
disappointment
kala
substance
##ido
hanging
investigations
nut
prohibited
##die
##eter
##jack
bengal
freight
##bau
##itt
conjunction
operas
woodland
##gis
##type
arabian
newfoundland
palmer
teammates
wound
##berry
##dict
##gno
cantata
scouts
##cation
##icia
##kis
##lag
chances
funnel
jennifer
lacks
memorable
outs
breach
interactions
##hai
##oya
##uz
alba
captivity
immigration
lease
necessarily
perth
##ence
gravel
##ations
##bes
##like
##saurus
arkansas
persuade
allegedly
deciding
detached
drainage
elephant
monarchy
notion
recognize
##truct
draws
identification
minogue
strengthening
146
acquisition
layout
replica
seam
##dos
##fire
##mura
costa
garcia
invitation
pregnancy
forget
preston
specialized
dirty
remarkable
167
ditch
introducing
liberation
observers
retire
##dell
##oso
##vid
bert
brig
busch
corners
1879
banner
compensation
mcdonald
moreover
rockets
##brook
##rist
280
detect
rowe
symbolic
topic
wwf
##cks
##hri
dull
juvenile
realizes
sphere
##nde
fix
perimeter
reserved
runway
##nel
anchor
centres
grim
pond
resist
′
##nies
fare
listing
trout
##bon
##ots
edges
hiding
##athi
##ffer
##wat
bot
bred
collector
healthy
plug
##gt
##rag
##tie
drowned
pod
surfaces
##iness
enforcement
errors
generate
perfectly
##zel
athlete
circus
honours
##flict
aesthetic
armenia
fis
measurements
painter
##pes
appoint
chronic
hanna
pushing
speeches
##logical
##ography
##raf
##tur
collective
geological
outfit
repeat
storylines
##ffe
democrat
findings
rodriguez
belong
garfield
specialist
submit
sufficiently
##eda
##eve
clash
##ided
##roy
airplay
reversed
##rsa
##take
definitely
harvest
storey
boost
cameras
defender
pepper
securing
differ
fond
frost
graduating
locked
societies
##bha
feat
hospitals
whites
infected
laura
nur
##ako
##ann
computers
confident
guitars
##cene
claire
pub
quinn
reinforce
choosing
consumer
dissent
emphasized
incorporates
louise
nashville
vet
desperate
theft
##enberg
##ille
nun
serbs
strait
suburbs
##vy
anywhere
frustrated
input
regain
tables
µ
##ind
##jar
assessed
butter
cheap
diagnosed
modes
pike
scope
##sau
abs
hare
robot
##tron
digest
moss
promising
seize
wage
##ulating
edwin
##kt
blade
courage
koreans
##gul
##ncy
arabic
welfare
##ase
##lr
149
enable
merger
peru
ramon
wounds
##ella
##lands
##matic
goalkeeper
##ain
##als
##heimer
##nberg
coupled
insect
mimic
mona
##gli
##scu
appreciated
comfortable
genuine
tended
windsor
142
ain
gia
ich
investigated
pest
confined
finnish
luis
poison
proven
ranged
tiny
##mot
##uh
dinosaurs
inhabited
rifles
weird
bald
cp
gran
##had
buses
carefully
controlling
wouldn
##ι
northbound
oxide
pressed
superman
##leg
argentine
doubles
holmes
occupy
pupils
venus
chen
duet
entertaining
exciting
nearest
sexually
##dot
##nl
##nst
##piece
##sman
hale
homage
jacques
presley
rent
bout
##grade
##rma
guatemala
tongue
144
competitors
designers
emily
enthusiastic
instruction
irving
java
protective
registration
summers
1874
cement
qualify
terrestrial
1848
disrupt
innovative
##rman
glacier
loading
modifications
murders
##bot
##gn
berkeley
laying
maurice
placement
profits
reformed
yes
employee
fail
lineup
maintains
physician
regulation
slam
willis
##graph
##own
baptist
carriage
charm
drives
maneuvers
stepped
umpire
bloody
frozen
neighboring
ud
##hom
##ista
absolutely
blown
hardware
jennings
scales
stanford
##pur
beg
bride
citizenship
defeats
evolutionary
pipe
delhi
elimination
patent
stab
calendar
orbital
pill
incorporate
martha
sandstone
solutions
tonight
uno
whig
butt
counterattack
escapes
exceeded
greene
iceland
slope
spielberg
valve
##ichi
amino
castro
governing
nationally
unofficial
##ination
assignment
dimensions
dinosaur
helicopters
preview
chapman
commodore
randy
sleeping
testimony
choices
hopkins
monday
rely
spawned
honored
mercy
michelle
rises
slowed
unpopular
comfort
cricketer
philosophical
skeleton
beech
diamonds
graduation
organs
requests
suite
##bird
##quent
##tell
##tto
##uj
fletcher
glenn
gore
imagine
mineral
patton
topics
##cula
##illo
##rick
370
resign
spiral
combine
correspondence
dominican
dorsal
##rta
augustus
breakdown
constellation
convincing
ears
poster
southampton
##cen
##haw
##pres
anal
civilization
indie
technologies
assume
berry
crack
ferrari
hara
inscription
negotiated
readily
stomach
successes
##uto
binding
consumed
illustrations
import
pleasant
thirds
vince
##dam
adaptations
gum
ono
affecting
demolition
hairs
reflects
unexpected
breath
prussian
victorious
atoms
lined
missiles
negotiate
traits
acute
cluster
contend
momentum
poetic
primitive
realize
statute
animator
bread
jeffrey
polls
preceded
raiders
##ilo
##tad
distances
possess
##lio
boycott
bulgaria
facts
ling
rubber
unnamed
##nova
##rce
##sburg
##wski
accent
elm
##aba
airs
brandon
clearing
shepherd
stew
##ked
##wad
1851
bolton
procedures
respected
##jon
##zz
doc
guided
posed
rope
##inger
##rand
##yna
##ν
annie
dos
doubled
eisenhower
hayes
hendrix
pawn
##hwa
##jou
##lines
altogether
climax
monkey
mort
aunt
inca
krishna
precise
referendum
woo
##ook
##sten
##yse
concludes
crowds
nobility
reads
sometime
trim
veto
##dle
##tec
accuracy
capabilities
imagination
##ə
148
bei
boxing
hispanic
hs
nathan
predecessors
##esa
##sus
ashes
harmony
legends
relevant
syrian
terrace
aba
dear
forgotten
gifts
kicked
permit
skiing
capt
cis
μ
##fen
169
array
conquered
extant
kenny
mock
salmon
##its
##rip
##zie
linda
mentor
namely
olive
recreational
relieve
retaining
secretly
unhappy
##bba
##ndi
boyd
civic
kei
russians
servants
##stra
confronted
covenant
provisional
settings
trustees
##gard
afford
jesse
##cz
alarm
crow
endorsed
fees
fortified
observatory
trails
warsaw
##aco
abolished
concluding
countryside
ferguson
gaza
limitations
southbound
##idae
asylum
bunker
metaphor
musically
performer
satisfied
struggles
##het
##yi
discharge
resembles
avon
batter
clinical
fails
rhode
terrible
underlying
##cta
##sive
136
cubs
eaten
franz
##sea
median
scan
##awa
##eal
##ego
##ndo
##nsor
##wu
avatar
fraud
morton
bf
boarding
cobb
deficit
ist
maturity
neptune
##rol
efficiency
hail
sussex
##pf
diocese
shrine
statistical
tear
activated
bust
commit
crush
€
##tate
comprises
diva
pointing
pseudo
safely
steering
wade
##nat
##ops
acids
greeks
inhabit
lucy
nebraska
tears
##sby
adoption
albeit
highlands
reynolds
sexuality
substantially
thermal
##bc
catalogue
drawings
totaled
transform
##fest
afl
catholics
deceased
decommissioned
lex
thrust
##cke
##jm
accordance
departments
kidney
scotia
subsidiary
lois
##ela
athenian
blaine
honest
##bis
##iol
##ware
benz
factions
rhine
theoretical
##sur
##thy
ancestors
doug
faithful
holocaust
millimetres
rendition
rosen
spike
stopping
165
columbus
yang
pitching
wang
##leton
fork
imprisonment
nave
##eme
##ilis
##stone
##tera
anthology
weaken
##dian
##xt
cherry
concentrate
runners
##bling
foods
fountain
luc
motivated
replay
##try
143
cedar
cn
lithuania
pow
##eti
##yar
##yk
1880s
controller
conviction
fc
hebrew
intercepted
kay
kemp
lamp
morale
thinks
##load
landslide
stump
transformation
##iko
admired
bree
exploit
highlights
indo
poisoning
##ologists
##tral
##yen
anton
breakthrough
emblem
enacted
shed
##wen
drunk
enforce
freestyle
gwen
ivy
jenna
##emi
##uppe
anatomy
burden
inflicted
macro
munich
rainbow
1200
bard
cyber
drops
joel
##dit
##oria
##rgo
accelerated
ladder
papal
riaa
##nge
ceremonial
duchess
realised
rhys
songwriting
tendency
##aman
##plane
##vable
##ː
amber
effectiveness
intercept
isa
alexandria
crusade
fraser
receiver
##ink
excited
introduces
lawyers
perception
canberra
determination
sunderland
##lun
##rana
captive
congo
editors
farther
matched
sympathetic
##nas
##nea
##sma
alpine
austen
contingent
derek
oath
quo
torture
dana
react
superhero
varieties
achieving
averaging
negro
twins
wai
watches
incorporating
sis
stamp
steal
taxi
trucks
wolverine
britney
clever
downed
joyce
opener
visuals
##iza
##jun
archer
businessman
chronicles
cinematic
commended
disk
hammond
resume
salisbury
##aria
##fide
168
burst
gills
hugo
isolation
reliable
winchester
alma
amazon
favoured
hiv
johns
larvae
medley
mortal
##dock
availability
conservatives
dash
diagnosis
roe
##sf
1859
accepting
avoiding
borrowed
bullet
legally
percussion
unwilling
##hd
139
commissioners
cruz
dominion
eccentric
philosopher
zinc
##air
buenos
meg
punch
shapes
titan
##rew
lighthouse
phases
precursor
robertson
##gram
##pal
##spar
contents
emotion
##him
##pole
##tones
brighton
commands
fuller
retiring
##elt
##now
omaha
remarks
worthy
keel
monica
phantom
slopes
testament
##aged
##aya
##fy
##old
##rell
##rva
##uel
careers
colleague
foundations
geographical
petersburg
puzzles
320
admission
happens
liu
memoirs
portsmouth
sebastian
tense
whitney
‘
##kha
##view
charting
depends
descriptions
menu
bea
harder
organisations
priests
rey
##hum
##mark
##tian
communicate
dame
magnus
##urg
exhibits
frames
governed
stake
tired
torres
whenever
buzz
comparisons
managers
mumbai
nationwide
strain
terri
cheese
espn
ira
saves
shelters
superstructure
trigger
webber
willie
##gna
aka
furious
leaked
norton
1845
elliott
keyboard
peaceful
retrieve
reunited
siblings
##bad
##maker
##outs
accounting
archives
butterfly
contemporaries
forbes
narrator
partisan
scripts
sued
tex
##away
##nate
devotion
enthusiasm
explicitly
persisted
sicily
specified
striker
talked
activists
astronomical
emerge
guys
rats
##llus
##than
badge
dona
expelled
rae
displacement
karen
lent
mothers
np
rhino
sovereignty
##pie
durham
pollution
presenting
resource
shuttle
wheeler
alumni
configuration
dominance
duel
ensured
financially
immune
overthrow
shawn
shocked
wong
##ades
##vie
affection
intentions
radioactive
shortened
facade
filter
nme
outlets
valued
##ener
farmland
gardner
mika
motivation
##backs
##zes
naturalist
##uring
##wine
fei
gerald
pere
performs
predict
550
definitive
depart
disagreed
mating
meteorological
newer
sounded
##yle
dedication
georgian
iconic
launching
loch
pearson
primetime
##iter
activist
doom
luck
overhaul
rejoined
revenues
roofs
screened
whip
yank
##umber
147
helium
iraqi
monitoring
singh
spirits
supernatural
##ily
##oda
gazette
investigating
lowered
marty
miners
orientation
##lyn
##urn
accommodation
accumulated
boards
curt
deadline
eclipse
fried
visitor
##tled
330
advent
aires
conductor
develops
disturbed
expressing
narrowly
overtime
reasonable
##bach
##ffen
##vil
homosexual
manuscripts
recruit
cater
continuously
frog
guidance
halls
inability
orbits
organize
rows
stoke
frigates
portrays
enlarged
livestock
##kam
bahamas
cloth
convoys
judged
portal
dent
pursuing
rutherford
##aly
##kk
##ope
angela
bela
freely
generic
holden
linking
otter
yan
##cala
##cas
attributes
bubble
intimate
mom
philippine
responsibilities
tsar
variants
devils
dining
lots
tailed
televised
bacon
biblical
demons
marginal
tackle
abbot
gorge
hari
newark
odds
shipments
shy
grandmother
prominence
renowned
shake
smallest
##lab
rovers
##raj
##raz
barrel
blog
collectively
henri
maker
nitrogen
smash
##upt
1840
1854
discrimination
excluded
hamburg
sitcom
##rer
##uve
adriatic
capcom
concord
mg
naga
viewer
##rina
##ssel
1857
allan
beside
clement
donna
geographic
spitfire
candi
depict
inadequate
laser
mcmahon
neighborhoods
relegated
sink
tutor
##gated
companions
ego
encouraging
hotels
refusal
salvage
shortage
slate
tornadoes
verdict
##hend
centimetres
cf
compton
inferior
plumage
tres
##aea
##rial
colt
diana
felix
heroine
invention
sentiment
consolidated
counted
entries
lucky
sanctuary
tides
##ises
interface
monsoon
oversaw
predator
reid
sheer
tobacco
wheels
##amo
##nto
bedroom
heating
quantity
slide
supposedly
suppress
wages
##kra
##lei
bees
cooking
deteriorated
methodist
antarctic
evacuate
fungi
odi
peers
postponed
propeller
slim
somebody
torre
tournaments
##gent
##rama
accidents
recommendation
viral
welcomed
##lov
accordingly
brock
buying
drift
jaws
physicist
subjected
##sville
auxiliary
downs
giro
hometown
intro
promises
prussia
tragedy
##gun
##hang
##vik
criteria
hannah
implementation
kingston
lecture
quan
timing
##vara
committees
crater
dexter
exceeding
responses
wrestlers
##fect
##lent
##lice
interim
lectures
meantime
texture
wes
##enburg
##ometric
contacts
dover
makeup
nesting
webb
wrestlemania
##bler
##gger
dodgers
exhausted
hutton
rankings
rebuilding
##ead
afraid
declining
eighteenth
graph
ordering
portable
thirteenth
##dium
neighbours
wives
affiliated
bs
claude
dismiss
fielding
johann
lauded
preference
slug
##ald
##kal
clad
legendary
nucleus
##arm
##hear
catches
favourable
minds
probe
quantum
##arian
##hler
bahrain
manufacturer
mortality
poets
swamp
thailand
##ado
##put
##shing
ambush
ashley
overwhelming
slant
##eric
danube
photographer
strictly
wilde
##wk
dramatically
masterpiece
plum
rolls
reactor
##mc
barrow
comedian
supplement
undergo
1890s
bangladesh
delegate
dozens
flies
observe
xiii
##gio
##ider
##ρ
admits
communists
concurrent
expenses
sensation
twist
cancellation
capability
coffin
offspring
partisans
portraying
puppet
##gins
##quil
averages
beings
betty
knife
moderately
prohibition
forbidden
fry
investors
mig
motors
pipeline
weakness
aden
cease
flock
halifax
joshua
laugh
rao
sao
##hun
automatically
gag
indianapolis
joker
knowles
merge
planted
reproduction
rumours
triggered
accompany
boots
cecil
erie
mantle
rican
##ancy
##ctive
##ison
##zin
julia
lyric
sharon
shoes
##qa
##sg
##ο
1858
beaches
##rai
##unk
650
attain
celebrations
patriarch
##eye
groove
hitter
jacobs
nap
skirmish
yoko
##mma
amphibious
camouflage
empress
kingdoms
limb
notorious
purely
qualification
recommendations
rectangular
reporters
sends
tends
wears
whistle
yield
##shin
185
feedback
jain
passages
##uen
1856
advertisement
divisional
feast
gould
hulk
lafayette
observing
rotten
tina
##kon
boiler
fearing
filmmakers
kinds
overnight
trafford
yi
biology
brave
breathing
halfway
middlesex
nolan
##bourne
##pus
archipelago
loses
manned
presumably
tran
collar
jacket
persistent
please
rogue
##rton
confirm
dod
sui
tidal
##iste
##uan
ars
client
diane
lea
posting
shirts
##gum
##pad
##ssar
1849
instances
manufacture
reply
##ering
##iba
skilled
verde
##gic
##yon
boxes
caves
donations
optical
##ake
##ott
goaltender
humour
sanchez
saudi
shooter
warn
##lai
##sts
ballads
catalog
cooler
intensive
tampa
##lma
##oko
##till
##ー
bam
brood
conventions
hue
labeled
limbs
phenomena
byrd
deposit
enclosed
inspector
objected
plantation
shields
sophisticated
troubles
##oman
adequate
dressing
induced
instructor
quota
##kko
awake
invested
lips
nerve
parallels
portraits
thorpe
##alis
##fully
1812
amounted
arise
operators
riots
rochester
sided
##kle
##wich
colonists
##ash
##gol
anglican
compliment
conan
everyday
hindi
novelist
spectacular
unconscious
##cope
heroic
reflection
remnant
canadiens
filling
liv
moe
##jn
##nad
brunswick
coa
leak
norwich
refusing
surf
weber
gloucester
hyde
marching
ruined
speaks
wee
##may
##ulf
complexity
crossover
exposition
frontal
leopold
retrospective
##dent
abundance
divorced
eternal
exceptional
kiel
rave
##azi
##hab
##oat
ancestor
dove
forge
framework
herd
sexy
sits
##ads
##ior
##nse
##sion
chant
cohen
culminated
jessica
premise
rex
troy
##erson
##logist
announcing
coached
comeback
cornell
innovation
lateral
loving
nobles
sack
shen
starter
##gui
##nka
##sden
quarry
realism
testified
##arded
##ike
##kee
associations
assured
bradford
cafe
presumed
remixes
wyatt
brett
collegiate
conceded
counts
defining
instant
pony
possessions
rage
reddish
regards
wax
abortion
resemblance
tapes
vacation
##wald
advertisements
beaver
diminished
disrupted
fourteenth
highland
louisville
nazis
technological
##ark
##cam
##eber
##hurst
clusters
payments
spit
violation
combining
excluding
fitness
surveys
##fication
##hing
certification
classics
jamie
strand
unified
##gam
appreciation
chang
deny
grip
lexington
melodies
rand
reilly
sketches
sounding
##iser
##ouse
alonso
devised
happening
heated
melodic
periodic
reel
rus
thursday
##ante
##vs
acceptable
casa
flora
humorous
revelation
terrorist
wrestler
##ctor
1855
declare
noir
richards
servant
turtle
##10
accusations
dew
manufacturers
deploy
lai
neill
subway
##card
##uts
coinage
listeners
mw
uncertainty
wizard
##kor
ambulance
eh
spiders
##mond
darren
kata
marina
peaks
penalties
##aca
adverse
cooke
ein
explorer
hoc
locke
schemes
yourself
##class
backdrop
employ
explicit
integration
##itic
##nin
basil
damascus
lebanon
pulling
sanskrit
seated
1852
enhance
fragment
natives
princes
rupert
sacked
courtyard
recipient
traces
dances
halloween
sparked
statues
treason
##fat
##gau
##hari
##lum
##oun
1847
depend
dispatch
guarantee
kant
lia
prem
##bbe
##ride
baja
dismissal
inspection
lass
lumber
purchasing
tow
aims
anarchist
carnival
characterised
composite
doll
enabling
generating
hangar
lineage
particle
##fk
coma
compose
dioxide
evaluation
kilograms
locals
pei
##ij
##sz
additions
commemorate
devastated
meredith
##mill
1846
deity
hampton
hastings
lc
salon
##ump
1832
broader
crescent
fey
inscriptions
lid
milton
nt
watt
##isen
##link
##metric
##ological
##rys
##uca
brisbane
constituency
sealed
beatty
broadly
gonna
humphrey
miguel
troubled
gm
knock
primate
ridges
somewhere
stanza
##grad
##ller
##ods
##uted
1830
bergen
define
noon
##ture
##а
airways
concentrations
deadly
ecological
entity
garde
incredible
persecution
##cera
##nr
electrons
flowing
packed
##rous
coke
correspondent
ely
embryo
recovering
sharply
suggestions
sulfur
teenager
##asse
##hoe
##num
##orin
erin
gasoline
mansfield
matrix
pianist
psychology
unprecedented
##dl
##kali
##lore
##rrier
##yre
lew
mushrooms
debated
enlist
frustration
lauren
minneapolis
parrot
throws
kilometre
maternal
seating
spans
static
##front
##ype
automobile
downloadable
hymn
jug
posthumously
wat
##dation
assuming
bye
confederation
deleted
drought
furniture
satire
shoots
##lco
##path
accord
enzyme
facial
patriot
spear
vera
##mber
##pods
##ution
##wai
aboriginal
curse
demos
hint
integral
muscles
stockholm
tragic
##ount
##uer
##uka
203
chick
climbed
conscious
continuation
dams
julie
pup
recruiting
toys
traced
##idge
##test
23rd
currents
prints
rana
worcester
α
##girl
##mie
205
ava
dancer
keeper
persians
routed
scratch
stretched
touched
twilight
watts
winston
adolf
cane
differs
onset
puzzle
screw
similarity
supervision
urging
vita
whereby
yale
##base
eastbound
lanka
propulsion
revision
##lium
##nb
clare
guaranteed
patronage
transports
trenches
westbound
##diment
##hia
##lik
##sque
exploring
gradual
gravitational
hectares
hiatus
indoor
olds
steamer
warwick
##pton
hardly
harmon
prominently
russ
shane
spark
steals
barons
colbert
crystals
dynamics
guilt
lana
pile
spine
valleys
##chel
##ques
composing
electronics
harding
hoffman
plank
sava
##dou
##writer
##xton
##ε
ancestry
creators
eco
spreading
vacant
##een
##graphic
##rar
conception
dl
flint
forum
hemingway
mechanisms
viruses
##kers
##runner
27th
abdul
hosting
missionary
orlando
##cio
borg
discovering
motto
seals
souls
summoned
##aq
##beck
##gga
##iger
##lled
##shan
belgrade
brutal
cheek
counterpart
exchanged
neal
ninja
organise
plaque
recall
rowing
sperm
supervisor
##cie
##iac
abstract
anchored
bella
curriculum
factories
guam
handful
indirect
insane
noel
nr
practiced
soc
uniforms
calcium
complaint
conquer
fraction
kapoor
laden
panthers
sinatra
suffrage
utilized
workshop
##lord
##ppel
##uy
aquatic
conversely
lacrosse
matching
renovation
superintendent
synonym
##eim
dolphins
endemic
erik
jointly
lovers
occupying
reopened
scenic
celebrities
groves
kahn
leisure
paths
reprise
##cter
##fur
##quet
cottage
designing
falcon
hire
regent
sustain
viking
22nd
barton
eighty
palestinian
remark
stranded
##ony
##ryl
billed
detection
justified
kits
ng
nineteen
pardon
superb
undermine
valentine
accepts
expeditions
merchandise
mountainous
unfortunately
ville
##ensis
##ents
##gers
##ool
##urne
agreements
aug
blunt
cites
granite
haiti
kannada
moisture
reproductive
unemployment
##е
backgrounds
divers
dixon
einstein
incumbent
milne
mobility
nominee
amor
dissolution
impacted
longtime
mgm
##gus
1853
extract
interpret
prone
saddle
sd
stealing
##tee
##wal
blocking
consultant
counterparts
fence
mclaren
nude
papa
sanders
seymour
specially
##hei
##mac
##qi
##rium
1841
melting
peasants
rendering
##cum
##rky
ambition
carroll
ecclesiastical
ee
willow
##kur
burnt
certificate
dong
exceptions
invade
pali
unions
venom
##aint
##camp
##cott
##llan
dragons
italians
labels
pradesh
##hyl
##ingham
##kney
##tail
##tain
authentic
barrage
delivering
excavations
jackie
licence
recommend
vishnu
##jk
##ows
arabs
concurrently
cooperative
energetic
junk
loans
partition
picket
residences
sculptures
sesame
seth
##lish
##uter
camel
dawson
prestigious
slender
weaver
##chal
##lby
##long
aligned
dime
gambling
likes
marco
nic
rabbit
tis
wrapped
arrange
clade
dialect
gamma
gunnery
informs
module
resembling
sms
void
##bir
##bn
##dina
##press
accounted
breakaway
choreography
confession
eager
exotic
obtaining
telugu
verbal
##hma
##mler
##tile
critique
regret
stat
unstable
##farlane
authored
campaigned
fiscal
oakland
solitary
tun
uncommon
yoga
##bble
##kki
hailed
museums
pee
##ega
##yat
decent
holt
muller
plots
priory
beef
cadets
carlo
devastating
iucn
melt
oro
ruin
starboard
theatres
villains
♭
##date
##xia
andrea
daylight
eleanor
emissions
fruits
implement
issuing
sage
##iot
##ural
ankle
prolonged
1776
bells
bolt
confronts
debts
equality
ineffective
realizing
stallion
talented
trent
zagreb
##lver
brawl
determining
edit
pits
plasma
sizes
stellar
terminated
##anda
##eto
##logram
balloon
decree
guerrero
ink
logic
##houses
##ych
marathon
pump
webster
##db
hedge
nano
ric
shorts
slayer
sunset
tying
1836
agenda
blackburn
deliberate
erupted
firmly
presbyterian
profitable
promptly
recalls
seventy
shoulders
stiff
thru
tops
tremendous
abbas
atp
clyde
correctly
elk
georg
intervene
lend
picking
rituals
wilderness
##aker
##atin
1790
460
binary
gaelic
identifying
informal
joey
locks
providence
undertaker
unnecessary
vinyl
virtue
visibility
##phon
matilda
profession
protesters
sweep
wednesday
##vio
##woman
1844
auburn
dirt
essays
mascot
psychedelic
utility
voyager
alf
alley
arabia
decoration
emotionally
hawks
leased
luxury
organizing
puck
seeks
zen
##clusive
##igen
##olved
##parts
##rdo
albion
conrad
consoles
disappointing
lambert
lean
tolkien
##hak
##lers
##ouk
##stor
baptism
compelling
consume
liberals
submission
##ece
##gni
##kill
##rily
bankruptcy
integrity
loosely
membrane
nails
tad
tens
##ffa
##zzi
broadcasts
expired
lynn
owns
pitchfork
rbi
##eau
##nus
1837
cockpit
cultivated
dispersed
francois
gases
hampered
lobby
pressures
surgeon
update
##hian
##lter
##zza
195
artifacts
besieged
enzymes
gong
hardcore
kv
liter
lombard
prosperity
rams
survives
weighing
careful
clips
frances
ik
motif
shifts
balanced
crosby
disposal
extras
lonely
monetary
morality
pirate
stakes
##bio
##hole
##kai
##nese
305
bono
clown
conscience
debates
downstream
leopard
rene
settling
transmitted
unlock
##uw
aide
antilles
banking
censorship
fuselage
pinned
prejudice
retreating
spanning
trinidad
waited
##boro
##evic
##hid
##vern
##verse
##и
alike
ethics
gentle
mates
mole
nursing
obviously
sinclair
slaughter
thy
woody
##arat
##odon
angered
congressman
crushed
deposited
heinrich
insight
iphone
vitamin
wyoming
##hara
##hey
##lain
##mani
##uded
##under
accurately
champ
coincided
este
herzegovina
objections
rejoin
soprano
theology
tomatoes
wembley
wimbledon
##nac
##pod
##tting
cannons
chesapeake
commuter
echoed
entirety
germanic
olaf
outward
reacted
screenwriter
stupid
trauma
##inate
##lling
##nov
booker
constituted
differently
federer
hutchinson
mali
sect
spelling
stricken
synagogue
turbo
##eres
##kins
##uke
apprentice
confront
differed
eruptions
fia
inflation
madras
meal
##aran
##gly
##iard
##jord
##uber
arches
cartoons
circulated
dorset
obstacles
potassium
rebound
shame
##lund
##rant
##tland
bury
goodman
hack
paired
##usion
brooke
concurrency
curtain
distress
feather
rebuild
referenced
render
brittany
cadet
candy
dorothy
dumb
goo
peck
unbeaten
vladimir
1839
belongs
cycling
miniature
ottomans
repetitive
toe
##bles
##inn
inserted
programmes
shanghai
##ease
##rica
##uge
##yra
allegiance
downloads
gunfire
innocence
outpost
protested
quartet
technically
toss
##bay
##hop
##hore
##pis
aren
captains
passionate
patricia
piers
planetary
precedent
robust
surname
##tc
##urst
absorb
bleeding
coincide
hostilities
labelled
patches
syracuse
vicar
vulture
wanderers
##force
##tok
##tum
480
astronomers
columnist
experiencing
wolves
##hog
##idia
##iman
##law
##psy
cliffs
discusses
malaria
punish
relegation
tract
walled
##hman
50th
atom
bram
duchy
embrace
leipzig
nk
obscure
rigid
risks
shadows
skier
splits
wanna
##anus
##care
##trom
abyss
accession
attracting
cove
lethal
magnificent
marion
pigment
rejection
rematch
sequels
thoroughly
zimbabwe
##bie
##cated
##ffin
##hale
##isa
answered
basically
beak
consul
digitally
docks
fabric
infinite
recruits
sophomore
suspects
vector
boone
courthouse
expecting
healing
mandatory
probable
suspicion
swords
vibe
##lev
##xide
cascade
eponymous
foe
galveston
intentionally
missionaries
procession
secrets
surfaced
upstream
vernon
##gren
##iner
##lde
##oka
##olis
##rud
addiction
admire
autonomous
avalanche
clarkson
destructive
granting
prairie
sentences
shannon
tasmania
##bow
380
aberdeen
blank
ml
paradise
reigning
scream
##eis
##tag
astronomy
ata
bates
corrupt
gateway
hunger
marketed
slash
totals
1860s
baha
citadel
continually
ensued
excavated
exeter
goodbye
nay
oppose
satan
velvet
violin
visually
wireless
##bing
##dda
##mission
##pac
answers
catcher
demi
disastrous
fingers
pressing
proclamation
randolph
staircase
uneven
unrelated
##pine
##real
##ues
baroque
dictionary
eugen
mounting
oversee
stack
warehouse
##bala
##uki
davidson
europa
##dm
##eon
##tina
boring
charitable
expeditionary
graf
instantly
maggie
mistakes
soup
temperate
tent
weston
##para
##phone
augustine
bicycle
examine
rhythmic
sandwich
1838
1870s
anzac
catching
concerto
constructing
exhaust
heaviest
malaga
##city
##icles
##nut
##rse
##ured
1835
moons
salford
sixteenth
sour
##kim
##see
##ˈ
235
carp
grades
horizon
investments
karma
moreno
reconstructed
stained
##boat
##court
1829
gentleman
helmet
julius
overlooking
prestige
rivera
stressed
stronghold
unexpectedly
##bill
##elli
##gat
1799
clearance
crypt
depictions
derives
founders
ideology
inscribed
microphone
##mouth
##ound
deities
ensuring
erotic
escorting
justify
tips
xii
##llar
admit
councils
govern
questioning
ranger
##о
blades
carson
indication
strategies
weaker
##efe
##firm
##nee
##ums
americas
complications
departing
dishes
excellence
failures
modeled
sympathy
##iki
##owe
administrator
attitudes
bombay
cents
codes
cw
episcopal
exploded
##hell
bays
bite
bosnian
bum
canvas
contributor
criticizing
dockyard
limiting
overly
professionals
rift
strips
superstar
teachings
ware
##bey
bayern
bret
crude
feeds
gb
impacts
stint
thief
1831
ax
bae
conde
cub
dimension
glorious
intersecting
lgbt
malaya
prolific
##amine
advancement
coined
financed
firms
imminent
individually
juveniles
rented
sands
unfinished
##chet
##oft
##tou
cuisine
harp
juliet
midfielder
mn
nicole
spokesman
##bard
##gina
bikini
cube
customer
mistress
rabbi
rolled
tanker
corpse
discarded
essence
outskirts
##ctic
##dha
##itate
##qual
##rgan
##uin
aggression
beneficial
bp
enjoyable
gunpowder
homicide
jumped
lal
omitted
prophet
selective
truce
##bers
##bt
fleeing
mb
nik
orient
tallest
ukraine
##lch
##zon
anglia
chocolate
coordinated
copenhagen
gentlemen
sexes
shea
straits
taft
toad
transylvania
##inus
##lman
410
airports
buff
cretaceous
puff
rehabilitation
ryu
touching
traverse
##brick
##imeters
1842
850
cairo
ios
loft
shoe
##feit
##guard
##kit
##kka
##tour
cylindrical
identifies
incarnation
likened
orb
remixed
seventeenth
sparta
uncovered
winnipeg
##hre
##ister
canton
cone
dictator
explosives
fitz
relate
towed
wed
##erated
##ffle
##rest
convex
dow
minerals
problematic
redevelopment
surprising
undertake
##weight
1801
appealing
braves
exiled
kumar
libraries
northumberland
shifting
superiority
thorough
trevor
usaf
##rde
##rok
##ror
##tium
##uchi
##wart
##write
collided
depressed
faint
pigeon
resisted
stylistic
vault
##finger
##hold
##itated
##mers
##pate
browne
couples
elvis
middleton
mutiny
privy
resembled
slogan
surveillance
teamed
venetian
π
##dev
##itia
##nett
##pas
clinic
markings
mira
##ense
auditioned
awkward
cooling
folklore
georgetown
idaho
isabella
kidnapped
pact
roc
vein
walsh
choral
database
doubts
greeted
nuclei
numerical
presidents
ramirez
sant
staging
supervised
ads
consulting
iranian
refrain
##lson
alec
anticipation
deception
evolve
fauna
herr
levine
midst
personalities
prevalent
roma
sighting
sodium
stole
##ored
barker
cunningham
facilitate
hug
mug
nigel
notch
pastor
##ghi
##ogist
##yama
andrews
berth
cheer
corpus
disappearance
ducks
##oris
##τ
dartmouth
dominate
lotus
mickey
psychiatric
raiding
##aru
##cate
##late
##nted
##tist
acquiring
autonomy
bike
defendant
demonstrations
fifteenth
passive
pia
vulcan
##gation
##ried
1815
affiliate
canning
christina
erect
freeman
occurrence
pseudonym
stems
trends
yielded
##osis
2d
applying
cake
clover
emergence
expresses
randall
shankar
stalled
##aries
##ulator
##worthy
holder
holm
mao
reformation
romeo
tombs
violated
##mana
##open
##von
flexible
fuji
interfere
killings
obsolete
ordnance
possibilities
smyth
tunes
undergoing
##kshi
##lation
##ntal
##ways
europeans
fest
glaciers
lenin
lightly
litter
matthews
memorials
pakistani
plenty
tails
tuesday
umbrella
##marine
##rose
225
bloc
displaying
governmental
herman
leafs
penny
spartan
strained
##cture
##ege
##lina
##oting
##ritan
fitzgerald
hepburn
interception
sg
tudor
websites
bismarck
braun
greenland
##agh
##yas
amar
breakfast
clients
desk
dried
embedded
engagements
salvador
wheelchair
##baum
##lellan
affects
barack
denounced
discharged
envisioned
expose
habsburg
harald
homeland
moffat
targeting
viz
##lva
##smith
1843
guides
malaysian
nile
null
recognise
tb
tub
underway
viable
backwards
bryant
culminating
epidemic
facebook
gao
lakers
provoked
±
##20
##tton
asserts
centred
chords
deluxe
grouped
gym
hazard
holdings
oriental
oxidation
paraguay
stanton
stripes
walton
##cup
##mind
##nco
##osphere
1809
albania
blew
confirmation
defendants
disruption
snakes
upgrades
##mist
##star
##tf
attractions
ding
fuse
happiness
kang
majesty
mitch
neville
rapids
shine
showcase
versa
##aris
##gens
##nath
comedic
goldman
justices
lounge
memphis
peg
postseason
suits
verb
##inator
bias
calder
christine
gibbs
midwest
municipalities
penguins
##agger
##ander
##born
##fields
##ience
##р
butcher
consulted
inhibit
pau
thank
##rius
1794
alterations
archaeology
axe
chasing
facto
freighter
gonzalez
grounded
illusion
inception
luther
nw
refuse
amin
costly
denis
eliminating
execute
inheritance
ipad
nightmare
outline
##idium
##ils
##lusion
##nall
##yde
amsterdam
continuity
crimson
draught
religions
vijay
wills
##hrer
##rae
30th
bastion
chicks
memoir
mound
neon
owl
protagonists
vermont
##ppet
##rill
##ン
chandra
detention
humanitarian
implied
itv
rash
reins
revolver
tramway
galaxies
homosexuality
m1
niche
thrash
##croft
##enstein
##ttes
1798
acknowledge
anyway
bean
ebert
equity
formidable
heather
peel
ridiculous
sophia
taunton
tavern
tributary
##rade
##tner
##yam
aston
brest
financing
prep
rotating
shores
thomson
##ght
##zation
aiming
alexandra
api
bash
dayton
habits
hess
ile
madness
remastered
rewarded
shirley
sponsor
thematic
upheld
##eit
##some
celebrating
commemorative
elle
hunted
minded
perez
preseason
redesigned
warming
##aja
##ibility
##ific
1814
breeders
compensate
crab
demise
fathers
ioc
milestone
oceanic
oldham
piercing
sept
stationary
##eem
##eran
amir
ate
blonde
criminals
gustav
mets
nina
plague
sally
sighted
##culture
##hiro
##liest
##ores
anxiety
beard
climbs
crusaders
dickinson
geneva
olivier
progresses
1793
basal
buffy
constraints
dodge
endorsement
gillian
kickoff
lille
modification
racism
rug
rumble
surroundings
tc
vhs
yucatan
##bh
##coming
arbor
donkey
duran
ernst
farewell
gp
naples
numbering
peggy
sarawak
spectral
##cial
##pm
##written
1819
alphabet
bind
disorders
employing
jenny
pension
rita
spinning
systematic
wilkinson
##lene
##llen
1500
assess
communism
formats
rca
spells
sporadic
theological
titanic
widened
##oj
##sos
206
armistice
celestial
clarence
congestion
diverted
fuck
guidelines
picks
plantations
repertoire
thesis
vain
##cot
##yal
1850s
assumption
bland
bois
campaigning
coward
enclosure
monopoly
notre
peasant
shortages
traders
voltage
##anta
##makers
bb
disagreement
nightclub
resistant
scripted
sculptor
##hetic
##lous
340
babe
concession
frogs
marlborough
owed
smug
soils
treatise
wah
##dies
##ency
215
aqua
brussels
dart
fined
flavor
galactic
gem
junta
lowe
mccoy
rehearsals
resting
rodgers
supplemented
tricks
unchanged
##screen
##zam
29th
dorm
ida
pd
rehearsal
ronnie
tee
1775
bunch
chaplin
escaping
fortunes
lasts
lust
pep
pulp
relates
restoring
wisdom
~
batch
charming
coordinator
diversion
fixture
gerard
mandate
milky
nasser
thorn
volcanoes
voluntary
wagon
##ants
birch
botanical
clifton
freshwater
gunn
initiate
mystic
poker
steward
welding
##lated
##lster
##nio
##yah
##øy
bruno
casey
commando
epithet
everett
fowler
graduates
restart
##kus
##turn
##uls
airplane
bizarre
cinematography
constable
hiring
lindsay
pigs
pronunciation
redesignated
reverend
snap
talents
tomorrow
##nae
##nger
##tical
##λ
1820
cumberland
negatively
nj
rebecca
singular
skate
tate
trafficking
uncomfortable
½
##iated
##ifies
##kat
##oot
consumers
ethical
exits
mace
memo
ordinance
piper
proving
santiago
strikeouts
syndicate
treaties
##aver
##ield
##nni
employer
enduring
gt
logical
nadu
obliged
salvation
turbine
##hala
##hc
##sworth
##vich
alternating
android
chopra
cromwell
embark
emission
exaggerated
pip
projectile
raft
resonance
##mere
1810
como
drain
genome
halle
moses
peters
pistol
reservation
smell
##cting
##olar
##tation
##ulus
assert
benson
fernando
mum
payne
reduces
stranger
tolerance
tyres
warship
##aneous
##hawks
##owa
##wed
alberto
borneo
damp
differing
garbage
horne
invincible
nah
treating
cambodia
conceal
cutter
skating
treatments
weigh
##buck
##cton
##grin
chef
chemicals
irene
nebula
rendezvous
##leaf
##mour
290
defect
float
knox
krakow
productive
satisfying
sellers
tae
##khar
##stown
##wei
contender
enforced
everywhere
explores
infrared
lobe
nominal
okinawa
overhead
##media
##olin
1825
caliph
commentator
commissioning
coordination
envoy
jaguar
klein
knockout
lens
letting
lime
lund
milwaukee
monasteries
monitors
prospects
##egan
##iform
##lite
##rgh
##wara
1792
1824
folded
foraging
generous
hungarians
interpretations
investigators
mons
parasites
photographed
retains
savoy
searched
swarm
clayton
colts
conclude
connector
criticisms
garland
hua
lima
paste
pennant
phillip
pipes
surprisingly
winters
##chin
albanian
allison
amusement
approve
cb
decorative
eurasian
##iving
##vani
##ła
166
ahmad
ascent
brady
casual
discs
fai
glacial
improvised
infamous
perfection
revive
talbot
trainer
tung
wholly
##ashi
##cote
##rrie
##sul
ethanol
georges
illustration
overlooked
phylogenetic
premises
reggae
tribunal
unanimously
##champ
##chs
##pper
##rish
boarded
davenport
dea
elongated
keynes
rhetoric
smile
wilmington
zack
##sko
belly
commissions
decreasing
elephants
groom
prosecutor
stall
townsend
##borg
##nstein
cultivation
hbo
keyboards
staple
sunshine
treasurer
volunteered
##tling
alcoholic
arguably
commercials
fishermen
framed
headquartered
hogan
pea
variously
vickers
##cite
##ija
##inian
310
cleaning
convened
helena
lionel
mesa
nike
vegetables
##phic
##xy
1795
accomplish
lara
overwhelmed
raided
salad
##guchi
##mme
##rrell
##zone
analog
berger
blitz
chloride
cognitive
colombia
decks
garner
hazel
higgins
jew
judiciary
kicks
moist
monkeys
refined
##arth
##bain
##ished
##iy
bai
fraternity
porto
precision
reluctantly
silva
##aus
##oder
##rita
1804
1821
26th
bloom
chancel
dunn
excitement
freak
gradient
hash
ingredients
ions
jarrett
outright
precisely
ravens
scholarly
sponsorship
unanimous
##hana
##wig
epa
haul
hawke
invalid
levy
mauritius
neighbors
satirical
synthetic
##chio
##vey
collectors
inconsistent
invest
jumps
premium
styled
##uce
antioch
bollywood
boris
branded
characterization
cory
dodd
flashback
ramps
reasoning
separating
suffolk
surplus
##cea
##dur
##etic
##ffed
##fight
##itating
##nick
##otte
adviser
charleston
dahl
disagree
dump
geometric
paralympics
patterson
pratt
propelled
sakura
##edge
##moor
##neck
angular
coloration
conceptual
dominic
exceed
kenya
nwa
och
posters
potomac
timothy
toro
undefeated
##cratic
##itor
collier
dislike
dolls
hanover
storytelling
tyre
villagers
##stock
##đ
1833
consort
excavation
exports
mormon
ninety
prague
surreal
##30
##ais
##mise
##routed
1797
1805
batavia
causeway
combines
converge
dealer
delight
font
graphical
ua
##nsis
##uze
275
intermittent
lawn
nassau
sheets
somehow
##nton
1789
archie
bluff
bombed
charging
copa
epstein
fiji
gallo
manitoba
meditation
reset
tackles
teenagers
triangular
violet
##loid
##rath
##yad
aura
compatible
competitor
confederacy
convinces
finch
glands
hid
judgement
mongol
silicon
sunny
taxa
theorem
##lke
##nets
1806
3000
astronomer
autobiographical
catholicism
flanks
malvern
phrases
pilgrimage
prizes
ruby
socio
splitting
suspicious
tame
twisted
##lane
28th
buddha
eden
endured
evade
fritz
hears
infections
kanye
lifelong
peng
spun
stretching
thumb
tiles
##hli
##nist
##rik
610
assisting
brush
cartoonist
enterprises
intern
jude
mice
morphological
roses
summon
##arts
##lga
173
1780
corporations
disguise
marriages
penetrate
profound
pupil
tao
tenor
wigan
##lal
absurd
alternatively
bonnie
burt
deposed
hydraulic
measurement
vacuum
##rey
airfields
invisible
neglect
responding
risen
stevenson
topping
trump
vertebrae
##iom
##ncies
adjusted
flair
honduras
niagara
rn
robb
substances
unreleased
wessex
worm
wrought
crowley
katherine
rowland
##elin
##eous
##vier
barrels
chased
economically
filmmaker
finishes
fisheries
licensing
outnumbered
stale
tissues
##how
##nant
##pani
##utnant
akin
bows
detained
fern
flour
fold
manila
orion
overrun
##df
##litz
##nian
anybody
calais
confiscated
eddy
exploitation
flip
phelps
rested
tally
vapor
##fare
##lier
##rco
##ssen
##ɪ
aground
dye
headline
ideals
intervals
lever
neighbor
pottery
reject
tactic
tuned
##bari
##ited
##mmer
##ntial
##vill
##vira
ambitions
appointments
coco
converting
fir
hostage
jerome
listened
megan
minh
travers
usc
##rcle
advocates
apology
byrne
forensic
hearings
mater
motorcycle
mourning
physicians
##ange
##fly
analyses
authorised
dose
lavish
maid
myers
spice
stays
totaling
zhang
##lace
ambrose
ancestral
azerbaijan
bulls
canadians
complexes
conspicuous
descending
exported
necessity
owls
seizure
tire
tributaries
##grass
##ifer
##rter
canals
capitals
discoveries
distribute
neglected
nod
regency
reprinted
romano
sectors
widen
##ael
##bound
##eche
##ος
alto
augmented
compares
corona
crowded
cruel
gandhi
jill
peat
soundtracks
sterling
vc
##cis
##osition
britten
contempt
inventory
kissing
makers
mps
notices
obsessed
odin
oswald
recorder
##elle
##ello
ariel
byron
depths
inevitable
kylie
renovated
vaughan
##valent
##vana
##xes
##yles
adopting
contention
dragged
inappropriate
jealous
karnataka
paralympic
pneumonia
rc
requesting
reyes
succeeding
surround
tori
##hardt
apartments
employs
everton
motifs
prediction
prequel
quietly
##bian
##nko
##pies
##tree
##ulates
390
accessed
ambient
eliot
footballer
garrett
infants
innovations
iss
lyon
martinez
pedestrian
rockefeller
sake
tho
trailing
wicked
wrecked
##odies
cosmic
divert
impress
mayer
##rity
##tly
440
bounce
clone
earnings
governance
grief
halftime
paternal
rude
spontaneous
##dai
##eca
##games
##ulton
ambiguous
chili
contrasting
flynn
inventor
patriotic
pleas
poole
sb
trondheim
welles
##edd
##ometer
##pd
##yana
1828
advantages
deputies
exercised
furnace
liberties
linguistic
morphology
painters
peer
regimental
subscription
trojan
##abi
##gence
##nah
absorption
disregard
mozambique
prevention
reformer
santo
warmer
##ppe
advertised
agreeing
bonaparte
cinematographer
ejected
eyed
fission
instituted
org
proves
serpent
supportive
suppressed
##ceae
##oki
##wave
164
1834
capsule
damn
destinations
dismay
expressions
freeze
gloria
michele
oceans
patriots
shower
sleeve
vengeance
##arium
##mism
##rians
##tman
##tort
addresses
argent
borne
dir
implies
inclined
messenger
mistaken
monastic
morocco
mosquito
sham
##aid
##jer
##mium
##tics
afc
buchanan
cables
deserted
exploited
fascist
flaws
impending
kitty
rails
scare
surveyed
techno
tottenham
##centric
##olt
##oper
##rada
##rigues
##sari
##thor
addressing
aging
barriers
carlisle
dial
esq
fleets
influenza
margins
relying
rhythms
rory
saigon
silly
toby
##ographic
##tila
182
amended
contestants
dental
insists
magna
minimize
nominate
probability
qi
sediment
wesley
##iu
##rga
##tens
arrows
benefited
buckingham
geoff
hereford
racist
rossi
switching
timor
wooded
##burgh
##lts
##unce
baba
belfast
buddhism
challenger
decreases
dungeon
encyclopedia
fulfilled
gesture
jade
mentally
pending
peterson
retaliation
spokesperson
##itte
##llin
##rmin
discount
dungeons
miranda
regina
registry
zeppelin
##crow
##nya
##print
##vale
attackers
blur
elegant
estuary
nicola
playwright
precious
pry
rehab
rouge
sauce
severity
spends
unite
unsure
##12
##borough
##fleet
##key
##oof
##resh
1816
captained
guerrilla
henrik
jurassic
marijuana
marseille
nationals
pauline
plagued
preferring
reproduce
shipment
underside
zhu
##jin
##oin
##pw
benedict
instability
kerry
lithium
lure
niece
santos
sera
stairs
structured
ahl
barred
conversations
derivative
explosions
finances
flex
heal
journalism
nordic
olga
pak
proportions
snout
thom
undertaking
xvi
100th
295
bonn
canoe
concealed
examining
linebacker
singled
uh
dion
guarded
ike
khmer
orr
scarlet
##ania
##gles
##sche
##yce
brent
chemist
comprise
crisp
elevator
emerson
fulfill
geometry
istanbul
marx
proton
reliance
shoreline
##carbon
##nard
drunken
guess
marker
marrying
navigate
organism
ought
privileges
proposition
##fying
##notes
##sler
abolition
alloy
amendments
cheaper
compulsory
meals
quote
salem
terrorism
vatican
##atory
##aud
##ply
assumes
duff
exceptionally
holidays
immortal
kappa
ravi
rbis
reorganized
shade
sidney
upwards
vivid
##eding
##frame
janeiro
kc
minorities
neutrality
pitches
prescribed
prevailing
radial
schwarz
ukrainian
visions
##bber
##yard
162
2017
analyzed
candidacy
confess
crete
gamble
hee
maxi
nursery
possesses
spoil
##icated
747
augusta
constitute
daytime
dubai
embraced
forrest
grit
lester
reunite
sewer
threaten
verge
##claim
##gler
##ilised
avengers
breathe
chalk
collaborator
drifted
dwelling
fool
ideological
observes
tug
veil
yeah
640
brands
combinations
engineered
flats
hamas
jewel
lars
trait
vlad
##atus
##lass
actresses
assaulted
cinemas
dusk
equator
gus
intake
paced
persia
solidarity
unfair
witchcraft
zombie
##dorf
##duction
##ground
1796
grab
honoured
insistence
ludwig
proceeding
rt
spill
##edance
##onate
##tase
antibodies
atari
depleted
earthquakes
harriet
outlook
robe
simplicity
unavailable
##fell
##room
adhere
coleman
commemorated
compelled
damon
gerry
jericho
offset
rack
simultaneous
yong
yorker
zoe
##ryn
##sle
charlton
drinks
extraction
inspire
jedi
macedonia
pear
perpendicular
pulse
pv
scandinavian
semifinals
spartans
stafford
surgical
‑
##aan
##hua
##layer
##script
##stand
bari
cruising
crying
electromagnetic
implications
mania
pledged
railroads
reservations
samantha
shepard
vassal
weren
##ams
abnormal
dd
drowning
equation
iris
optimistic
recruitment
renewable
searches
travis
##core
##ej
##genic
##lined
##ously
##raph
##uru
40th
arid
backstage
commitments
ghosts
inauguration
judy
paulo
petty
pretend
spherical
universally
##olio
bn
contrasted
laurel
ley
pairing
sneak
transferring
xl
##alle
##rith
bruins
carriages
clashed
equilibrium
grape
hartford
hatred
holders
malley
pants
pleaded
practically
royals
turk
##cise
##enia
activate
compare
copied
endless
experimented
feudal
isabel
mechanic
napoleonic
sob
withstand
##bara
##rion
##shu
##wes
##wil
##worm
admiration
blowing
doyle
hungry
kicking
nicaragua
painful
penned
porch
pray
underworld
valle
##mia
##vir
botanist
coordinate
croft
fury
hermann
hierarchy
histories
nowhere
patrolling
presided
shit
taxation
turtles
1818
alligator
enrollment
fashioned
galileo
libya
lifeboat
nichols
practitioners
projection
urine
waterloo
196
aaa
assassin
denial
detailing
enjoying
fundraising
gaps
havilland
nora
openings
venezuela
wagons
##dler
##logue
##sai
##swick
##tech
brake
checked
confusing
cortex
delicate
disability
discretion
favorably
fielder
generators
indirectly
interred
mama
pasha
smallpox
transporting
##cede
##dog
##onne
##rock
##tiv
academics
afghan
flyers
heartbreak
laurie
magma
midland
rang
regulated
sax
seller
sentiments
sniper
wb
##bron
##oran
assaults
brains
consuming
contestant
galleries
impose
incredibly
plea
thanksgiving
##issa
##nous
##sham
attaining
ecosystem
emphasize
gangster
proposes
stealth
suppression
transverse
varsity
##iate
##posed
##rating
adjoining
boer
cote
digit
flattened
illustrate
liaison
lowell
nicolas
optional
riverside
spectacle
successors
sunlight
sworn
unesco
##inium
##mans
##tow
##was
420
cycles
earnest
incorrect
melee
nmi
ole
saskatchewan
sore
substituted
wander
##dicate
##mad
##plate
announce
apt
coasts
endurance
reminded
repulsed
telegram
##hausen
##rail
##wt
##zman
201
301
abruptly
clifford
exclusion
gaul
immigrant
italia
levin
lutheran
patrons
pity
relocation
skip
suzuki
transitioned
witches
##bina
##lage
##piration
##pool
##с
490
abdomen
atlantis
bulb
cnn
cochrane
enigma
haunted
insert
juice
lamar
macedonian
nets
sparse
substrate
superficial
symphonic
##beat
archaeologists
azores
builds
chariot
charters
giovanni
intending
kidnap
norris
outlined
pathogen
satisfy
viewpoint
yearly
##etz
##lta
##station
auckland
bitch
covert
depended
edible
extensions
friction
hooper
originating
outfits
redemption
relaxed
sacramento
squid
surpassing
##eger
##ossa
##sop
##urt
archive
chestnut
condo
dare
descendant
fertile
geography
geology
highlighting
linnaeus
maud
mysore
robbery
sabbath
skeptical
socially
translations
vogue
430
airbus
annals
comply
fortification
hume
sharpe
sorrow
##elman
##lz
##obe
##phs
660
avant
codex
grouping
hanged
jockey
mammoth
maru
packs
postal
schneider
skyscraper
slavic
straightforward
stunning
tod
##jak
##ulin
avery
barney
capped
cavity
cellular
dante
eastenders
entertainer
exhibitions
huron
islanders
manners
moran
protocol
reconciliation
shrewsbury
wilder
##coe
##iae
##outh
##rise
##zko
coli
convenient
crafted
destroys
goat
leone
macbeth
objection
replicate
simplified
stirling
wrist
##gating
##ols
bedford
confluence
cork
decorations
dora
hardest
hitchcock
hyderabad
immense
lore
malone
offence
protector
reassigned
sonata
turf
##bane
##itzer
1827
crocodile
forestry
functioning
gee
incoming
mls
selections
vikings
##bilis
##cion
##nson
##taking
##thic
aurora
capita
czechoslovakia
gaze
haynes
kendrick
miner
nationalists
obligations
reconcile
reissue
scenarios
suffers
yacht
##ested
##mpt
##ogy
1777
asteroid
conclusions
gallons
gossip
goth
hurley
inaugurated
laurent
liquor
meadow
rides
rubin
scarce
sustainable
##berger
##mony
##tub
##used
ashton
assemble
austrians
behave
carnegie
countered
franchises
gs
irrigation
maroon
worsened
##grate
##ules
canopy
chaired
disguised
invaders
lesson
majors
mermaid
nasal
nationalism
revolves
whitehead
widening
ø
assent
atlas
candle
filipino
implant
influx
interlude
migratory
prevents
textile
tones
trams
##kawa
##nay
annexed
appreciate
burrows
forested
immunity
mafia
willingness
##igh
##itch
##kova
##llation
##oic
##tial
cups
downward
dresden
emperors
hearted
khalid
martyr
notified
persist
simpler
solved
symmetry
unsigned
##loaded
##won
assertion
banquet
clair
confessions
gunners
hove
renewal
respiratory
stain
tenants
unlimited
##dav
##ection
##gled
##race
##sio
excel
firearms
overturned
polished
yun
##ication
##ilia
##ility
##kic
##lini
##rry
##sell
##zoo
1803
amidst
forthcoming
hartman
henson
lange
proportional
robson
roland
severed
socialism
##any
##ivision
1826
560
baden
conferences
delivers
demonstrating
digging
distorted
greens
katy
landscapes
naive
oclc
perch
pillars
processed
recognizes
rink
spinal
wasp
weiss
##dus
##tana
approximate
barre
hansen
lowland
principally
researcher
sheridan
susceptible
viceroy
vicious
##acle
##iled
##rika
##uation
38th
autism
cooperate
emerald
ff
fiber
mongols
planting
samoa
slated
spokane
supervising
takeover
taxonomic
toyota
upright
##inski
##isk
arun
deaf
drafts
gunmen
induce
installations
jacksonville
journals
octopus
russo
threatens
travelers
ussr
williamson
withdrawing
##33
##ones
##orted
##tze
1823
cola
dealers
fused
inherit
intercontinental
lily
migrate
nicholson
occult
philharmonic
qing
quarrel
renew
sensitivity
slipped
troupe
winged
##kara
##rave
altitudes
cheshire
filters
landowners
lungs
plume
rica
seldom
sociology
straw
swell
thrive
##flower
##graphy
##iver
##page
1808
avenge
baseman
beacon
biographical
conway
developmental
elaborated
gdp
laurence
mage
monarchs
platt
prefers
redesign
romani
ruthless
segregation
##gara
1811
80s
abel
alexa
bricks
buttons
celtics
jenkins
moth
rower
trash
##tten
404
aluminium
eminent
feminine
google
hereditary
invites
lifespan
nirvana
playboy
##cino
##life
##roi
##sted
booked
camden
demonstrates
disadvantage
discontent
dismantled
eroded
grind
inmates
negotiating
outlaw
paradox
scary
screaming
sentimental
steamed
thread
timeline
violations
##lton
##tip
affirmed
clashes
clues
cobra
fronts
occupies
plaster
prefecture
reinstated
tuberculosis
wherein
##etta
##pins
##rove
calculations
comparatively
devote
hostility
infiltrate
isis
kota
localized
shelby
winding
##borne
##eia
##iating
1817
angus
aristocracy
chaotic
chooses
cornish
crashes
guardians
heel
peach
stocks
touches
##anne
##eman
##rata
accusing
annexation
antiquity
dissatisfied
injection
mosaic
peculiar
penetrated
statesman
##cock
##ety
##tet
254
a1
als
apologize
baghdad
bounty
chilean
conflicting
deserved
donation
foremost
install
libel
obsession
prevailed
propose
stretches
##acy
##ight
##km
abandoning
auditorium
buddy
centennial
clit
fellowship
fines
hc
holloway
prehistoric
readings
reprised
suns
trusted
tulsa
vintage
wetlands
yuan
##cier
##helm
##lide
##mund
##sable
christi
elliot
flanked
imaging
invading
pools
rust
shafts
solving
##iana
##kos
##sure
##tley
##ル
1813
applies
erratic
leap
motives
peripheral
prototypes
##dya
##erina
##making
##ners
##suit
##watch
##zzo
boyle
breakup
burma
concessions
counting
kuala
roche
royalty
savings
swap
testify
vague
1783
dignity
domination
ensign
extracted
infinity
norm
packaging
pamphlet
sticky
symbolism
truncated
##eed
##np
##osh
analysts
casualty
densely
enjoys
fatigue
haas
ie
infectious
nemesis
penguin
photon
pillar
retailers
reverted
tchaikovsky
virgil
wadi
workshops
writ
##avian
##fm
##nica
##pc
##tino
##ying
213
betrayal
chloe
dalton
employers
foil
haze
millionaire
omar
petroleum
spurs
ulysses
##elles
##finder
##sonic
1791
bathroom
brewer
descend
experimentation
gallagher
inexperienced
inspiring
macmillan
merging
monitored
pledge
traps
turnover
·
##oche
carpet
cassette
forerunner
genetically
gland
miracle
quotes
ramsay
restrict
severn
splinter
trumpet
yellowish
##hima
##itive
##rain
##sling
##tock
beams
chorale
cute
dyer
landmarks
lovely
miniseries
nm
satisfaction
sawyer
specifications
thai
##ading
##icus
##oge
##oning
##rdy
##reate
##uso
##zzle
222
barge
catalyst
claws
curving
discourse
disturbing
handheld
idle
nottingham
pitchers
reissued
sights
upward
##cious
##imating
##liffe
##mity
antarctica
attic
booklet
boxer
choreographed
eastwood
exclude
hawkins
hercules
locker
resurrection
vt
yellowstone
##anger
accomplishments
authenticity
bafta
beloved
bits
bullets
cyprus
dialects
domes
eligibility
foreigners
hated
havana
hector
humble
incorporation
interceptions
psychiatrist
sabotage
seminary
songwriters
speedway
wardrobe
##ige
##lars
##sam
allah
chartered
declares
encouragement
johan
privilege
promotions
rejects
shipbuilding
tay
##ically
##just
##right
##rug
##scope
accuse
anymore
bags
doctorate
graded
hilarious
inherent
pena
pumping
relies
wards
warns
zach
##sdale
compartments
destined
drained
illegitimate
nutrients
regulars
rudder
##eak
##text
awesome
bali
brownish
distributor
eaton
emanuel
initiatives
recession
sans
vine
##13
##dant
##gies
##mei
##oom
##pire
##sun
##trip
##uman
acquitted
addict
bypassed
ceded
communal
dividing
entities
gomez
laboratories
needing
ratified
respects
sorry
stamps
##bone
##forth
##iling
##rted
##torm
1802
alerted
bankrupt
countdown
customary
deposition
greenhouse
hooks
illuminated
jackets
mighty
selecting
sims
sino
sticks
summary
sutherland
toxicity
uttar
##gative
##lka
##η
1807
aye
bey
consultation
costing
emigrated
flashbacks
grazing
kidd
penis
##ivist
##keeper
##rley
##vate
accidental
afi
computing
inlet
intricate
locus
sacrifices
tightly
ui
##pile
arcs
belarus
comets
imagined
juno
lim
murderer
ourselves
penal
purge
ricky
somme
tortured
whitish
##esis
##ieu
abbott
affiliation
cora
faults
interval
keller
manson
melissa
merry
photographic
predictable
spines
sylvester
ulster
vista
yankee
##ager
##enter
##lah
##rkin
##zia
busiest
debuting
deprived
directive
emir
exam
quay
repeating
sumatra
utter
##erman
##oids
antoine
bacterial
borrow
capitalism
echoes
evaluated
forwards
manpower
robbie
satellites
scrutiny
siding
unto
##bek
##eded
##frid
##nock
1840s
agnes
committing
fragile
harlem
mocking
recipients
teaser
ventures
##gree
##yck
##ス
amanda
backlash
beverly
broker
darius
dat
distracted
isla
lisbon
lucia
octave
philosophers
privacy
rf
transplant
²
##hora
##nish
##yx
287
cary
clarinet
contaminated
doorway
emancipation
famine
frankfurt
heron
inaccurate
inactive
joking
lincolnshire
marshes
northwards
paula
recounted
relics
reptiles
selector
steelers
unconstitutional
vigorous
##adia
##foot
##nitz
##roved
archaeologist
charities
discouraged
ellie
forbid
imitation
katrina
picnic
pioneers
prank
sheen
spotlight
spray
surveyor
##bby
##iam
##icle
##js
##ylus
1778
confirming
corporal
dough
ecology
interspersed
natal
onstage
progressively
punished
ribbon
sweeping
##15
##lita
abrams
assassinated
basket
cartridge
envelope
jakarta
lizard
nickelodeon
offerings
recipes
scranton
synthesized
wishing
##combe
##nden
##nier
##pio
##riz
##υ
alla
bulge
cain
chew
clara
contests
elevations
incorrectly
invertebrates
magnate
nigeria
noah
sophie
1822
375
ascension
betrayed
biologist
clarified
courtship
icelandic
marvin
mistakenly
muscular
nara
predictions
rm
turmoil
undergone
##active
##alia
##iting
##lion
##night
##tish
beers
caucus
cherokee
consecrated
cowboys
electorate
greenwich
johannes
logs
operative
populace
receptions
summarized
##38
##iation
##stle
##tead
177
178
aluminum
apache
balkans
barlow
bearer
christie
default
equestrian
fade
harmful
hindus
hobbs
johor
migrated
myths
prefix
sacks
statutory
updates
vaccine
##cko
##lard
##neil
##nesian
##pressed
alta
awful
counters
pius
rental
tack
temper
trades
unidentified
wehrmacht
worry
##dote
##lge
##tier
##tious
174
asleep
farrell
outlet
rafael
rebellious
secession
seduce
weir
##ement
##gonal
##hof
##lift
##pace
##park
##tica
##vation
##xie
##zhou
concussion
confessed
diffusion
favourites
journeys
manifest
maori
meng
midlands
pizza
regal
representations
responds
robots
slap
slick
standings
teller
viaduct
##bour
##lib
##rran
##tale
##wise
chateau
despair
dwarfs
hunts
luna
moody
mule
mutations
nguyen
pays
pitted
token
viola
##boats
##break
##hine
apparatus
burnham
defines
frederic
libretto
manifestation
posture
refugee
rudd
utterly
##moral
##stick
##ト
advocacy
anxious
aux
bain
billie
chiefly
dangers
folding
lantern
logistics
odor
odyssey
##ailed
##nai
##rates
##sity
530
alison
amassed
cao
courier
diplomat
fashionable
futuristic
kerala
mab
magistrate
masks
medication
mirrors
signatures
sire
tore
##bula
##crat
##deck
##kari
##llis
##mble
ambushed
clans
correspond
denying
dolphin
falkland
gail
globally
handsome
improvisation
lockheed
newborn
paperback
phones
requiem
serra
shetland
##ropolis
##usions
401
andes
contractor
cue
denomination
freezing
giles
horace
pioneered
rhyme
splash
##eil
##hone
##isan
##quist
##sund
##tated
assign
broadcaster
budapest
egyptians
grateful
hydra
irwin
lets
morales
oilers
omega
overture
parental
rwanda
slovakia
suez
transformers
##pants
##rnet
##ل
alias
attested
belize
carmen
competent
disagreements
faye
lao
lifting
likelihood
mixes
practicing
resided
schwartz
wires
xiv
##gill
##rator
assistants
barbados
classify
jett
mankind
mercenaries
partnered
pinch
podium
preparatory
proposing
shattered
suffix
worms
##ario
1830s
artefacts
carmel
cody
forehead
guinness
humid
insurgents
kosovo
larkin
paranormal
patti
raises
renumbered
scenery
shelf
terre
zurich
##chemical
##owing
##post
asset
basalt
cerebral
commence
cousins
distortion
evidenced
explanations
foxes
imprint
improper
kensington
literacy
lump
pilgrims
purported
sailor
shocking
sigismund
stereotypes
warp
weaponry
##ape
##atter
##eyer
##kowski
##leader
##music
##otide
1600
1770
analogous
confederates
fearless
perkins
pistols
sponsors
subdivision
synthesizers
##cens
##lassified
belts
complain
impressions
institutional
lagoon
lottery
monaco
simulation
streaming
trailers
##nami
deng
domains
donnell
elias
fallout
incurred
intervened
judith
lodging
lydia
mimi
penultimate
realms
regulate
spelled
##11
##cts
##rber
##rons
##uration
##urus
aforementioned
arbitration
awaiting
gavin
integrate
ito
mead
neolithic
paw
periodically
ransom
sinai
wharf
##boot
##fus
##osity
##pling
##rangle
##ures
183
beautifully
bodied
cannes
generator
guru
lucrative
nero
paterson
psyche
researched
rites
swimmer
tyne
unused
wedge
##bei
##dley
##ented
##kti
470
esteem
evaluate
inadvertently
santana
shootout
tong
vanguard
##lius
##yte
31st
birthplace
deliveries
empires
enables
expertise
fishes
flemish
flowering
fumble
glasses
guarding
ignoring
jeopardy
moi
participant
pioneering
prayers
remarkably
reside
tablet
##ovo
198
admitting
becky
curious
grasses
harmonies
herring
ignore
keating
kiev
knocking
mane
medina
montenegro
pumps
saxons
sermon
solicitor
unfamiliar
##hammer
##pia
##ß
activation
adjust
blizzard
brendan
contrasts
dairy
desirable
drill
fits
greenwood
impaired
leonardo
macau
manchu
menace
mercer
ngo
overshadowed
reasonably
sudan
swallow
unconventional
β
##oton
##yman
239
950
afro
airmen
creed
drummond
evangelical
greco
grenades
horrible
landlord
petit
preserving
relativity
restriction
rooted
royale
scrub
##itative
##rgeon
##ross
##uet
720
alleviate
amnesty
brewery
chop
delighted
fairbanks
gifted
mikhail
monmouth
props
repeal
semester
sioux
##hoot
##lining
##stis
##taff
##tai
ape
atoll
checks
cowboy
headlining
lobbied
manipulate
mysteries
titanium
titular
##cic
##dun
##eller
##nction
590
administrators
affinity
documentation
exempt
finalist
finalists
gems
hats
kirby
listener
permits
preacher
predominant
strauss
tibet
transcription
wonders
##fighter
bony
breakout
goose
homestead
honorable
mammal
overlapping
pedal
thatcher
urgent
##21
##aton
##dating
##dhi
##hesive
##pone
1788
alternatives
builder
cautious
declines
equations
explorers
gloucestershire
implying
ipswich
laughs
livingstone
microscopic
prima
renovations
resentment
trenton
viva
##crest
##eers
##ioned
##rek
187
buster
collaborate
ecosystems
fellows
gettysburg
grenade
griffith
labrador
loads
minus
mythological
repetition
reprint
resolutions
sampled
seizures
wren
##cm
##itan
##llet
aerospace
arlington
bravery
cindy
clive
commemorating
crossroads
elaine
fairfax
greyhound
imports
limp
monumental
spurred
supplying
sutton
visa
##eptive
##inga
##lett
##rino
##т
algorithm
bavaria
browning
carlton
colorful
disappear
genocide
hobart
horton
masonry
mia
needle
ported
rollins
tablets
teddy
##balance
appalachian
facilitated
hides
maze
modernization
obligation
reused
##bians
##eles
##ignment
##ional
##osing
##rno
##rya
##tism
##ucci
35th
alloys
antigen
assurance
attach
connie
euros
examinations
exploits
fanny
harness
hello
hoover
munitions
premiership
rockwell
royce
statutes
truss
wherever
##enes
##gall
##rts
brink
edith
elsa
endeavour
fugitive
hiroshima
hybrids
jorge
leaning
legitimacy
revisions
tibetan
toxin
##jet
##lak
##uled
211
520
compass
dell
disqualification
gangs
ibrahim
invasive
jonas
laughing
lookout
mastered
meadows
prompt
raced
rodney
rufus
sanctioned
sins
unsuitable
weekends
171
208
archibald
arrests
blessing
brat
croats
faded
genuinely
goldberg
handel
inward
kia
legislators
mitochondrial
natalie
nate
nocturnal
novak
pang
parishes
potent
recognizing
thrill
##lessly
##oint
##ood
ache
armenians
catastrophic
definite
focal
friedman
fueled
imposing
katz
prostitute
provocative
rainforest
routinely
skulls
vulnerability
##eron
##inated
##mata
bk
bulletin
captures
closet
cops
longitudinal
marquis
preface
rainy
seneca
titus
toledo
wired
##eka
##ely
##hawk
##ntes
##train
citation
decca
elbow
exposing
grill
ks
moat
parasite
paz
reclaim
ripley
versailles
″
##amina
##buro
##opers
##urse
##vine
babies
bugs
conferred
convent
convergence
dramas
luxembourg
rotate
spared
spheres
stature
winger
##chon
##kind
##pala
##unds
194
circa
considerations
cracks
encore
encourages
falcons
forgive
freelance
gage
historia
iq
marilyn
molecule
nascar
strengths
wendy
wrath
xu
##child
##kell
##naut
##shed
238
accompaniment
accumulate
alps
attendees
bordered
craters
desires
expectation
hymns
lining
loops
mackenzie
narration
narrows
promo
rue
sigma
synthesizer
tomas
##dier
##emon
##ingly
##rsk
doi
feral
mutation
necessitated
professors
prostitution
rector
saratoga
skirt
tripoli
##dhar
##hta
##islaus
##mite
##oney
##roup
##walk
52nd
680
arte
baxter
compartment
cooked
corpses
diabetes
forks
gubernatorial
indictment
publicized
rowan
sells
##arte
##bine
##cey
##eki
##elled
##iary
##rwood
##sbury
##tment
1781
chaplain
chennai
councillors
dependence
eta
hardship
hui
interrogation
lied
logging
overland
stephanie
supremacy
vampires
##hips
##izations
##uate
##uated
##vocation
204
blessed
bursts
humidity
importantly
launcher
mcgill
padres
phosphate
quasi
salaries
shortest
sickness
weighs
workforce
zeta
zhou
##git
##tua
astronaut
bournemouth
desmond
diaries
dissolve
hints
mural
ow
owens
raider
reefs
snowfall
transitions
##ogo
##oud
##sas
bosses
camping
cocaine
coconut
conner
conveyed
directorial
josef
ramsey
rook
roundabout
taller
useless
##pse
##tty
209
ballroom
banda
cues
disperse
doses
finite
firth
klan
lansing
layered
noticeable
philipp
pills
plural
possessing
transactions
ugly
verdi
wolfgang
##actic
##aks
##avia
##bular
##ception
##held
##horse
##hya
##swell
##yler
1700
bt
endowment
harlan
internally
knot
marquess
meaningful
orbiting
pembroke
proponents
psychic
reginald
replacements
volatile
waist
##cek
##idal
##say
##zong
229
advisers
collaborators
container
cylinders
fist
hana
mainline
oyster
pleistocene
popularized
quarterly
rees
traitor
transparent
trophies
uta
waldo
##dding
##firmed
##ibar
##isse
##onga
accumulation
detonated
diagnostic
eurovision
fide
gotten
hiking
hubert
loyalist
outspoken
patience
reactors
rewards
semifinal
spire
##nding
analogy
audrey
aztec
blink
boon
complaining
granddaughter
identities
iroquois
modernist
pigeons
regeneration
regis
schooner
thornton
whitman
##32
##bag
##case
##cine
##holes
##inae
##nent
##tility
##ulous
1787
aristocratic
awarding
banana
creativity
dundee
fixtures
gemini
lively
mughal
rescues
richie
ridden
stairway
voter
vowel
##asia
##dder
##eum
##ksha
##nivorous
##rso
betray
blaze
condor
donate
enlightenment
frequencies
hostages
induction
interfered
madame
manifesto
nurses
obstacle
savannah
soto
templar
vegetable
##oms
##shaw
##wang
737
amman
classifications
claus
greed
prelude
recess
ringo
roberto
subfamily
taped
##lets
##oured
##sibility
jesuit
mandela
opus
reluctance
squares
subsidies
##color
##imated
##wana
232
burgess
deeds
faust
grams
intends
latino
linden
meek
milford
professionally
purity
sandra
shades
validity
##due
##mack
##oor
##rrard
##strel
##tage
##typical
##zai
caldwell
chill
cologne
contamination
contenders
escorts
expulsion
heels
ledger
medications
mesopotamia
pentagon
prospective
royalties
salts
sarajevo
stir
taxon
tuning
vernacular
warden
##л
228
anders
assigns
bamboo
bowman
buccaneers
butterflies
chairs
diploma
disappears
elf
entrances
escalated
namesake
petitioned
seoul
skins
smithsonian
sooner
terrific
vertically
vocabulary
weaknesses
##ivating
##jee
##riam
##rier
##roud
barges
danielle
daring
delaying
epsilon
healthcare
kangaroo
lash
mariners
marxist
oasis
onward
pastoral
theodor
tweed
##abad
##dah
##oit
285
confesses
decor
disposition
flexibility
irvine
panda
pollen
purchases
showcased
skies
ventilation
vulgar
zeus
##bate
##guide
##lth
192
32nd
administer
amend
announces
auschwitz
calcutta
contractors
cv
flourished
flux
gasp
hinted
inclination
invite
nissan
portfolio
revelations
shrub
uphold
##group
##iferous
##nity
217
540
aggregator
annex
ballard
brakes
deteriorating
disasters
immature
koch
motions
narratives
shotgun
transitional
underwood
##arding
##christ
172
aqueduct
ascended
axle
cigarette
detectives
eats
finalized
informing
injunction
jubilee
mackay
mariana
rubble
scarborough
scent
stil
tile
upbeat
wakes
weights
##bation
##eet
##lein
attribute
baird
bottles
chimney
clutch
edged
famously
gorgeous
muddy
oricon
ostensibly
reckless
reliability
reworked
safer
stripe
veins
##dome
##leigh
1779
252
beatrice
beginnings
bengali
bestowed
brandenburg
corresponds
distraction
heroin
horde
icons
lama
logistical
luzon
melted
merlin
oaks
spat
strains
veracruz
##eria
##pired
##sier
##sters
##tm
definitions
dunes
flanking
illegally
indefinitely
kidnapping
literal
modeling
polymer
prosperous
recognizable
rosenberg
unreliable
##19
##factory
##mart
##rington
##roid
##vies
burnley
ceasefire
circuits
consortium
degradation
favorites
filmfare
flavour
heck
marches
popularly
populous
rudolf
selma
spanned
##drich
##rase
accelerate
bait
bliss
clap
db
distract
ethan
gardiner
intersect
kruger
mecca
moose
obituary
pathway
receptor
remedy
##bilities
##cade
##erty
##imate
##ivar
##rani
##udes
1900s
anchorage
antibody
asserting
constituent
existent
fireplace
foliage
hillary
injuring
libre
pressured
sato
shire
shrimp
tick
##cular
##glass
##hui
##plex
##sible
##tery
1660
anterior
capitalist
chassis
controllers
crushing
duct
fries
hastily
herds
loaned
nomenclature
parry
perished
pharaoh
ping
prophecy
riddle
spaced
stemmed
wainwright
werner
##isman
##lete
##liche
##scribe
adulthood
advocating
amtrak
apex
chips
comrades
corrected
deacon
emerges
exchequer
exited
fractured
incapable
kb
organising
pageant
palo
rudy
sampling
seismic
sgt
sorts
specialised
taboo
tanner
##60
##hue
##static
##vere
calhoun
gown
grange
kelley
loco
neared
nerves
praises
server
steer
tabloid
utilize
wreckage
##akh
##elia
##hiti
##thest
1774
179
188
212
analyze
angola
assure
balkan
distrust
earls
emile
honda
manipulation
morrow
nectar
relocate
remembers
shortstop
staunch
steamship
sums
takeoff
transforming
trapping
tumor
##ental
##flies
##inal
##iny
##urai
##zle
brotherhood
caretaker
centenary
chong
commandant
corvette
crippled
elton
fancy
harmonic
instinct
interacting
orchestrated
salute
simulate
skeletal
threshold
unemployed
##90
##aux
##erine
##fires
##igate
##kla
##minate
##thermal
##thus
2020
90s
amusing
befriended
blows
brant
comparative
credibility
darryl
disgrace
distinguishing
flare
grabbed
hadn
mentioning
northernmost
pornography
razor
replies
setup
sip
temporal
welch
##cana
##pping
##xin
cello
coats
consistency
convict
differentiate
gaa
imply
mined
muse
pew
pour
taliban
unseen
washing
woodlands
##etto
##jima
##onal
##μ
feminism
haste
heirs
liga
murdoch
occupants
peppers
prologue
reversal
sculpted
sustaining
trustee
##alla
##ouin
##ressed
##ury
##uven
acknowledging
analyst
arising
bragg
fernandez
luton
metabolism
organizers
papua
pumpkin
simmons
spectator
thoroughbred
##ining
##sian
##zio
176
181
216
clements
deed
hotspur
marin
mozart
periphery
transforms
unification
uruguay
vegetarian
##cats
##enko
attorneys
conscription
defunct
endings
graffiti
kramer
narrated
sentinel
teens
voluntarily
winthrop
wizards
##22
##aging
##loe
##lves
##ω
abandonment
atkinson
backward
bodyguard
brighter
businessmen
condom
diagonal
feeder
flea
flirt
frey
ironic
laird
liberated
mangrove
mortgage
recaptured
stabilize
statewide
ultraviolet
vega
wandering
##cken
##dc
##nched
##wear
184
980
auditions
docked
doubling
dvds
eliza
glove
handicap
heap
hussein
neighbourhood
neumann
positioning
posthumous
prohibit
proprietor
readiness
recapture
rodents
slovenia
titans
uncover
##eration
##estinal
##inge
##stad
##using
910
aggressively
antwerp
boulder
conqueror
couch
geared
hike
jeanne
mathematician
moors
mutant
reeves
reflections
##ango
##ares
##cule
##mara
##mobile
##moto
##nza
##ı
34th
arched
astronauts
await
behaviors
blond
chevrolet
cooled
crawl
excuse
genetics
gentry
grasp
hawker
mandated
modelled
morse
motive
natasha
olympus
parole
relentless
ribs
sinn
skeletons
waterways
yuki
##sty
##umen
##wheel
325
bauer
darling
disciplines
enraged
fender
flawed
labyrinth
lawsuits
pivotal
residency
scaled
southernmost
unopposed
wink
wounding
yemen
##dern
##lmer
##sław
249
adorned
battling
briggs
coarse
consolidate
eds
estonia
forcibly
metabolic
scheduling
tires
toulon
woodstock
##carriage
##comb
##gues
##irs
##ishment
##virus
##weig
255
assemblies
clones
coherent
desperately
engraver
establishments
fascinating
fishery
hezbollah
magistrates
ponds
python
runaway
shrubs
steered
##block
##lins
##lok
##mith
##ɛ
42nd
^
bishopric
builders
cesar
collaborations
corp
dared
deutsche
differential
duly
fascinated
gymnasium
haunting
lilly
lobbying
luigi
mayo
nightingale
parameters
philippe
poses
sasha
transfers
vacated
yahoo
yuri
##ators
##rano
##κ
322
70s
aisle
awakening
battered
duplicate
headache
intend
ivory
sinister
soo
stepping
toilet
##iful
##stellar
attire
ceramic
collaborative
gunner
insisting
interned
lecturer
overseeing
pads
rigorous
spikes
stray
sundays
synonymous
wrestled
##brates
##dling
##vos
avid
cds
compliance
continents
convenience
donovan
heightened
katie
laguna
mesh
militants
nonsense
oakley
plata
pulls
reclaimed
saxophone
tyrant
##chment
##isms
##orne
bing
combo
countess
crusader
deterioration
encompasses
hannibal
jewellery
middlesbrough
mystical
pains
panther
parcel
pg
questionable
regulatory
ropes
rpm
stamford
stephens
textures
whaling
yesterday
##aire
##connected
##izer
##lberg
##rden
##zee
atheist
bounded
coordinates
dresses
economist
ella
grains
hammersmith
hitch
justification
muir
restraint
sumner
tuition
undisclosed
##ando
##hein
##rane
##wark
dictatorship
directional
exiting
fielded
jules
lumpur
obey
otis
stephenson
##50
##acious
##hita
##mian
##rks
234
262
acceleration
blanc
brightest
brow
cabbage
cmll
denominations
executions
flute
mapping
northampton
outrage
rahman
reorganization
rite
robes
shareholders
##deh
##gny
740
aegean
alliances
angrily
bored
cared
coventry
crewe
frontman
jelly
militant
nagasaki
pens
¥
##boards
##phobic
##tore
##uity
anatolia
burnett
compressed
denny
dude
eater
filing
litigation
marko
plato
receivers
recipe
renault
seaman
solos
unlocked
vane
viscount
##eros
##erre
##ignant
##loh
##tya
abolitionist
bethlehem
closes
crowns
determines
dictated
drastically
enamel
explode
fertility
forged
hazardous
impairment
narayan
receptors
seizing
stockport
stylized
sunrise
weaving
##ddle
##linger
##mbe
##tops
186
amelia
britannia
conditioning
imperfect
lamps
laureate
nuts
reflective
reputed
ryder
saloon
schooling
uploaded
vanity
##mah
##ovich
221
233
abused
announcer
cobalt
crossings
heats
jerk
lax
masculine
pablo
rattle
rushes
sanctions
scandinavia
separates
shrines
simulated
stride
undoubtedly
utilizing
uv
##lights
##rred
##σ
accolades
banjo
compromised
cyril
elliptical
entrusted
frustrating
gotham
handing
helpful
highs
hilary
injustice
masked
modify
offences
orioles
outset
patty
poisoned
programmed
rd
restrained
revolutionaries
saunders
slovak
suspense
##ntation
##oted
##oza
biographies
cavern
commencement
contradiction
crafts
dickens
foley
hilton
ironically
knees
novi
outcomes
reinforcement
scared
slips
zur
##ctuated
##hini
##holders
##keeping
##minster
##nche
##neuve
##orus
##ssing
##thesis
##tight
##titled
##ttle
##voking
##wire
1760
activism
bids
chieftain
dietary
dilemma
encompassing
ewing
formulated
gaston
gently
initiation
martins
palaces
prevalence
qualifications
sirius
suspend
tombstone
zebra
ا
##cating
##ntino
abrupt
adjutant
deficiency
geologist
libertarian
liszt
lowlands
oboe
satisfactory
shouting
strokes
ventral
wilkes
xv
##ddy
##gement
##lating
##lity
##н
aleppo
alexis
annoyed
arbitrary
crashing
dissatisfaction
elena
grin
grooves
lowering
markham
posing
refurbished
rests
revisited
shone
timed
##ivate
##tyle
1782
famed
flees
herbs
hobby
imaginative
impulse
intentional
invasions
ivo
leach
musa
sparks
variables
δ
♯
##ckle
##ptic
##ʻi
aristotle
darlington
glow
hoop
incidence
interpreter
jess
presiding
tastes
##bius
##books
##inas
##tracted
##wd
adler
andersen
blockbuster
covent
designations
doe
dracula
engraved
francesco
insignia
nagar
pets
slept
superiors
tariff
wary
yen
##aldi
##edo
##loading
##rized
##sei
##ク
andreas
apocalyptic
arden
balcony
chun
concentrating
dangerously
disabilities
grapes
jared
kite
licenses
marian
metropolis
osborne
pacing
penetration
privateer
rallied
recalling
schmidt
strategically
##18
##40
##athing
##cute
##enne
##manship
##otype
bites
certainty
cid
crested
email
gaddafi
gaunt
ordained
playful
reminder
subdued
susquehanna
volley
weed
##bery
##cape
##uming
##uno
##zek
760
barrister
benoit
bolivia
broncos
bronx
carbonate
chatham
cheat
commentaries
dane
digits
elastic
embankment
erich
montagu
mortimer
pathways
priced
redding
rugged
spatial
springsteen
uganda
walters
woodward
##anga
##dna
##entation
##hers
##holm
##nage
##pose
##tov
510
annoying
cheers
chronological
curator
defects
derive
f1
hinduism
poured
symmetrical
tess
xavier
##chai
##icides
##vc
abdominal
bavarian
buyers
colonization
cumulative
drumming
executing
fay
flick
forbade
fucking
gibbons
goa
headlines
hearst
marred
nationality
substantive
uncredited
violate
youthful
##fighting
##orescence
##uaries
##ulia
##ς
barbed
classroom
disciples
disturbances
donor
expands
finely
glimpse
howell
jays
lena
lush
markers
offended
orchard
pork
posterior
preaching
productivity
sewage
strife
unpleasant
vh1
wrap
##erate
##erton
##logists
##ove
##sher
237
343
abbreviated
antenna
aubrey
beaufort
bribe
brightness
bunny
caf
cheating
devoid
enhancement
illustrator
jewelry
liability
liam
nellie
nikki
novelty
outfielder
packaged
steele
tsunami
unacceptable
violating
volta
##dry
##irus
##polis
##rite
##uron
adapting
beethoven
clapton
differentiated
locality
oversight
parkinson
residing
sapphire
swamps
vase
##grapher
##hosis
219
blackmail
inviting
majestic
midfield
mythical
peterborough
plotting
recounts
rejecting
saul
secrecy
spies
waterfront
##dication
##dilly
##heart
##wicz
benign
cannabis
curb
curry
detachments
distributing
grandchildren
kathy
loyalists
moths
naomi
orphanage
randomly
reservoirs
snyder
stigma
switches
zee
403
apocalypse
ballots
caring
connell
evenly
framing
newt
pencil
precinct
simeon
sustainability
swami
swiftly
whitehall
zion
##gist
##poo
##witz
anthropologist
applause
archaic
botany
bowen
bump
collaborating
edict
evidently
guise
memorandum
perfume
postwar
stacy
sylvia
traction
##cchi
##mons
##vot
231
265
advise
asteroids
bidding
burials
docking
geek
hospitalized
inverted
joked
kari
legions
lieu
membranes
orchid
overwhelmingly
pedestal
radios
simone
tasmanian
unfortunate
##hair
##lington
1784
abusive
broom
cellar
downfall
hesse
playground
sami
seeded
sensory
syndicated
temperament
vows
##31
##nsk
##zic
224
630
calf
christchurch
coated
contradictory
deciduous
elisabeth
etat
excursion
fleetwood
implicated
infringement
klaus
kolkata
nikolai
nominally
nominees
paige
rebelled
schizophrenia
spaceship
##bourg
##hp
##rson
##イ
automated
billing
boiling
canine
courageous
drilling
espionage
exemption
graz
livery
malawi
paler
prepares
projections
quicker
substitution
swat
thrilling
wand
##llon
##lone
##sities
##vd
##wari
##zier
a2
adequately
algeria
baths
bernie
circulating
distinctly
domestically
dominating
emphasizing
flap
heraldic
hottest
labourers
lattice
merits
porte
seminole
##ahl
##eral
##llie
##urable
730
acidic
advisors
align
anaheim
ascending
behavioral
brace
carrie
diplomacy
drifting
dynasties
friar
hormone
hydroelectric
judah
lux
mcnamara
nomadic
poisonous
projecting
realise
senses
sober
translates
##dity
##film
##itarian
##jic
##meral
##planes
##ptive
##tness
##urrent
191
227
alcoholism
arterial
beans
efficiently
extravagant
horseshoe
melancholy
prosecuted
reactive
remembrance
robotic
rocker
screenings
smuggling
specify
unfit
yields
##ayo
##bai
##chers
##elling
##lowe
670
astros
caravan
columbian
contributors
drafting
eclectic
entertained
felipe
harassment
honesty
hooker
indicted
inverse
laughter
loren
monograph
outraged
outrageous
parasitic
researching
sediments
surely
temptation
ultimatum
wc
##bbs
##dition
##hoff
##iah
##rland
##vina
##xed
1758
60th
alleging
commandos
dispersal
drains
interiors
leah
lizards
migrants
neurons
nitrate
peruvian
realization
risky
sherlock
starvation
teaches
##amen
##hay
##icing
##zal
207
algae
anarchy
bleak
clocks
congregations
exemplified
magician
mussolini
neat
puppets
sadness
spoon
##lved
##nca
##onis
##vered
##yang
256
412
alvarez
applicants
contributes
daddy
devout
dwellings
evolving
hasan
header
libyan
papacy
removes
sabre
specialists
tanaka
taxonomy
tilt
topography
unpaid
##ition
##joy
##vah
africans
attracts
audit
banning
convictions
cruelty
disqualified
dysfunction
electrode
elemental
fireworks
flaming
inflammatory
irony
knives
nikola
novo
outing
phyllis
procedural
rabbits
rotated
safeguard
stunts
##gart
##hopper
##roll
##zers
189
199
ammonia
bordeaux
brennan
dubious
dung
fatty
jaya
juventus
kilometer
kisses
macleod
nostalgia
octagonal
paddle
rappers
redeveloped
sacrificed
sheikh
sportsman
terrorists
ufc
vibrant
##ards
##neas
##scopic
##slow
##tary
355
argyll
carvings
churchyard
compression
diaz
intriguing
lok
nepal
operatic
ounce
prosecutors
realises
robbins
sultanate
transmit
wolfe
##cellular
##pack
##sboro
##tadt
273
ahmed
altering
aviator
baptiste
barns
classrooms
collisions
commemoration
ether
hasn
hopeless
jimi
lenses
lick
liking
mein
packers
raped
raphael
repay
tata
valencia
・
##chman
##eux
##grant
##iculate
##rative
##usia
##wright
aloud
andhra
apologized
charismatic
dreaming
equatorial
eras
ernie
groundbreaking
guarantees
haifa
harley
hernandez
ligament
pavement
promoter
refreshing
respectable
ruben
shining
soluble
sparsely
stormed
watford
##bbed
##iq
##jean
##kow
##liga
##shore
##vian
##wg
395
820
assyrian
asthma
banker
calculation
caliphate
deserves
ecuador
harrow
metz
obscured
oracle
ornamental
promotes
protects
ratification
referencing
riga
sprinter
succeeds
tunisia
unpublished
upbringing
worcestershire
##14
##claiming
##hort
##koff
##mount
##sack
##zine
303
brisk
christy
confidential
contentious
controversies
dani
ghetto
implementing
indicative
lough
midday
narrower
pops
practised
protege
rebirth
sabres
slain
superseded
vp
wholesale
##brush
##essed
##ffie
##fies
##icide
##imus
##kovsky
##lang
##sies
##sser
620
870
abuses
aerodynamic
amherst
denies
dukes
embarrassed
embarrassing
expressive
fullback
happily
hatfield
headmaster
jamaican
naughty
obesity
originate
roach
stella
swinging
virtues
whereabouts
##ays
##brand
##iani
##itude
##morphic
##rice
##rvis
adamant
arranging
booster
bundle
cigar
contractual
easton
emitted
fibre
figured
hesitant
inspected
kinetic
ledge
leverage
likeness
luca
planners
prisons
reminds
sly
steppe
translate
traumatic
triad
##cable
##ciation
##dden
##ditional
##harat
##kumar
##vial
253
bremen
bwv
casts
dixie
downhill
exhaustion
glowing
mccall
perspectives
ripped
salesman
stevie
swear
tipped
turing
##80
##alic
##coat
##drop
##grave
##lence
##rds
##rites
570
applicable
beaumont
champagne
choreographer
coded
devin
esther
examiner
farmhouse
feasible
gypsy
huntington
juniper
mcgregor
pins
sensual
shang
template
terminate
tolerate
wavelength
##meter
##nob
##otti
##rka
##unciation
##writing
495
abby
acquaintance
articulated
deported
electrified
emirates
experimenting
hornet
kathleen
levant
mounds
navigator
quadrant
sails
stout
sunni
thicker
##ador
##asian
##haus
##kia
##opsis
##oys
##pina
##rent
##wash
223
bisexual
blooms
breached
ceylon
domingo
faux
hague
incentive
intellectuals
malmo
overseen
principality
quaker
resented
semitic
staffordshire
tonga
wipe
yue
§
##emia
##tched
214
airship
bridget
colder
costello
emphasizes
encompassed
enroll
entrepreneur
insurrection
kuwait
marquette
reigns
revolving
terminates
tory
umar
vacancy
##ifice
##pped
##rien
##ulsive
##vres
culturally
damned
debra
doubted
endure
flourish
fours
frankenstein
honolulu
ignorance
imaginary
indicator
josephine
milo
necklace
outdated
peacock
siberia
wasps
wasted
þ
##berman
##chus
##iano
##taken
33rd
antony
apes
ashford
atrocities
blanche
bourne
breton
cleric
collapses
diffuse
elector
evelyn
exchanges
forte
gable
horseback
hospice
phosphorus
preach
routines
sacrament
sargent
sheltered
thigh
toes
wiped
##chang
##gible
##vances
365
bentley
comical
entertain
erica
huffington
isolate
joanna
newcomer
notation
pulmonary
regretted
subjective
tito
verified
##edes
##ellant
##formed
##ulu
##wife
afforded
bombings
consult
deutschland
empirical
expenditure
fein
intel
jem
modernized
patents
premature
quincy
realising
repeats
sable
sloop
sway
tiberius
waller
worshipped
##nds
##ricted
##tara
251
alarmed
clemson
comedies
cutler
danzig
disclosed
dyke
educate
gloves
indus
mccormick
prescott
shouted
stampede
thieves
unspecified
##drive
##gee
##laus
##pps
##rder
##ssion
313
aesthetics
ambassadors
bulldogs
cottages
elders
estranged
galley
germain
inflammation
introductory
lightweight
mcgee
medicinal
meridian
nino
optimism
processor
programmer
splendid
stokes
wichita
##chia
##erland
##gai
243
245
cavendish
cleaned
clinched
courtesy
fuels
functioned
ginger
howl
jessie
mitsubishi
piracy
poppy
segregated
stratford
tendencies
upside
watkins
##anial
##eza
##ffs
##oshi
##skin
##vant
##zak
##ا
193
197
405
attendant
beetle
berkshire
breeze
calculus
corridors
curiosity
expansive
hardin
headlined
judaism
mclean
nathaniel
priorities
prism
relinquished
revoked
runoff
serena
sharma
showers
signalling
stabbed
sweat
vow
##chrome
##inations
##plin
##proof
36th
880
allowance
ames
annapolis
bestseller
blackpool
candles
constance
containers
embodied
exploding
gregg
heinz
killers
lazy
motel
scholarships
scribe
##aking
##bang
##lbert
##ption
##к
39th
bubbles
clinch
cynthia
directorate
dupont
eun
launches
negotiation
noises
presenter
revue
sherwood
strawberry
suv
##bered
##ocene
##som
##uding
banded
infancy
lace
marketplace
mohawk
newest
reproduced
sliding
stuffed
suppose
##anian
##cky
##eke
##uche
1300
49th
appointing
bouts
burlington
downloaded
engraving
fracture
husbands
jewels
judging
motown
olympia
optimal
potato
racer
resurgence
rhymes
robyn
sadler
schultz
##balls
##herton
##rift
##rogate
690
allocation
avenues
canons
cheney
classmates
claw
corey
defiance
exodus
festivities
fibers
hornets
jana
jc
prefect
proponent
reasoned
reconciled
remind
rye
schedules
##inating
##isha
##jal
##ocation
##vinsky
1763
345
bourbon
buffer
chopin
communion
derrick
helsinki
industrialist
inhibitor
looting
mocked
neural
noticeably
pinnacle
utilities
##body
##cision
##ennial
##icate
##pathy
##udy
##ław
286
afterlife
biting
campuses
confinement
craven
crawley
fabulous
fife
franciscan
hagen
honoring
hose
jacobite
jensen
judas
methyl
ness
noun
okay
originates
perennial
provoke
rutgers
tenant
κ
##liness
244
bohemia
bohemian
caucasus
consolidation
csi
deepest
divides
franks
glitter
manually
mojo
pepsi
prostitutes
rigged
ufo
voyages
zip
##cake
##frey
beirut
cambodian
cartel
converts
crook
dali
disposed
emil
fledgling
gloss
goblin
gov
horned
huff
inspirational
lyons
melville
purse
shri
unlawful
の
##gging
##tooth
321
categorized
crabs
descends
femme
fungal
intrusion
lobster
mandarin
passport
perpetual
petrol
pollard
qur
resorts
richter
shaking
shillings
trey
trusts
vastly
wines
##jure
##ndt
##rard
##ulla
##vision
##working
51st
captives
cruises
draper
heterosexual
ismail
leto
magnesium
rousseau
tailor
tertiary
undercover
##dim
##ople
##selle
279
45th
adherents
authoritarian
baggage
believer
borrowing
calvert
combustion
credible
daisy
documentaries
domesday
embarrassment
eps
ethel
fetch
granada
icy
lehman
mustang
steaming
tents
valves
vanished
wondered
##gut
##lastic
##lich
##ours
##phile
##sant
##taro
48th
cheng
dina
fremantle
guerrillas
harvesting
implicit
markedly
modules
novella
ponder
probation
reflex
tandem
##cona
406
benny
cantor
carleton
elevators
excelled
fluent
haired
polling
printer
rochdale
rockies
stables
stimulate
strands
theresa
thistle
togo
##lho
##raus
241
adaptive
ample
beforehand
cadiz
chrome
edison
freddy
graveyard
hardened
hertfordshire
hicks
ignited
joaquin
makeshift
manipulated
martinique
misses
mixtape
nail
rations
resides
skipper
specification
wallis
wikipedia
workplace
##bah
##cp
##iable
##nir
##owski
##plify
##rence
astonishing
barley
blended
clue
collapsing
equals
faulkner
joints
loneliness
lorraine
overdose
selfish
sheppard
utopia
##jah
##jit
##optera
##therapy
##tsa
##utation
##vac
1750
226
299
archduke
arrogant
boca
bucks
cache
climates
coca
conjecture
countless
epoch
frightened
geographically
hauled
leyte
lordship
microwave
norms
notebook
reiterated
retention
roar
scrolling
spruce
steamboat
telescopes
triumphant
##erry
##mania
##river
##umble
biodiversity
bonding
booking
cigarettes
handles
hypothetical
intrinsic
maximus
mobilized
overcame
penetrating
progressing
scattering
shout
silhouette
situ
slalom
sven
td
vanderbilt
##felt
##haven
##ngo
##promising
##tension
##uating
##ucher
##weed
awe
campground
checkpoint
disdain
fascination
gregor
installing
mckay
oceania
quake
relic
reuben
somalia
steiner
striped
vibrations
##beau
##berto
##lick
##linson
##roving
##uary
##while
960
appendix
basel
basins
benton
bonfire
boosted
conservatory
cornelius
cracked
derivatives
discourage
enjoyment
fearful
goats
grassland
hilly
keyboardist
lays
maharashtra
marley
mausoleum
molly
synod
unicorn
##bm
##dust
##kota
##mona
##pipe
218
271
5000
accessories
aiding
ballistic
basilica
dire
doctoral
donors
economies
hillside
incentives
informally
palette
propellers
resurrected
smashing
spirited
witnessing
ε
##edging
##folia
##khan
##vington
adventurer
alfonso
harvested
horrified
luminous
oblivion
organist
pause
pbs
precedence
quarterfinals
radcliffe
richest
seaside
serialized
slater
sonny
swelling
translucent
unpredictable
vikram
witty
##bolic
##ddin
##hism
##ogical
999
arresting
bolivar
bolsheviks
caledonia
confirms
dillon
fatally
freud
intercourse
inversion
obstruction
pasadena
prowess
restless
suck
vowels
##ales
##ired
##lovic
##rize
##ttal
bmw
cemeteries
creeks
edna
firefighters
freedoms
goldsmith
guiding
hardcover
hooked
inevitably
investigator
jerseys
orchestras
pearce
preferences
protestants
restricting
stunned
violently
vowed
zombies
##bush
##enbach
##eses
##eville
281
ajax
allegheny
aspirations
civilizations
cocktail
cristina
demonic
deserve
fidelity
murals
nell
purcell
putnam
spawning
stalls
stipulated
tattoo
toni
transcript
##85
##lind
1786
580
adolph
artifact
autopsy
ceramics
click
cyclists
folks
foothills
librarian
malik
overboard
policemen
radicals
receipts
recommends
repealed
sloan
suspicions
tentacles
##lean
##udge
1773
bulbs
cambrian
contraction
danced
disciplinary
evergreen
falsely
genoa
grimm
insult
intensely
jumper
junctions
maximilian
milos
numb
parc
perceive
potatoes
redundant
ricardo
simulator
strata
tentatively
thorne
unearthed
vigorously
##aer
##athy
##hila
##nged
##rring
##tick
236
adolescent
amalgamated
ambiguity
bending
bounds
brutality
cartwright
condemnation
corrosion
daly
deborah
enthusiasts
inhibitors
luz
noisy
remarried
shia
sleeper
spotting
upland
##eson
##folding
##holding
##koto
##tang
##zog
37th
absorbing
anita
carving
croix
debbie
delightful
designate
diplomats
economists
enriched
fiancee
fragmented
gratitude
intersections
irresistible
jai
nasty
orphan
pasture
purdue
securities
therapeutic
translator
vanessa
##anu
##ential
##havan
##oja
##ories
##osed
##osta
##rza
##suke
##tted
##vino
##zaki
avail
balancing
bucket
cursed
fabian
flores
gallantry
inspect
institutes
jung
leftist
lexi
morally
outta
radically
reintroduced
resultant
rudolph
softer
standalone
tempest
terminating
treats
##holder
##nable
##nare
##tructing
##zd
abducted
acknowledges
alvin
ardent
assessments
branching
calculate
claudius
cones
constitutes
deviation
edmond
ethiopia
filmmaking
haley
massey
penelope
pollock
pumped
ridley
servicemen
staten
treasures
wreath
##max
##relli
##romatic
##thal
1785
840
accustomed
anatomical
balloons
beetles
brewers
chases
chromosomes
conical
cows
establishes
haitian
hayden
mammalian
medici
moniker
mouths
oppression
ornate
peninsular
squirrel
telecommunications
turbulent
ucla
vilnius
##17
##bino
##dio
##dles
##sight
##ttering
242
angie
authorization
commune
drastic
feasibility
firstly
francs
musicals
needles
pamela
pockets
reigned
shay
shiny
sizable
twists
yer
##24
##25
##35
##brate
##iensis
##jas
##mt
##nine
##vsky
2018
apartheid
arenas
buys
claudia
deportation
exams
gatherings
grandparents
looted
martian
mcdonnell
mercenary
mirrored
mortally
nuremberg
ops
pictured
regents
rescuing
shaping
snowy
swollen
toast
traveller
troll
unincorporated
wight
##48
##cross
##gc
##gf
##itation
##lander
##tura
acquainted
affordable
blanket
bourgeois
bucharest
downing
emigration
hoax
insanity
lesions
louvre
minors
presently
quentin
terraces
textiles
warmth
waterway
yao
##cript
##egorical
##enity
##lative
##odes
bonnet
branched
chromosome
coroner
cpu
gabrielle
gruff
halves
hazards
indifferent
jarvis
lawson
meanings
pines
reorganisation
restructuring
wildcats
##gnan
##oku
##tite
##ر
261
adjustments
alteration
bonuses
dormitory
enrico
floral
inflated
insider
jens
joachim
livingston
muster
ordeal
punches
rallies
reckon
seater
specials
telecast
wow
##dick
##ined
##keepers
##lance
##ndon
##rrow
##yes
1772
assumptions
battled
charcoal
clerical
coincidence
colliery
cores
cries
forster
fulfilling
herbal
investigative
jeans
kato
miserable
multitude
mutually
outdoors
poorer
tracts
trajectory
##ask
##awan
##bies
##cure
##lika
##orum
##sport
##タ
1650
43rd
930
artery
audi
belmont
cassidy
cloak
fantasia
freddie
fundamentally
jesuits
liable
nightfall
phoebe
pulitzer
swans
teresa
##gned
##lysis
##torium
accelerating
allotted
andres
baptised
cameroon
casket
coliseum
cryptic
detrimental
goodwin
horizontally
intervening
kaufman
learnt
newsletter
osaka
overlook
packing
predatory
pushes
shrink
specialty
subdivided
threads
trillion
tuck
whoever
wonderland
##bham
##cola
##escence
##etti
##giving
##oles
alicia
aquarium
automotive
cremated
dignitaries
domino
drying
fable
galen
generates
gujarat
hanson
harmless
helens
packages
paramilitary
poultry
strap
tentative
translating
vance
##aar
##ente
##gang
##geny
##ively
##nism
##oes
##tangle
##tries
alderman
amnesia
archers
arises
aspiring
b1
belarusian
briefing
choke
clint
heavenly
identifiable
illustrious
methane
nearing
outlines
punjab
ripe
rumored
sanitation
spontaneously
stresses
sunken
tempered
vanilla
##ayan
##laid
266
268
bowls
clarity
dino
fictitious
furnished
gladstone
glover
illustrates
initials
kelvin
lebanese
mv
naacp
robbed
sergio
smoothly
stabilized
thinner
ting
tyson
undeveloped
wynn
##dara
##gp
##phine
##strom
302
309
blanco
crap
deserts
diagram
disrepair
entourage
ferris
fragrance
fright
honeymoon
lorenzo
medalist
monty
nana
neighbour
obsidian
originals
paranoid
permitting
pointer
psychiatry
recycled
strasbourg
trainers
vocalists
##oped
##pore
##pour
##rral
##yria
##zhi
##в
##フ
425
axes
bray
brodie
canary
courtroom
enhancing
greet
integer
jurisdictions
laundry
lawful
leary
piloted
plausible
rumor
secretariat
serviced
swimmers
tristan
##45
##erin
##liner
##ogenic
##quisite
##sms
315
abduction
accusation
attache
banners
baptized
barbarian
blacksmith
brothel
clerks
coating
colombian
dots
flowed
igor
misleading
nouns
shook
swam
tricky
uniquely
volleyball
##dad
##ggy
##kovic
##uting
333
407
780
andrei
attends
bayer
boiled
centralized
cervical
fairs
goalscorer
hangs
invoked
mastering
mastery
neurological
plead
providers
ptolemy
queer
revered
sheila
sincere
squire
trivial
##dicated
##ears
##iciencies
##inda
##lization
##olic
##stituting
##year
##ʲ
##シ
awaited
blackout
bravo
bureaucracy
correlation
counselor
cullen
drank
empowerment
examines
intruder
kashmir
lyndon
policeman
repairing
rooftop
scroll
slab
smashed
sorcerer
staples
technicians
transatlantic
yeomanry
##aby
##lessness
##logies
##market
##oue
##raphic
##thes
274
acton
appropriated
barren
blazers
bordering
browser
brunei
canonical
cares
comfortably
commencing
conductors
doomed
empowered
guthrie
havoc
hays
idiot
improves
loki
pavel
photographers
php
rashid
reborn
sammy
scholastic
sealing
sedan
seminal
shaun
slit
valerie
##37
##dham
##ysis
257
277
311
60s
arias
artemis
bien
brew
creations
creepy
distributors
erase
functionality
incense
jordanian
knob
misery
nz
restarted
sofia
tread
τ
##aghan
##cd
##ivated
##opus
##phus
##riation
##scan
adept
antibiotics
anticipating
bane
bromwich
bundled
carly
condemning
crystalline
doris
harrisburg
humanist
inexpensive
iteration
jealousy
jing
lodged
maids
physiology
pretending
ruse
senegal
sheath
subcommittee
syllable
townspeople
undo
usable
whereupon
widowed
woven
##dong
##gaard
##physics
##rogen
##ου
admissions
asiatic
bargain
blossom
conserve
degraded
dimitri
flashes
hepatitis
lifts
seductive
shooters
soaring
squash
systematically
tian
272
356
assassins
athena
clarify
cranes
creep
dormant
feng
kicker
leaks
medallion
mrna
navajo
owning
peacefully
sawmill
seine
swansea
tariffs
transaction
waterfall
〉
##aday
##avs
##bial
##coll
##creen
##plication
##rries
##sfield
##suka
##unes
1640
analogue
checking
ellison
fabricated
faulty
fills
funky
gardener
hilda
influencing
injected
leningrad
lsu
madden
nutrition
phonetic
pussy
qin
replaces
sensors
tnt
vip
wildly
##chfield
##ending
##lles
##tp
##vera
1820s
_
asher
bilingual
births
boroughs
byu
clauses
collects
defiant
disapproval
dorchester
energies
giuseppe
godfrey
hartley
indications
intrigued
lettering
posse
reacts
reggie
rods
sanford
stanisław
steak
stemming
summons
unionist
upgrading
valkyrie
〈
##41
##anto
##ision
##nary
##rdon
##ulum
1768
710
alexandre
appetite
ballast
bangalore
bop
councillor
cynical
gogh
gunshot
hassan
highlanders
hz
kristin
liege
networking
plight
prohibiting
scrolls
supervise
surgeons
vomiting
##ifier
##xon
314
answering
commonplace
communicating
formulation
frightening
goodwill
interrupt
lyricist
miocene
paving
rustic
tolerant
walkway
wetland
##dberg
##icular
##kovich
##tered
anson
aragon
boar
bryn
chatter
congregational
diner
gough
incompatible
innate
lest
mla
munro
nutrient
petitions
polk
protectorate
secondly
signaling
sikh
termination
thwarted
unauthorized
475
assassinate
backstroke
bison
brewing
brightly
compassion
consulate
criterion
dealings
economical
enactment
flop
gallon
garry
greeting
ibm
longevity
mirage
realities
rooney
suites
surveying
syllables
tanzania
unleashed
##16
##bria
##corp
##tute
##ʻ
335
bedrock
classed
ecstasy
evangelist
frankie
fundraiser
gestures
gigs
ignorant
instructors
manny
marcos
molina
myles
oman
prematurely
reductions
snails
stalk
textbook
vortex
##56
##dron
##erus
##ibly
##isch
##mpton
##oses
##ths
automobiles
axel
bets
brushed
catalan
crunch
demoted
embracing
erroneously
ganga
gorilla
lds
misunderstanding
paralysis
ravine
scripture
snoop
soy
sufi
visibly
waving
##dial
##kken
##mics
##minating
##physical
##trust
41st
alternately
baku
cheerful
faa
fragmentation
iihf
lego
mongolia
peptide
pertaining
porn
protesting
scorpion
slowing
stony
vamp
vivian
weary
##23
##ctable
##erence
##ginal
##miento
##sford
##uance
050
312
316
402
advising
bolshevik
coil
condoms
coordinating
dolly
dynamite
electors
godfather
hahn
hardwood
hermes
hive
pensacola
pricing
proprietary
scriptures
spices
subscribers
supplier
sweeps
tapping
valor
willard
youths
##49
##iente
##tama
##wives
airlift
anand
appropriately
cardiac
dharma
gigantic
hallmark
hayward
hoisted
jp
legged
letterman
locating
maureen
nsw
pendleton
psychologist
raleigh
topical
workings
##blood
##cturing
##cytes
##icon
##mento
##zard
264
381
75th
accents
butte
cade
dewey
disappearing
englishman
ghana
hodgson
marche
sideways
strangers
sugarcane
zimmerman
##crats
##itical
##kling
##phones
achilles
adjective
analytical
avoids
buena
callie
chronology
colourful
dagger
deepened
divinity
doubtful
factual
heroism
hewitt
ineligible
irrelevant
maguire
marries
melvin
murdering
postage
predicting
quarries
racetrack
shaman
squat
staffed
succumbed
thanked
##akes
##cards
##duced
##rank
1769
analyzing
cough
dumped
eton
hermit
hopeful
illnesses
illumination
impetus
kingsley
perrin
pouch
rb
seminar
sicilian
thayer
vargas
λ
##cence
##ester
##gong
##kiewicz
##rked
##turing
##werk
aces
amiga
assignments
auditor
banished
cans
copeland
cosmopolitan
drury
grammatical
horsemen
insulting
longing
obedience
oblique
ornaments
pdf
pleasing
qualifier
reacting
simi
sociologist
travellers
utilizes
weighted
zoological
zoom
##ahu
##mps
##pee
##π
1730
308
4000
braid
broadcasters
chao
cite
curling
dusty
fantasies
fisherman
fixing
footsteps
gloom
guitarists
hectare
homecoming
kilda
lending
maris
queue
rms
sermons
stainless
strive
theoretically
##copic
##erie
##henko
##llah
##nostic
##orf
##otic
acquisitions
agitation
backbone
blending
cipher
competes
condensed
conducts
coupling
derelict
descriptive
dumont
fares
fortunate
friendships
groin
guildford
harassed
jed
kristen
ld
luce
mohammed
qaeda
redskins
rover
surfer
symphonies
twain
undergoes
vaughn
γ
##70
##cured
##iring
##lifting
##resses
##rner
##rnier
##shima
##urities
1761
1800s
belongings
bends
cleaner
combatants
decimal
expenditures
fang
fencing
hacker
iberian
impoverished
loser
marino
mccann
notions
organizational
oven
pueblo
residual
triggering
verify
warehouses
wavelengths
wilcox
##47
##chemist
##eering
##ologies
##owed
415
bastard
blaming
bradshaw
brandy
celebrates
daytona
denise
disclosure
enforcing
enthusiastically
frankish
frontiers
gospels
indigo
informant
landowner
lucius
marguerite
overcoming
pharmaceutical
plotted
ravaged
renaming
societal
statehood
transient
wilton
##dable
##grove
##iad
##reen
##tek
babylon
barnett
chung
confronting
confuse
earle
elusive
fulton
illustrating
inaccessible
labs
lenny
lindsey
millennia
noteworthy
phd
provider
sachs
seniors
shady
shuffle
skye
slump
stubborn
timeless
uci
☉
##baldi
##pressing
##vance
##ラ
aarhus
alzheimer
bleed
chewing
devotees
doctrines
forefront
hospitality
laborers
rammed
recreated
roommate
satin
sheldon
terrifying
unofficially
##amy
##anies
##astic
##athlon
##cini
##fusion
##khov
##mora
##oop
##orth
##pta
##rret
246
antigua
astrid
bracelet
disused
evenings
grimes
israelis
pisa
roam
ruiz
slack
soloist
springer
trader
traversed
verity
waltz
weimar
##53
##atz
##aves
##free
##hiko
##itaire
##mbled
##mute
##naire
##standing
##tania
##zyn
##リ
770
beit
biased
cornerstone
credentials
duane
elites
excerpts
extinguished
handbook
investigates
jailed
linux
militias
mundo
norwood
outsider
pontiac
qatar
righteous
spins
surrounds
tammy
thou
whiskey
yukon
##dalen
##dents
##esses
##laze
##mide
##mori
##oration
##tucket
##у
284
bathing
cayman
cholera
collingwood
crank
domed
endowed
fluids
freeing
fx
hopefully
kimball
newcomers
passions
recycling
rediscovered
repression
skyline
sorority
stuttgart
tackled
terminology
tia
valiant
weddings
wheeled
windmill
worries
##eras
##llum
##mage
##omic
##ophone
##ples
##rified
##ɔ
##ʊ
263
boasted
championed
consonant
cuthbert
devastation
discrete
gerhard
icc
mohan
monstrous
parapet
partnerships
pursuits
romanesque
rotor
scalp
sloping
spawn
structurally
thrilled
turin
unaffected
##eland
##inates
##nated
##tani
##tower
##west
##yed
##yya
1910s
247
alejandro
aspen
centimeters
classmate
exceeds
flawless
gears
glamorgan
heavens
immortality
ingram
initiating
investor
morals
namibia
navigable
payload
reforming
relevance
standardized
wilbur
##erted
##iere
##mmon
##oum
##ropriation
276
anastasia
antics
authorship
blinded
boise
bryce
chico
clergyman
consonants
corresponded
debating
dummy
engined
gilmore
gotta
insurgency
jasper
meade
mediated
palma
polka
primaries
samson
socks
tn
woolf
##44
##adt
##arians
##ended
##grants
##phobia
##sume
1707
alumnus
amc
benefactor
buckle
creditors
decreed
displeasure
emmanuel
fading
fences
futile
keenan
kissed
linen
mapped
marlins
mcleod
memorabilia
newsweek
reactivated
reclamation
startling
syrup
torso
unmarried
ursula
vans
voodoo
##cius
##code
##hesion
##istle
##mined
317
antiquities
c1
cbc
chanting
crows
denoted
epilogue
exhibiting
fiona
fulham
grimsby
humane
lukas
overtook
pamphlets
pulpit
respondents
servers
waking
yours
##42
##ands
##apple
##chee
##fast
##icient
##lena
##ographer
##orestation
1740
airspace
camped
climatic
danes
dreamer
engages
harrington
kern
leland
michelangelo
pinyin
rampant
retracted
sedimentary
sensor
sped
spouse
stockton
subcontinent
wentworth
wiltshire
##bolt
##dana
##escu
##ials
##meo
##oked
##oned
##pressive
##walker
advises
carla
complementary
contexts
cortes
crouch
draining
exquisite
fiercely
forgiveness
hound
mahal
migrating
paradigm
quakers
supper
torment
##lux
##nessy
##omorphic
##riated
##runa
##ually
625
70th
apples
astoria
barnard
clockwise
condemn
constrained
courtney
futures
gabe
greenfield
locking
managerial
mellon
molten
pascal
persuasion
powerless
vila
wally
##64
##abia
##aster
##nington
##rgy
1400
258
282
435
breasts
cleopatra
continual
dans
darby
ezra
harmonica
indifference
laptop
leonid
ngc
palms
paragraph
pods
princely
slots
uneasy
##mament
1765
306
501
basics
bertha
brethren
buckley
bully
charley
citrus
correction
crises
crowe
fallon
ferries
frenchman
heidi
heiress
julio
knicks
limitation
pilgrim
quiz
silky
spirituality
stacey
sublime
triangles
unitarian
vocational
zodiac
##aceous
##cliffe
##gration
283
aroused
atm
bedrooms
bubbling
bullock
catering
constructions
defected
dragoons
fae
finer
goddard
harden
indy
interfering
jeep
litres
mathews
notoriety
richly
roast
theta
upstairs
weasel
wrestle
##ceptive
##dington
##glers
##hering
##ingdon
1603
1762
288
318
basque
bender
bernstein
derbyshire
hines
inducing
interruption
libby
physiological
programmers
ratios
republished
rocking
spearheaded
stepfather
uniformly
wingspan
##28
##breaker
##ecure
##minated
##ndra
##psis
##rdial
##γ
323
affluent
aggregation
antique
brody
cpc
evicted
fiddle
foam
grasslands
helmets
luxurious
methodology
migrant
napoli
nostrils
outgoing
outlying
philips
refinery
sited
spreads
stadion
stimulated
tacoma
theologian
townships
trident
##34
##dak
##ifolia
##isance
##pura
##raine
##rdan
##sov
accessory
chavez
choirs
communicated
dwell
elgin
fledged
footed
inequality
kindergarten
lastly
nyu
orson
parted
sainte
scarcely
sleeps
ssr
stormy
strikers
subdivisions
swore
transgender
whatsoever
wolff
##erik
##iously
##neer
##tarian
1100
248
57th
albrecht
babylonian
badger
cabins
ching
culinary
ethnicity
huang
imam
knocks
owe
pictorial
regulating
sampson
siam
siegfried
spaniards
teaming
tearing
thoughtful
tumors
vibration
##01
##27
##around
##hire
##llas
##orous
##ostal
##oxide
##titles
##uid
akira
amalgamation
argus
badges
buckinghamshire
dice
grunt
hygiene
knighted
mcgraw
nobleman
preached
preoccupied
restrictive
snapped
theorists
versatile
##illon
##llary
##ports
1764
331
accomplishment
apr
compiling
differentiation
encircled
inventions
javanese
kung
lear
midi
moroccan
outburst
pagoda
resigning
somali
speedy
subgroup
thriving
tomato
turnout
valentin
##gnon
##ices
##laise
##nx
##peed
##rained
##rbin
##rca
##rocity
1642
adjusting
aerodrome
bergman
bullying
compatibility
cracking
defamation
drills
extremes
fortunately
glide
healed
houghton
maverick
norma
playhouse
sardinia
sash
streamlined
thee
##9th
##dman
##meric
##nesia
##rval
1644
adele
benches
boating
cale
crimea
edo
emery
esa
fremont
grotesque
horatio
lacy
nodes
occupational
pandora
snail
sonia
spence
subgenus
surprises
terminals
urge
urges
##olate
##orro
##rance
##rued
49ers
525
accommodations
apprenticeship
approximation
arsenic
ascribed
atv
cabaret
certificates
chrysler
cleanup
consciously
constantin
enchanted
fifties
foo
hurts
intuitive
kamal
ogden
preserves
rake
slaughtered
stadiums
stink
styling
timely
trailed
waits
|
##cave
##church
##efined
##glia
##hope
##lova
##nting
##rzy
##sir
##stead
##tres
##utz
##ي
alexei
amplifier
conglomerate
craftsman
hourly
liar
marital
marsden
monterey
nfc
nhs
odessa
propagation
provence
rooster
rr
showcasing
sousa
sweetheart
tanya
technician
thyroid
trunks
ulrich
##ances
##dek
##erving
##rned
##ups
##vili
1759
1a
addicted
antennae
baronet
colombo
conserved
contracting
denote
derivation
dialogues
dynamo
enslaved
fiery
fontana
gearbox
grille
infused
inquiries
lauderdale
macintosh
peas
quartermaster
remembering
remorse
ritchie
scars
seamen
shouldn
streetcar
suppliers
vents
westchester
willy
##ality
##toy
##ɑ
1755
algebra
bartlett
baton
brilliance
ceilings
complied
conditional
coyotes
extracts
glossy
goofy
huddersfield
judo
madeleine
prescription
ragged
repertory
rusty
spp
textual
vaulted
weakly
##dridge
##hearted
##islav
##ivism
##unced
##word
304
326
archdeacon
auspices
azerbaijani
bingham
bounced
chickens
cradle
cried
doncaster
endeavor
fjord
nuns
onion
outlawed
patterned
perceptions
recital
squads
sterile
terrified
yielding
##andra
##bella
##dance
##economic
##ever
##fine
##note
##pment
##umatic
betsy
biomass
childless
disturb
fractures
humanities
huts
ipa
johansson
leveled
llc
metis
parting
regrets
ringing
solemn
unitary
violins
warwickshire
##ilde
##lty
##points
##tius
##vating
296
angled
applicant
betting
biplane
calves
clancy
downwards
elijah
fiance
galloway
intimacy
litre
loaf
localities
manifested
miracles
nearer
olympian
phased
poke
quoting
screams
shaken
streamed
theirs
traveler
##ament
##bold
##ctric
##hong
##mum
##rrick
##shot
adoptive
attendants
benedictine
bladder
bracket
cardboard
compilations
completes
craftsmen
fascism
geologic
helpless
immensely
interventions
moonlight
obscene
portage
samurai
sectional
smiling
speculative
supermarket
tolerated
toned
transcribed
trieste
walnut
zac
##ciency
##dee
##fia
##hosh
##mable
##rasia
1689
backyard
bangor
cheryl
computational
echoing
freshmen
gareth
graceful
invariably
mri
quartz
rolf
runes
salle
serum
soda
sts
timer
underwear
unsafe
venezuelan
##43
##meyer
##nded
##tized
1756
259
324
auguste
castile
chants
contemplated
drone
familiarity
gladys
hasty
hideout
marquez
mavericks
reelection
ritter
unmanned
wealthiest
##atable
##ipes
##lists
##tenberg
##ッ
1690
accredited
addison
begging
braking
breaker
casablanca
centro
chargers
chevalier
constituencies
explodes
forgot
gilded
hopper
insults
kinda
lair
lobes
maximize
microscope
multinational
paddington
petra
piedmont
raul
rubbish
slang
tatar
trainee
trolley
trousers
wilkins
##gami
##uder
293
44th
54th
agrarian
assessing
benevolent
bodily
bother
brenda
curl
detecting
disciplined
discomfort
disgust
distraught
dustin
eyre
fraudulent
guineas
inhibition
lila
miraculous
modelling
parisian
portico
solvent
sonar
verbs
vida
viper
##inatory
##lford
##lub
##maid
##raction
carousel
cereal
chow
coincidentally
cyclic
damien
daphne
della
dismissing
distressed
honourable
jamal
linguist
mango
mummy
narrowed
parked
pointless
reliefs
retribution
rightful
schubert
showcases
skepticism
syndication
timbers
unarmed
waived
woodrow
##39
##rook
##ruff
##stream
annum
archdiocese
arjun
bangkok
barclay
bargaining
barrington
benfica
branding
budgets
campo
catastrophe
colloquially
cypress
grabs
hates
insertion
interceptor
irrational
lingering
liturgical
ministerial
mongolian
multiplication
nausea
piles
punched
remotely
sensing
spade
usb
##86
##dates
##fulness
##istles
##onda
##zos
chimneys
disclose
feldman
grinding
lineman
mantra
meaningless
notwithstanding
polytechnic
purposely
schuster
scotch
stove
subsidy
sykes
vedic
##evich
##ifiers
##mbre
##nius
##tance
1630
1643
1688
artworks
bilateral
constituents
dempsey
electrification
gallant
glamour
gliding
humiliation
intellect
ionic
orderly
ousted
pierced
pleading
pornographic
simulations
smoked
trance
##100
##forms
##gman
##mous
##oons
##tford
##tma
##urgent
1610
1766
anthropology
apostles
asphalt
attacker
berries
beverages
blankets
boogie
chapels
electrically
erika
fades
generalized
gifford
inclusive
info
jingle
langley
lynx
maize
morley
profiles
registers
sequential
vaudeville
yeast
##ggs
278
arson
ashland
blogger
botanic
brittle
calculating
carolyn
currie
estonian
fcc
fitzroy
hamlets
horrors
jeremiah
leaking
masonic
mundane
mustered
mute
nighttime
precautions
relocating
skinned
snaps
swung
tangled
tinged
windy
##dran
298
411
abnormalities
adjustment
akbar
akron
avoidance
bahia
carole
commemorates
dentist
dex
diaspora
directs
headwaters
ives
liberia
linger
ministries
nazareth
preschool
proliferation
remade
republics
shelton
tractor
unnatural
unnoticed
wondering
σ
##icz
abdullah
adventurous
amenities
bankers
coloring
compensated
configurations
dessert
distracting
duets
insights
insist
jozef
latvia
misconduct
myspace
paranoia
periodical
plaintiff
reddy
revolutions
saturated
scala
swearing
tierney
timetable
ventured
warped
##6th
##ajan
##aling
##oteric
##tique
1605
accessibility
bequeathed
childbirth
erection
exchanging
faber
invitations
pixel
regimes
saliva
simplest
textbooks
triggers
understands
williamsburg
##75
##bution
##gold
##ishing
##ldon
##tham
##vez
1620
267
337
555
alfa
archived
buyer
capacities
chunk
competence
cured
davey
etienne
favors
hilbert
himalayas
ingredient
intercollegiate
laos
liang
nigerian
nonstop
porcelain
shutter
tailored
tt
urgency
##bana
##fles
##good
##itas
##space
##tlement
almond
convicts
corrupted
dauphin
frequented
keane
kellogg
kyoto
larson
matrices
mechanized
policing
polly
shropshire
skopje
sourced
supplements
vectors
yiddish
##ately
##flight
##lase
##otho
##puram
##vious
1754
385
arrivals
aryan
beverley
delicious
denotes
dispose
donaldson
helene
jammed
judd
kraft
mosques
olson
persecuted
prick
privileged
sahara
shave
smells
sticking
theorist
variability
venerable
vines
wakefield
##anza
##arty
##boarding
##earing
##ife
##inen
##kker
##lese
##rations
##sions
##tters
307
billings
bologna
bribery
causal
clandestine
damian
dhaka
distinguishes
drown
enrique
floated
gabon
inherently
mathematicians
powerhouse
resolving
respectful
shakes
siberian
subterranean
tray
vaults
walkers
##ctus
##ggio
##tails
##verted
##ा
baked
berman
dade
espana
flaps
flaw
folds
footing
gunther
honestly
jacqueline
kindness
mariano
occupations
pantheon
paolo
profoundly
regaining
resisting
responsive
robber
seahawks
sibling
sleeves
unwanted
##fers
##founded
##ghan
##kei
##paper
airplanes
apostolic
directory
emmett
enclave
fairfield
follower
foolish
hires
hollis
idols
impromptu
maltese
messengers
netball
owes
philanthropist
promenade
railing
refurbishment
scanning
suicidal
tunis
undead
workout
wurttemberg
##65
##ctions
##idon
##lston
##riety
##rney
##م
20s
46th
comte
decker
deprivation
dowager
duffy
hadley
interpreting
jae
keepers
labeling
marathi
marylebone
nacional
peabody
peerage
plaintiffs
prasad
proxy
raging
rfc
rosy
scandals
sulfate
systemic
thereof
trumpets
tufts
uniting
##aceae
##biotic
##drick
##emy
##gata
##giri
##lce
##oides
##phonic
##plicity
##rona
##taka
##uria
##д
1086
1723
1752
319
adrenaline
careless
cartridges
consultants
conversions
decomposition
documenting
dune
encompass
exiles
flush
forceful
fumbled
gertrude
grady
hanoi
kinship
misunderstood
outreach
partridge
prized
prohibits
soloists
tiffany
towel
tumble
welcoming
##agne
##cology
##estra
##hani
##hh
##rix
##rogated
##tlan
##tonic
##uing
##ytic
1753
1771
bao
binds
breakers
bruised
decidedly
dragging
dutton
exercising
flashing
furnishings
groundwater
hokkaido
imperialism
jaguars
palermo
presentations
romero
solitude
stucco
transmitter
turkic
##analysis
##chester
##tify
##uses
289
55th
56th
adherence
bitten
bitterly
burroughs
crimean
curvature
demonstrators
diversified
fitch
fluctuations
hugely
incarcerated
jia
landfill
maclean
napier
pedestrians
pious
publishes
refueling
saxony
socialists
sprang
starters
supervisors
triassic
wesleyan
##dled
##iface
##lized
##missible
aeronautics
burgundy
butch
cairns
charlemagne
chemotherapy
consecration
copying
cuckoo
greer
hormones
jock
kobe
louisa
mcconnell
niger
osborn
paddy
prophets
recoil
resin
rouen
slice
snatch
tracey
unharmed
untitled
vendors
violinist
waterfalls
##antly
##fp
##lham
##nified
##position
##tering
##tures
1540
291
adultery
angelina
baritone
behaved
beheaded
cornerback
counseling
desperation
dickson
dso
eduardo
holstein
kazakhstan
mhz
minas
neoclassical
nutritional
peacekeeping
pots
pouring
presses
replication
samsung
sundance
yates
##cano
##onte
##oric
##powering
##puted
505
adolescence
augsburg
camille
denton
distinctions
giorgio
immaculate
medicines
redwood
sentencing
sergei
spaghetti
submissions
subsp
subunit
taiwanese
tessa
voss
wcw
welterweight
winfield
xp
θ
##26
##bib
##fera
##heard
##kou
##rong
##tained
##ulata
269
adobe
bathurst
clinics
corrections
correlated
disneyland
furry
kira
montenegrin
polite
retailer
scramble
soaked
vaccines
wielding
##growth
##mounted
aggravated
amateurs
breaststroke
centrally
ethiopian
folly
longitude
martyrs
mcqueen
modifying
mohammad
pegasus
referees
showdown
signaled
smartphone
stagecoach
##51
1720
2a
amos
aviv
bartholomew
beasts
breadth
brute
bushes
hypnotic
ict
kgb
messiah
mx
oppressive
padma
slides
##bund
##made
##mation
##otto
##rigue
##vity
47th
aziz
contiguous
cunning
dilapidated
disciple
dismounted
dominates
indochina
johannesburg
mcbride
optic
patented
sidekick
supplemental
sweeney
tuba
warring
willoughby
##ains
##ccus
##pg
##sation
##wny
accommodated
affiliates
announcements
beckett
begs
berwick
bicycles
carpathian
commodity
dunkirk
erskine
externally
herrera
indefinite
jakob
karel
lola
nottinghamshire
orphaned
overview
pinning
protruding
rani
registering
samba
sling
swallows
##bner
##iii
##kley
##krishna
##main
##mple
##quette
##urity
##week
##yson
292
amazed
archeological
blooded
bolts
chinatown
curtiss
dunbar
foreman
frazier
grover
haunt
hellenistic
maynard
ortiz
repository
rv
sucker
toppled
warmly
wrapping
##eries
##itha
##redo
##stones
##version
##ythe
##zcz
##δ
344
352
alton
beads
bhutan
bile
bless
bookstore
bulldog
cooks
eased
edouard
eternity
handler
heartland
hips
investing
irregularities
jonny
loretta
malayalam
merrill
netting
plaques
pleasures
skirts
tending
urdu
vichy
##ady
##belt
##ehan
##ference
##monium
##rable
##sef
##typic
##venting
##vite
algorithms
atkins
avalon
bertram
beverage
cadillac
carlson
coding
commendation
footballers
guillaume
housekeeper
marianne
munoz
ominous
paso
praying
richer
rotterdam
scarlett
sears
sheds
weekday
wellesley
wheeling
yamamoto
##ctum
##foil
##going
##hiff
##ives
##quel
acquaintances
appellate
ecole
ensures
fairies
flyer
geelong
grading
handicapped
jaime
julien
kaye
lacey
lexie
mcintyre
muted
netflix
noticing
offenses
pinto
promoters
puget
reese
renegade
seeming
shelves
storing
swings
waiter
weave
##bbing
##grating
##iec
##jos
##pathic
##thed
##ʃ
1745
bancroft
demeanor
detainees
droplets
fresno
goodness
greenish
insignificant
inspections
integers
jiang
keystone
laughed
lured
motorcycles
multimedia
orphans
password
procurement
refining
##evsky
##reus
1757
anchors
arroyo
cheyenne
ferrer
gillespie
harmed
harshly
madeira
metaphysical
northamptonshire
occurrences
roadside
tubular
twigs
willem
##anor
##duk
##emann
##encies
##enham
##icio
##tees
##uously
##with
512
academia
believers
castillo
decrees
educator
emeritus
ensembles
galilee
guts
hallway
hampstead
ignores
javier
moods
paints
renal
scrambled
shareholder
subset
tapped
untouched
vascular
vicki
wolverhampton
##cked
##enary
##neo
##nical
##powered
##tsk
##tula
001
anguish
appalled
boasts
clumsy
converse
cosmos
dietrich
discreet
dissertation
eerie
ferocious
gps
humboldt
inputs
internment
jody
jong
leicestershire
lennox
mclaughlin
nikita
node
nonprofit
orchards
pursuant
saxophonist
seafood
secretive
stepmother
stirring
therapist
tossed
vanish
##cous
##masters
##oir
332
cappella
cassandra
cerro
declan
emilia
globalization
gymnastics
jul
lucifer
mcpherson
melanie
nov
proficiency
sequencing
slits
stimulation
yusuf
##bedo
##ounded
##ticus
##tose
##vius
##zquez
422
artisans
blackwell
casimir
dt
fountains
gripping
joanne
kaplan
lakshmi
lucha
mckenzie
oneself
outsiders
oxfordshire
playback
quran
serials
sonora
stephan
topographic
transparency
trimmed
tucson
tunic
zachary
##anna
1767
agitated
appropriations
assimilation
authoritative
bazaar
efficacy
gestapo
grassy
grocery
hamid
hauling
jayne
jimmie
josiah
lister
munster
serie
shovel
stabbing
tangent
tome
waitress
yin
##aring
##auer
##filtration
##gley
##horpe
##jevic
##kaya
##ower
##usly
##xx
##zell
2019
441
875
amplitude
bonded
bridgeport
cougars
erwin
foreword
fronted
gardening
grabbing
grease
gundam
hermitage
insulted
judgments
lucien
marxism
peking
polled
rothschild
specializing
stumble
tatiana
veterinary
##66
##fb
##graphs
##lash
1727
alain
blindness
bluegrass
blurred
egan
estimation
kendall
lowry
middletown
milling
modular
nowadays
ordination
parameter
payroll
relax
scaling
somerville
transmissions
vinci
vittorio
##55
##igny
##lani
##placed
##sphere
1550
1746
328
agile
audible
disconnected
doping
ferreira
guerra
incline
jolly
knit
legislatures
protections
registrar
sabah
serge
stocked
tuna
twenty20
unbroken
vineyard
ω
##ault
##inia
##quay
##raphy
##skie
##twined
##utter
##xious
1670
caucasian
chesterfield
dreadful
environmentally
fools
hairy
insulin
integrating
inverness
jameson
kyushu
massif
navarro
patel
pensions
picturesque
popping
punishments
rodeo
savanna
slovene
theologians
twenties
}
##29
##dly
##lving
##thing
##θ
##ια
balfour
catalina
cookie
coven
creole
interviewing
iona
maharaja
matthias
mcdowell
mendes
mildly
mornings
oaxaca
onslaught
proficient
purification
quantitative
rotherham
sandwiches
sensible
signage
stills
subsided
suitcase
unbelievable
welded
xiao
##36
##gged
##kata
##lary
##sner
cavaliers
cheeks
davy
frankly
fray
gaines
hk
hush
illicit
khalifa
kitchener
macon
mayhem
meiji
modernism
newfound
nyc
oliveira
paisley
professions
rotary
savior
shielded
silesia
sociological
stimulus
stripping
tango
uninhabited
visionary
##eley
##enas
##eving
##kot
##landa
##mg
##tao
##woods
albans
alessandro
bessie
castes
hackett
hurry
leaps
microscopy
oils
optics
parades
participates
periodicals
perpetrators
pulses
punching
quintet
superhuman
tracing
transvaal
turbulence
v8
villas
yell
##buch
##hema
##nham
##rella
##terol
##ucible
##ulent
##very
##vus
carts
greta
guido
immersed
intimidated
introductions
lately
mallory
mcmillan
multiplied
packet
paralyzed
pillow
plc
putin
tobago
truths
yokohama
##ciful
##mmel
##nished
##rini
##vary
adolescents
affirmative
becker
bunk
engravings
exponential
huey
jasmine
koppen
mohamed
opium
pieter
provost
reappeared
rotational
schleswig
sima
slid
spacious
wrexham
##antes
##cuting
##utive
annoyance
arithmetic
armada
assortment
cheering
continuum
cordoba
daryl
durga
emilio
fargo
fda
federally
forums
garments
gupta
hilltop
horrific
immigrated
inorganic
isaiah
karachi
manipulating
multicultural
picasso
pistons
podcast
residue
staring
subsistence
substitutes
subtly
supplementary
utmost
{
##54
##anov
##dget
##dgets
##ingen
##kura
##md
##tream
##verance
1702
abbreviation
accelerator
alright
argyle
buds
childish
commodities
consolation
darkest
dept
expects
flipped
friars
fusiliers
gorman
horizons
indoors
lahore
logged
luggage
nair
nokia
shaded
slippery
softball
temperance
terribly
topology
vomit
zoology
##arable
##bots
##gling
##mming
##qing
297
axial
baylor
brooding
cdc
cosmetic
croydon
draped
generosity
irritated
juniors
moines
motorized
mutants
nicely
nightly
robbers
roi
susanna
takahashi
##ffy
##gawa
##hampton
##oese
##orough
##osomal
1714
329
albanians
brewster
cheltenham
crore
despised
detector
fiat
helmut
henley
independents
intercity
liberalism
loudly
mayoral
nils
pickup
pilasters
psalm
reelected
sausage
seton
settler
siemens
siren
stacked
tagged
torque
towing
uncles
wasting
yearbook
##ently
##heater
##morphism
417
arranger
brutally
commits
dependency
drilled
gracie
insulation
mathias
mayors
penitentiary
saber
saskatoon
transformations
yarmouth
##ctors
##dlow
##falls
##iction
##iques
##lizer
##merie
##nging
##oven
##rling
##ssee
##vard
##xley
##ن
1725
abigail
atletico
bianca
bothered
bribes
cornice
distal
distributions
dunedin
euclidean
ferns
flourishing
grayson
haute
humanoid
jonah
malicious
nightmares
practitioner
rancho
rents
rosie
salman
salzburg
semiconductor
tremor
ubiquitous
unreasonable
willingly
##kong
##lden
##overs
##partisan
##rera
##ructured
##teacher
##tically
##و
294
521
acronym
aperture
auf
barron
bassett
begged
coulter
elegance
etymology
fontaine
hurried
hysterical
manifold
middleweight
postmaster
rounding
seduction
stamped
##acies
##building
##metry
##sius
##tosis
billionaire
cords
darcy
dreamed
empathy
eucalyptus
fated
fresco
humiliating
laced
layla
ligand
liturgy
miscellaneous
nippon
notification
secretaries
shouts
thinkers
whore
с
##ivation
##lithic
##rford
##м
1580
1645
1710
additive
astor
baseline
blanchard
boil
cactus
cummings
curly
elects
exemplary
glucose
goldstein
grenada
hesitation
humiliated
inhuman
inuit
katharine
maitland
medallist
minnie
myanmar
norte
runways
sturdy
swapped
terence
tonic
unicef
vols
warlord
##cars
1604
1685
1724
354
allergic
brackets
buren
caller
carthage
chilling
detectors
dyed
frail
fredrik
hardness
ignition
instrumentalist
intimidation
leaping
malibu
melinda
mueller
offenders
parma
soyuz
toilets
zenith
##46
##lette
##ntine
##sons
2010s
archival
bakery
barbie
bihar
boulders
briefcase
cathy
collin
constructive
graeme
guantanamo
handgun
kenji
lankan
lucan
miniatures
nuevo
payton
persistence
plunge
rte
sorting
tricked
viktor
##cuit
##isson
##mies
##oia
451
administering
algiers
apps
berber
celia
coupe
dazzling
dirk
dowry
durable
frantic
hodge
horticultural
mischief
npr
opposes
pendulum
pudding
riches
rourke
sadly
salsa
seekers
squeeze
stirred
##bags
##ckman
##dez
##iens
##ngen
##offs
##pheus
adversary
aisles
bernardino
bosch
brasil
cinnamon
colchester
disgusted
earthly
enrichment
flanagan
foundry
knuckles
racers
someday
spectra
stimulating
westwood
η
##ductive
##olf
##phate
##rito
##uising
##د
ares
billions
bouncing
catchment
cheered
clothed
comedians
cushion
dmitri
duval
endeavors
henrietta
imperative
indicators
instructional
kamen
lbs
limo
mobilization
montevideo
necks
nestor
palestinians
pastures
pcs
rotting
sarcastic
shapiro
sincerity
sired
sleepy
streaks
sweater
worthless
wrongly
##dp
##jad
##nais
##oise
##urer
1560
1708
albuquerque
bandit
barnet
brows
cloudy
eduard
facades
greyish
infinitely
karim
kimberley
latham
lazarus
leaflets
lectured
logos
merritt
pounding
radiant
raoul
residues
scans
scarf
throttle
##athan
##rgen
1680
338
421
amused
bitterness
carrot
clasp
fabrication
happier
ideally
motorsport
nunez
parlor
protocols
quarterfinal
risked
slade
warmed
wilfred
worrying
##drum
##ettes
##hesis
##hly
##iji
##vitt
##の
1749
amore
awakened
barnsley
burying
caspian
cesare
contemplating
crooked
douglass
engulfed
gastropod
gma
homogeneous
konstantin
leger
mechanically
missy
organizer
parcels
pharmacy
rouse
seminars
showtime
squirrels
townsville
unmarked
##erative
##haya
##hedral
##jured
##lkirk
##lland
##nnis
##oping
##roids
##urized
##vron
##zuka
##β
1649
1b
acacia
administrations
ashamed
benito
blackish
cadence
collateral
expanse
frenzy
glue
guillermo
imagining
johnstone
miriam
negligence
oddly
papyrus
petersen
ponce
priesthood
punta
reaper
scoop
sucking
troopers
tyrone
##bright
##broken
##illy
##riding
##utable
##ナ
336
339
agatha
bandits
chained
cowan
crossbow
dizzy
gables
gaius
gnome
gothenburg
hirsch
javelin
jurist
kathryn
kernel
marta
mustafa
orgasm
patio
roaring
rosemary
seriousness
slabs
timmy
uber
womb
##dice
##hett
##ikh
##mare
##rly
##tablished
##tangled
334
amplified
amplifiers
clearer
cypriot
dail
dumping
dwarves
easiest
evaluating
havre
hawthorne
huskies
instincts
leasing
legislator
leroy
marcia
midtown
otago
ours
oversees
panorama
processors
seasoned
servicing
swallowed
vertigo
wien
zionist
##57
##missive
##ocks
##oed
##section
##ب
4a
ashe
backpack
bikes
bloomfield
boxed
circumstance
firearm
hooded
jihad
lunatic
mediation
menacing
minerva
nationale
panicked
saxe
shaved
shielding
sprayed
stats
stool
texans
thierry
tuscany
vertices
widows
zambia
##asco
##jing
##ogan
##venor
##yev
1661
1735
behold
buffet
bumper
casinos
confines
eagerly
erased
griffiths
handwriting
intimidating
involuntary
jagger
kitten
landscaping
listings
marlene
prayed
prelate
professorship
sculptors
silenced
spoiled
stacks
suzanne
talon
tattoos
thorns
transmitting
visitation
##boys
##cheng
##drik
##feng
##tler
##י
1570
1646
911
cakes
chopped
corbett
graphs
impatient
karate
lynne
mckenna
narrowing
olsen
sharif
slipping
sorted
stalking
upton
weeds
##amps
##ayton
##lley
##ɡ
1651
1731
arteries
arthritis
cramped
decorate
floats
inmate
jang
neue
spectroscopy
stains
strangely
syntax
tempted
vertex
walden
wendell
wharton
whitaker
##arns
##chuk
##dini
##door
##dora
##itors
##marks
##ハ
3a
accordion
apron
c2
cancers
cardiovascular
cfl
cinderella
dementia
educating
geese
glazed
guangdong
guzman
hillsborough
homme
hounds
hurst
islander
kneeling
midsummer
nicky
pubs
restroom
saline
saturdays
spilled
tapestry
waivers
weeping
##59
##cloth
##ractive
##ァ
2500
bertrand
cyclist
disks
dubois
elmer
elves
guerre
irritating
lehigh
nanny
petals
reminding
starving
symmetric
treacherous
vested
##genesis
##hdi
##ilation
##tituted
##tung
brigham
cocoa
creeping
disbelief
ivanov
kobayashi
mainz
messina
minions
monde
orthodoxy
passageway
rampage
roaming
sabha
taut
thirst
twisting
unison
##52
##clave
##ggle
##hner
##leen
##mmy
##saka
##tagram
##trix
##weather
1648
anytime
bmg
carver
cheerleading
clustered
crawling
encoded
fairness
gonzales
hackney
hellenic
ingrid
joao
lifeless
piled
pointe
primal
rhapsody
selects
soho
stockings
¢
•
##lices
##lvis
##rage
##ア
1741
`
bellamy
brentford
colossal
comprehend
czechoslovak
darmstadt
embroidered
excerpt
filtered
goin
gora
hacking
heresy
illusions
manfred
montane
mustard
onboard
sprung
substrates
##agawa
##cina
##mbit
##rgos
##tidae
apparel
astonished
bayou
bowed
cicero
coyote
enthusiast
forearm
himalayan
karlsruhe
lasers
lavender
leases
leinster
murderers
myriad
ozone
pearls
peek
piston
rankin
seville
shrinking
solids
squared
tobias
turnbull
zane
##fed
##icative
##urian
##vita
1675
alistair
boredom
casper
celeste
fates
flavors
greaves
jocelyn
lark
macy
marius
nelly
puppy
recited
seo
shutting
sirens
sofa
stalks
teased
##eft
##hide
##nery
##nology
##sitor
##user
##yuki
1612
1715
1751
bladed
disgusting
dorsey
dortmund
fenton
golfer
hawthorn
landau
materialized
meritorious
plurality
qualifiers
regulator
rubbing
shocks
skater
smiles
societe
stitch
surfing
tilted
valet
winslow
##rricular
##zuki
1653
327
arrays
blasting
bled
bottled
corsica
faculties
felony
frescoes
grassroots
haggard
hq
institut
magnolia
oversized
pasta
psychotic
saddam
somethin
sunglasses
taipei
upstate
yarn
##ecin
##ische
##lto
##nator
##nburg
##ssler
1625
1662
aeronautical
anthologies
bose
breathless
cambridgeshire
cheated
cleansing
computation
envy
fluorescent
inferno
lodges
mysteriously
oblivious
portals
potion
receipt
sichuan
weep
##enay
##fixed
##kala
##mail
##nagar
##pkins
##waite
##wani
1713
341
barbecue
christensen
deformation
demographics
dotted
educators
fujian
guiana
leith
louder
newell
palazzo
relaxation
staggered
tease
vicente
ying
##200
##berries
##cking
##enting
##jana
##lana
##region
##ulously
##viere
algebraic
ashok
baskets
bernhard
blasted
bundles
cafeteria
clemens
colton
containment
curtains
footprints
heller
hierarchical
implication
incomes
inspectors
internationale
internationals
jillian
kurdish
lambda
lyman
mabel
palatine
poised
racks
reciprocal
strung
tyrol
whistling
##charged
##culus
##nty
##uram
1737
apostle
archery
atrium
beale
booths
boutique
cavalier
chunks
corbin
coveted
ernesto
eyebrows
garlic
garment
guggenheim
ignacio
ipod
kimberly
magnum
maternity
novice
omnibus
proctor
restraints
sabrina
sinks
slammed
vile
vuelta
φ
##ardo
##bbon
##cliff
##kyu
##raya
##wide
##you
1638
anomaly
approx
aquitaine
bananas
brahms
connectivity
djs
donnie
elsie
hurting
iaaf
joo
kitchens
knoxville
larsen
martini
marvelous
mayfield
navarre
reunification
saharan
sanity
sheng
trooper
vineyards
##bbled
##bbling
##ghton
##ntly
##rting
##scent
##xing
1733
bearded
calderon
clubhouse
concourse
custer
darrell
emory
entrepreneurs
granville
helix
intuition
limousine
mansions
marriott
neighbourhoods
pendant
sabine
scrape
scuba
signifies
thug
##arus
##atal
##breakers
##hunter
##kson
accountant
azure
cabinets
catalytic
dax
fiba
flutes
glance
goethe
heartbeat
invitational
keynote
liza
momentarily
powerplant
racehorse
rosario
sanitary
silvery
speeding
stade
vaguely
verona
waved
##ffey
##ocytes
##rosis
##ße
1621
1704
1717
accountability
chichester
debuts
eel
emptied
fiesta
fourier
healy
kindly
lissa
onions
pietro
raged
rosewood
silently
sleek
subconscious
taxis
zheng
ə
##acio
##jali
##quitable
##rwin
##shida
##ης
##ィ
##テ
1695
1739
agony
carnage
cbe
charms
dipped
hamburger
hiroshi
plunged
punjabi
rajasthan
rectory
regulators
roofed
tainted
tenderness
tongues
##ovsky
##words
##ь
##я
1628
1635
6000
arrogance
bertie
chefs
congenital
enfield
facilitating
freshly
gregorian
hoffmann
hopping
scratching
shattering
synchronized
tamara
##cycle
##lwyn
##nzo
##rsten
##washed
1701
802
afb
blinding
bottoms
brandt
caledonian
cree
defective
diagrams
eureka
galicia
gathers
gemma
haji
hodges
hotter
inactivated
jian
leukemia
mcgrath
mindanao
nakamura
regan
sixties
stare
swelled
vanuatu
vogel
##dermott
##rization
1634
357
awoke
bearings
blasts
booming
clutches
compassionate
customized
genealogy
hearth
humming
iain
malls
mbe
osman
restrain
starved
大
##glio
##icum
##imov
##imum
bloomberg
bratislava
computed
cumbria
footprint
garth
hendricks
irritation
mattress
moderator
modulation
porsche
pretended
raceway
raining
roxy
stabilization
stimuli
successively
##erian
##grounds
##ieving
##lino
##llins
##rchy
##trick
##trum
##wehr
1652
1748
babu
barbarians
barking
dolores
forcefully
hostel
linguistics
loire
medicare
nawab
olympiad
radha
reuters
strapped
weekdays
б
→
##adan
##cased
##rger
##zzling
erasmus
figurative
gottfried
grandmaster
greedy
hesitate
implements
jamestown
mercantile
nape
painfully
pianos
probing
snapping
thence
ushered
whisky
willed
п
##bbies
##lism
##ratic
##χ
1697
amara
bautista
caleb
compressor
coping
gael
householder
icao
jurisprudence
konrad
operatives
parana
pathetic
philanthropic
plush
raju
rodrigo
sparkle
tabitha
torah
towering
##chison
##insky
##mussen
##nally
##tsky
1609
1665
1718
accountable
agra
ahmedabad
arya
compute
disadvantaged
ithaca
lillian
lyle
mister
nicholls
nsa
outlaws
quieter
reykjavik
sidewalk
somber
taxpayer
##bley
##cao
##chase
##dened
##ocating
##vish
##wala
##œ
##ов
andover
bungalow
ciudad
conditioned
filthy
francais
ghostly
infirmary
mathew
murderous
musik
pediatric
renee
skipped
sparkling
sprawling
stalker
swallowing
wiring
##istan
##oslav
1728
351
badminton
bandwidth
dalai
durban
earrings
felicia
genevieve
hedges
liquids
malacca
markus
nailed
nehru
nrhp
printers
ruining
shamrock
slovenian
spiked
uruguayan
villiers
vinegar
##beam
##bson
##roller
##yuan
csa
elisa
emails
flared
hurdles
mandy
marlon
mated
perched
scanned
swindon
zoning
zulu
##chua
##kled
##lates
##patient
aldo
archangel
bolivian
cinder
delaney
electronically
gaulle
immersion
jurgen
laude
louie
lucian
mcguire
mendoza
mischievous
paperwork
paused
shatter
sliced
sloane
southport
tangible
tasting
thanking
upscale
vito
ο
フ
##bry
##caster
##castle
1667
agustin
americana
auditory
cafes
chiang
christoph
doherty
fatima
flirting
fulfillment
intimately
livelihood
mirza
nikolay
overheard
sumo
swirl
tighter
tipping
trumpeter
umm
wiley
yelling
##ados
##gano
aidan
baroness
boardwalk
coefficient
gideon
lashed
mp3
prodigy
racecourse
sevens
topological
trombone
vincenzo
##acker
##nberger
blogs
choi
cosmetics
drip
dusseldorf
fergus
gina
myrtle
planner
postgraduate
principals
psalms
schumann
shards
spraying
subsidiaries
taps
undone
uptown
woke
##58
##eaux
##inho
##tology
1672
antoinette
asha
baking
barrie
biennial
biotechnology
conservatoire
derry
dinners
exclaimed
filtering
ked
neatly
nietzsche
qc
schoolhouse
stumbled
sucked
yearning
ʿ
##aia
##aith
##cans
##dner
##ncia
##nsed
academies
armory
beaux
dashed
flushing
freaks
hideous
histoire
margarita
marrow
messing
musica
reeve
siegel
sweetness
##7th
##cide
##ezer
##mbs
##ouring
aromatic
bacterium
cecilia
dominique
fabrics
forgetting
inspecting
lighted
marjorie
maximal
mixer
offender
pathology
respecting
risking
seychelles
sherry
spying
tatum
turquoise
verve
##lding
##onale
##tzer
##urbed
1623
1742
accreditation
aleksandr
bodyguards
cautiously
compiler
delle
desktop
ellington
fairchild
fleeting
glare
gustave
hiss
khz
lucknow
madman
nexus
percival
pomerania
shelly
specializes
squeak
zhao
##bahn
##igraphy
##utus
##ו
1711
bethel
bipolar
circling
delgado
dwellers
ghent
gottingen
malice
motionless
nanjing
needy
opaque
reassure
sane
sbs
slightest
smoky
sponsoring
straightened
temeraire
tobin
ymca
zeke
₱
##hane
##mental
##personal
##scoe
##tson
##uddin
alfredo
algerian
alsace
civilized
clipped
digger
everest
fordham
genie
internship
karin
kelsey
nonlinear
piazza
psychologists
squeezed
strangled
susie
unfolded
utrecht
χ
##drome
##endra
##logic
##ulio
##ulsion
1722
barefoot
boyer
closeness
cochran
drones
greenberg
lowers
narcotics
newmarket
obligatory
oskar
parochial
potsdam
pretoria
rohan
smack
southend
tags
tehran
thumbs
watering
whisper
##acing
##chner
##ttered
##veda
##カ
1629
1656
1747
appleton
cedric
christophe
commuted
correctional
cuff
handball
irs
masjid
poznan
stalked
thong
vial
в
##fted
##nail
##thorpe
##þ
1611
1632
1658
arcadia
bahn
bellevue
bromley
candace
carmichael
catalonia
darts
donegal
greenville
hovering
hysteria
lucille
maddox
padded
passports
priestess
puddle
refrigerator
secluded
tracker
##ausen
##movable
##nbc
##orra
##vna
1703
1705
1729
barrio
calmly
complexion
handy
highness
jagged
macquarie
mahmud
misty
pristine
ripple
sloppy
specialization
specifies
sudbury
tractors
whipping
天
##esthesia
##inging
##ա
1738
1744
amulet
blanca
blazing
broadband
bursting
crumbling
deux
latch
leiden
nationalities
pastry
planck
prc
remodeled
ripping
skinny
speechless
tesla
toulouse
translit
verlag
wandered
##4th
##ensburg
##inton
1732
archway
bahadur
biomedical
bjp
bombardier
confidently
gdansk
giacomo
governorate
gunnar
harcourt
jena
johanna
lilith
lullaby
nouveau
rebranded
semantic
www
##folk
##person
bengals
bouquet
canned
chalmers
comrade
ems
hurriedly
marne
mildred
pronouns
sikhs
suarez
##atics
##cultural
##eurs
##izzly
##orio
affectionately
carpets
celine
constabulary
curran
faltered
forsyth
guadalupe
hacked
hesitated
idf
inference
nadia
newtown
ortega
parenting
puzzled
regatta
salim
shortlisted
stefano
trusting
walsall
warrington
winnie
м
##unas
1726
1734
1736
bartender
bukit
burmese
casually
eastman
fingerprints
heidelberg
hostess
kabul
massage
mecklenburg
nix
oblast
parentheses
prakash
radiating
safari
scissors
socket
stair
taxpayers
telecommunication
tilting
ultrasound
vitro
whichever
yvonne
##8th
##cheon
##elis
##ʁ
1743
annette
blah
configured
cyrillic
doin
dorian
downstairs
effortlessly
embroidery
girlfriends
grasping
inquisition
mandolin
prostate
serene
sewing
volkswagen
##eira
##ioms
1666
asturias
bumps
chests
clicking
cornered
dipping
dwyer
fuzzy
glendale
holiness
kettle
lagos
maui
pune
roanoke
sadie
scarred
supermarkets
thugs
uppsala
valuation
vox
whipped
##puri
##zawa
1624
biker
bundesliga
chores
cleavage
cochin
creamy
darkly
dunne
healer
juicy
juliette
madeline
pauses
remington
seventies
skipping
vodka
yamaha
ł
##bbly
##dorff
##wley
##φ
##п
almighty
broughton
chattanooga
demetrius
foreigner
hades
hannover
homework
islamist
latvian
parchment
sql
telecom
uniformed
xiang
yelled
##iaceae
##iology
##slin
##tative
##zano
1709
antennas
darkened
dhabi
driveway
genealogical
palais
pickering
plumbing
rags
roderick
teasing
tx
uttered
##ags
##omics
##ウ
1641
abstraction
aramaic
ashby
bernardo
boxers
crates
dresser
fetal
finley
formulas
fuss
layton
medial
minsk
nilsson
organizes
pixels
settles
shaggy
sucks
tightened
typing
uncanny
##gnant
##mins
##naud
##ʿ
1664
admiring
antonia
dioceses
donnelly
emergencies
guernsey
harpsichord
interfaces
lcd
lipstick
looming
madhya
manly
manufactures
matteo
proudly
simulcast
sudanese
sutra
vendor
##aldo
##athic
##nikov
##pled
##rlin
##г
1659
1683
circled
comprehension
dinah
husky
spitting
startup
tormented
trolls
vantage
warlock
##asurable
##etched
##र
bulky
diocesan
fastened
granny
guangzhou
homemade
horst
moritz
piss
pyrenees
ramos
reared
reindeer
sensed
slamming
startled
straps
thirties
wanda
yerevan
##bread
##cb
##encia
##eves
##oire
##rooms
##レ
biochemistry
cognition
congratulations
hussain
insistent
italianate
laszlo
mcintosh
packard
penthouse
rhineland
ribbons
rocked
sweets
tinted
verification
wavy
к
##ppy
##ssed
accountants
calabria
cassie
catfish
commotion
lulu
messy
overgrown
remy
rhea
shadowed
skaters
snooker
vidal
wraps
ı
##izan
##jhl
##lez
##meister
##national
##odle
##oux
easing
interdisciplinary
kazan
kwan
lesley
muriel
niall
partnering
priscilla
redistribution
singleton
stroll
tbs
zhejiang
##clops
##laya
##lten
##skaya
1679
1692
aroma
blessings
camilla
claudio
clicks
clinging
curses
estadio
flung
hickory
hidalgo
madam
mateo
nonfiction
noses
peyton
rabbis
rosenthal
securely
shadowy
sonya
variance
wry
##ggles
##itung
##onus
##tray
##zumi
##ŋ
##ロ
1716
allegro
barak
convertible
excuses
fooled
honneur
jj
maddy
petite
reassured
relaxing
restraining
slapping
stryker
##biology
##eased
##lynn
##nsen
##yoshi
##ʰ
##サ
bilbao
botswana
consular
databases
distillery
fling
kochi
magdalene
mandal
padre
paws
sanjay
stitches
superfamily
thumping
tiled
tokugawa
trier
twitch
ventura
##jong
1618
1721
analytic
bangs
crate
fridays
guyana
haydn
iqbal
leaned
liechtenstein
maison
mandates
musee
nosed
oleg
penang
premio
roasted
stupidity
v6
virginity
weathered
н
ア
##a1
##esian
##gizing
##yin
##ɒ
1699
apprehension
coughing
eels
eileen
francaise
hooves
jennie
joshi
mouthed
nrl
peugeot
pharmaceuticals
query
sarcastically
slapped
surged
symposium
tugs
urgently
werewolf
wwii
##orno
##pts
anya
bastards
citations
eritrea
francesca
mascara
mergers
mikey
munchen
plastics
plunging
soared
softened
thankful
volga
##jian
##listic
1682
adjunct
barony
concacaf
dissemination
ecumenical
grafton
gutierrez
lakeside
montrose
obeyed
scratched
silas
staggering
stinging
suzy
##dson
##ieri
##rrigan
##б
##ר
##ュ
alarms
assam
cfa
forgiven
gonzaga
kenyan
ligue
luisa
mahogany
novgorod
peanuts
roberta
spicy
strewn
towels
watered
wrists
xander
##hered
##stadt
##ywood
1655
canteen
dobson
drenched
eighties
enveloped
felicity
froze
handkerchief
howling
kinase
patsy
stephane
tossing
transmitters
xinjiang
##hedron
##jia
##onzo
##talk
##vyn
##на
1626
bedside
cantonese
ctv
geraldine
gilles
glued
godzilla
gravely
harlow
howie
invariant
merton
newbury
scanner
shaky
sidewalks
thump
twinned
westfield
р
##ammed
##iidae
##nosis
##omba
##poulos
##schen
1654
aachen
asbestos
avila
bjorn
brushing
champs
curiously
decatur
fished
florian
grandpa
isabelle
nagoya
regulates
routledge
uae
yunnan
##entes
##rcus
##scia
anthropological
colleen
congresses
domenico
eyelids
feb
jimenez
mma
mustache
primera
regression
socrates
vinnie
¡
##ducted
##س
1663
hurdle
hyun
lausanne
liquidation
mendez
paxton
relaunched
sebastien
sock
stung
tallinn
trois
vigor
whitley
ι
##arina
##edly
1712
anwar
appliances
bathrooms
bloomington
bolted
chiba
dentistry
dfb
equivalence
guo
gymnast
immortals
interrupting
magdalena
margot
rosary
rutland
stairwell
translators
##chule
##elial
##gical
##ignon
##lais
##zow
bethany
caine
chairperson
curate
curled
diablo
dripping
facilitates
[...]
