<pad>
<mask>
<cls>
<sep>
<unk>
the
,
of
and
in
@
to
a
"
.
was
'
-
as
on
s
that
for
with
by
is
)
(
it
from
at
##s
his
he
were
an
had
which
be
are
this
their
but
first
not
one
they
its
;
or
also
her
after
two
have
has
been
:
–
who
she
new
all
during
other
when
time
into
more
i
over
would
1
while
game
only
most
up
three
##a
2
about
later
out
may
no
between
him
##e
there
song
than
some
##ing
made
year
season
such
city
before
3
##n
where
##ed
used
series
them
000
being
both
second
these
##r
can
many
##i
years
world
however
##y
film
north
so
album
##d
south
through
war
part
5
then
##t
m
under
several
number
including
well
against
became
known
state
four
4
/
day
—
although
united
early
century
following
end
began
because
work
like
music
##er
##o
t
called
episode
re
##ly
found
until
said
could
area
long
people
states
american
since
6
released
same
each
british
did
around
##l
10
along
church
team
st
km
million
five
back
high
0
national
john
another
man
##us
company
best
if
down
west
%
use
river
final
you
off
de
large
games
august
##es
what
8
life
september
us
due
b
line
will
7
name
late
now
men
any
june
received
home
much
described
set
9
group
six
within
h
un
government
per
$
storm
road
do
took
october
played
star
co
east
won
##u
species
system
play
single
general
times
wrote
family
##h
we
[
]
july
according
based
league
just
record
major
white
show
included
school
main
third
water
o
book
left
even
those
video
named
april
march
very
england
january
small
g
##on
though
way
near
york
black
k
u
character
old
place
club
original
last
top
20
division
built
12
own
november
15
songs
december
death
30
form
make
public
german
mo
king
player
still
tropical
next
island
led
##an
local
role
al
side
##man
moved
again
red
ka
2010
2009
without
often
history
further
my
love
among
university
##m
e
c
recorded
##al
##is
2008
considered
ii
great
house
military
100
period
army
di
came
run
d
continued
story
##en
power
town
##g
english
french
written
2007
published
days
held
go
land
few
take
##ra
25
fire
pre
##th
support
forces
half
16
14
force
having
18
throughout
point
short
hurricane
ship
become
county
light
band
different
international
lost
11
me
ten
former
##2
##in
children
##ia
2011
despite
release
common
order
title
13
field
air
body
battle
members
version
route
2006
gave
park
produced
similar
total
dylan
little
production
ho
less
##k
anti
given
live
country
once
site
television
february
never
southern
how
sc
career
head
track
ve
control
position
young
central
northern
good
en
ko
mu
god
western
con
cr
making
include
win
writing
seven
lead
reported
2012
age
away
eastern
development
tour
##f
seen
open
stated
returned
sea
match
##ton
ce
instead
##x
across
established
rock
attack
modern
&
highway
using
ships
week
population
service
ft
noted
2013
reached
developed
ke
x
america
low
battalion
##le
eight
right
building
!
##c
thought
l
president
art
ireland
miles
players
result
london
ga
father
himself
##3
50
brigade
##da
important
royal
##5
felt
performed
various
port
areas
construction
ever
feet
level
full
##ers
17
too
australia
died
previous
events
mm
range
##w
[UNK]
##na
mid
originally
##ic
went
##re
far
project
started
upon
##6
human
sent
son
others
kingdom
stars
act
formed
guitar
mi
##um
court
ha
style
w
women
political
should
28
caused
see
##z
eventually
located
performance
21
23
james
center
la
ground
works
created
football
able
critics
##4
characters
r
law
19
strong
grand
hero
night
popular
class
region
born
cup
24
street
director
novel
together
every
##ta
2004
’
non
remained
completed
f
##ka
scored
##7
2005
announced
guns
22
australian
chart
mother
award
ex
damage
almost
least
am
added
brown
ne
behind
bo
fourth
months
party
post
appeared
followed
killed
addition
gold
heavy
##ro
present
return
##8
does
le
wife
command
front
gr
success
##ie
26
##ens
coast
fort
taken
case
features
##0
list
playing
put
goal
gun
free
##b
action
aircraft
design
france
served
europe
pro
towards
bay
either
decided
leading
sold
2003
close
david
generally
believed
elements
rose
2015
move
soon
fleet
magazine
campaign
female
operations
##1
##no
el
example
significant
27
weeks
ball
carey
help
rather
get
points
records
rest
##ge
dam
opened
outside
##ism
brought
finished
##ne
##st
directed
hall
don
poem
study
wi
awards
earlier
featured
robert
sub
yard
##p
infantry
mark
saw
##ry
real
recording
type
##9
successful
victory
wales
william
##ri
earth
tech
blue
find
member
##res
depression
##do
##te
manager
provided
village
working
association
council
start
federer
se
wanted
40
cross
particularly
stage
dr
jordan
opening
##ar
##ter
european
initially
##el
appearance
championship
troops
event
pl
roman
summer
##va
largest
ro
200
attempt
mc
evidence
##ma
29
above
atlantic
bra
possible
yards
nine
union
winds
radio
##mo
allowed
office
saying
sp
19th
era
george
super
hours
review
florida
month
n
san
sun
##ness
500
fe
plan
special
tr
whom
##pa
police
community
designed
missouri
p
previously
worked
forced
hi
parliament
hill
praised
race
stone
##ga
met
remains
africa
increased
middle
2014
come
creek
face
base
lower
process
cha
ham
na
studio
taking
official
replaced
society
£
fa
##ti
##ch
jack
michael
parts
writer
commander
relationship
research
social
##ni
date
highest
ny
operation
paul
shot
station
beginning
capital
cast
estimated
sa
##ine
##la
ad
claimed
term
industry
media
navy
joined
museum
past
placed
section
##os
average
car
food
hand
henry
horse
involved
mph
religious
signed
van
°
##op
change
goals
oldham
olivier
units
##de
introduced
itself
japanese
male
suggested
complete
ki
rec
z
india
must
po
sometimes
college
give
lines
prior
scene
v
available
commercial
going
irish
mass
sound
stories
thus
training
##men
31
hit
loss
##si
business
child
j
nearly
reviews
today
whose
##ce
2001
told
##ff
approximately
christian
indian
pu
appointed
damaged
friends
lu
##po
##rs
already
entire
fifth
forest
length
native
regiment
woman
mexico
turned
00
flight
issue
probably
program
size
##or
civil
language
our
students
winning
##ling
##ur
additional
better
passed
shows
thomas
wall
##son
news
score
##ana
canada
captain
especially
space
zealand
##ian
enough
jin
pacific
wheeler
##don
bar
britain
failed
forward
big
chinese
crew
lake
overall
cathedral
limited
mixed
names
running
structure
wide
word
##ad
##ted
might
ordered
person
uk
villa
##able
ar
arrived
camp
key
remaining
spent
larger
ra
##line
department
moving
nature
upper
usually
##ist
##lo
##se
debut
minor
network
regular
##ity
canadian
changes
decision
future
latter
##sa
60
birds
bridge
com
iii
includes
required
cm
ma
staff
45
appear
billboard
round
##ation
centre
cut
em
feature
lack
particular
##ion
material
money
mounted
positive
supported
territory
?
cat
critical
ended
pe
pop
pressure
provide
sha
view
##eno
finally
saint
tv
##ha
groups
notes
rachel
temple
wood
##ath
##ca
##kan
2002
films
pass
shown
smaller
##ler
always
bill
discovered
gods
press
related
voice
becoming
board
bu
difficult
shortly
##den
da
defeated
musical
##ng
##v
cu
peter
science
charles
minutes
##ba
living
private
trade
books
fur
nations
subsequently
teams
##id
2000
dead
dj
experience
fact
idea
inc
intended
professional
surface
##cl
captured
largely
q
scientology
greater
japan
likely
mostly
poor
room
##et
##ts
education
gu
interest
metres
self
squadron
square
themselves
problems
referred
response
sar
turn
whole
yet
collection
contract
got
haifa
hot
mountain
numbers
ran
##tion
constructed
primary
##ble
entered
greatest
hospital
khan
##nt
majority
makes
ranked
tower
1995
airport
call
headquarters
ku
leaving
starting
traffic
tri
##ley
burns
contains
fans
ju
listed
morning
natural
##om
##sh
deep
effects
friend
imp
machine
officers
si
unit
changed
fighting
green
im
information
jewish
ocean
report
ste
ancient
competition
concert
cover
create
deal
des
direct
var
whether
##ty
br
california
certain
episodes
launched
leave
lived
proposed
ross
runs
soldiers
takes
##hu
agreed
du
fruit
mary
minute
tu
80
extra
forms
inter
know
location
quickly
true
companies
compared
increase
occurred
plans
quarter
reach
studies
##it
##ria
2016
38
galveston
ph
theme
##co
##kar
##less
blood
culture
defeat
destroyed
double
inside
things
traditional
valley
##bee
##bu
1999
35
appears
bi
condoms
independent
iron
longer
movement
queen
standard
tons
##sley
artillery
der
es
interview
latin
leg
nu
trees
asked
cad
carried
cricket
election
lyrics
schools
sixth
wal
annual
author
conducted
fr
hard
lady
republic
richard
writers
##dis
##me
##ting
artist
associated
cause
current
metal
services
something
african
alice
bird
buildings
del
district
ending
fox
image
singles
source
chicago
commented
polish
via
##to
2nd
400
awarded
brother
castle
contemporary
fin
married
numerous
proteins
unable
vi
##est
36
assigned
done
health
nixon
tracks
##bo
##ey
##land
##ns
75
cap
effect
influence
inspired
par
scenes
tin
##ll
cyclone
edge
empire
here
minister
##ita
##nia
albums
cell
conference
dark
defense
earned
eu
os
##ised
ca
christmas
clear
giving
issued
meaning
peak
safe
##tin
##ya
baby
bowl
busch
directly
hair
immediately
individual
initial
rear
te
think
variety
##bery
##ot
70
begins
coach
committee
daily
figure
positions
status
thunder
ac
boy
girl
helped
husband
ins
liverpool
meyer
planned
stay
terms
1998
300
attacks
closed
corps
daughter
fowler
marriage
somerset
suffered
##ho
##pi
ban
carolina
chief
cold
meant
nearby
ni
say
sy
wing
##ment
1st
20th
broadcast
historical
poly
presented
producer
raised
taylor
##as
##ville
ll
nuclear
piano
presence
really
spanish
texas
wind
##ies
90
actor
composed
continue
offensive
twenty
virginia
anderson
attempts
extended
fell
marked
su
your
##ck
##ve
ai
below
covered
ec
management
##pole
1996
combat
fall
specific
1993
catholic
federal
foot
higher
mile
needed
officer
organization
personal
rule
situation
speed
transit
uses
##am
##rch
beach
critic
distance
highly
ind
inn
pr
stop
##cr
##ki
##li
assembly
attacked
beyonce
bodies
cost
countries
course
draw
fiction
germany
northwest
pennsylvania
powerful
selected
subject
##rat
advance
figures
hour
rep
allowing
comedy
festival
hold
los
miami
places
plot
recent
want
widely
##mium
ap
copies
genus
levels
means
movie
offered
opera
peaked
percent
rate
removed
singer
tradition
##ac
##hit
##ive
##ized
##ous
##tic
active
ag
allow
energy
master
need
paris
respectively
scoring
scotland
typically
za
##ny
##oc
##tz
bid
ch
combined
condom
hands
meeting
responsible
silver
##bit
##go
##ph
##pl
academy
attempted
northeast
performances
##at
audience
birth
eye
heavily
houses
islands
sets
theatre
va
complex
defence
edition
fish
governor
helm
lo
matches
nes
reduced
sir
##di
armed
channel
chris
concluded
describes
observed
prince
resulted
scale
wave
##kel
##nath
##so
##tra
account
completely
jackson
looking
mega
rights
stating
strength
transport
##ls
appearances
bob
minnesota
quality
read
reports
revealed
##age
1997
activity
artists
arts
calling
declared
eva
fly
look
managed
naval
parents
plays
protein
refused
separate
sister
townsend
winter
##dae
##house
##ir
##ish
1991
ab
amount
approach
bass
conditions
cultural
cy
nicole
relief
residents
shiva
smith
test
##der
##ku
39
attention
expected
mill
stadium
yue
150
3rd
efforts
featuring
finals
formation
mainly
mount
pa
seasons
spring
ta
tessa
therefore
##ate
47
actions
activities
actually
becomes
euro
legal
paper
para
sports
tom
tree
weather
words
##ally
##osaurus
##pt
border
cl
coming
foreign
pair
pay
ridge
sales
security
struck
##ea
##mony
1992
76
emperor
follow
job
practice
primarily
soundtrack
thick
ultimately
write
##ai
##ent
##ons
##stein
achieved
alone
ev
heart
issues
italian
lord
ottoman
ri
sense
viewers
accepted
break
china
data
domestic
elected
except
horn
pit
prevent
rainfall
sequence
##els
##field
##ky
access
alongside
authority
bank
casualties
flooding
frank
fully
hotel
lot
newspaper
ode
roles
serious
slightly
types
workers
##ful
1994
authorities
entertainment
fey
fight
independence
johnson
nor
owned
perfect
remain
script
soviet
sr
titles
apple
branch
build
cannot
care
ci
et
foundation
gi
illinois
inches
ji
mac
males
secret
vietnam
##yp
affected
ben
broken
colony
computer
defensive
gas
ja
mr
officials
sex
showed
stand
standing
titled
tournament
twice
visit
welsh
1970
1986
ability
begin
commission
dot
expressed
market
mer
mis
peace
semi
sides
spain
toward
##ct
##ke
##ru
aid
influenced
lb
meet
sol
zhou
##well
angeles
battery
continues
flying
historic
individuals
pan
physical
portuguese
sign
##ron
51
concept
disease
earliest
financial
hu
keep
kind
letters
lives
mentioned
mission
piece
produce
res
resulting
##sp
adopted
advantage
barrow
basis
beat
counter
dedicated
doing
er
founded
freeway
link
officially
reign
represented
says
und
##ib
##nic
44
draft
drive
fu
losing
op
shell
singing
sites
surrounding
try
18th
acting
executive
increasing
lock
oil
olympic
onto
prime
reason
relatively
themes
transferred
unlike
ya
yellow
##hi
##od
##yl
1990
33
abu
attended
au
faced
females
jo
manchester
older
organized
potential
tried
vocals
wilhelm
##ant
##ats
##gr
##gua
##ina
animal
boat
capture
charge
conflict
direction
disc
dumont
effort
focus
ge
journey
maximum
meanwhile
model
planet
proved
shape
shi
sources
##las
##ung
alabama
bad
beyond
core
determined
divided
fl
intensity
md
pine
possibly
rare
student
studios
##pe
##su
assault
believe
cities
color
couple
designated
digital
homes
je
medical
paid
yo
##ci
##han
##il
##per
##tt
1960s
arms
crown
dance
drama
images
omaha
simply
washington
##cing
##cy
##gen
##ut
##wi
growing
guest
historian
impact
israel
kept
mccall
nation
portion
returning
##fi
##sca
1980s
archaeological
economic
edward
entrance
grew
institute
interchange
li
sexual
supporting
technology
travel
underground
##que
##un
##up
##vo
##way
argued
bond
engineer
fan
follows
fun
golden
ing
kg
lane
playstation
rain
rihanna
rugby
suggests
1964
1988
advanced
box
causing
consecutive
content
criticized
folk
gained
landing
orders
ray
revolution
volume
website
##dy
1940
ba
background
cal
chosen
debuted
joseph
leader
letter
multiple
newly
projects
prominent
reaching
reference
screen
secretary
structures
ti
treaty
visual
##ide
##je
##ul
32
abandoned
ali
anonymous
baseball
claim
contrast
currently
fame
horses
importance
inch
jupiter
net
railway
rise
sport
trans
vocal
##shi
##ss
##ze
5th
ahead
analysis
baltimore
bc
buried
cases
enemy
equipment
escape
haven
knowledge
lands
outer
property
rejected
save
spa
torres
##ava
##fa
##mp
##ow
120
1947
claims
granted
increasingly
mag
results
search
seems
settlement
visited
weekly
##ated
##ue
+
1941
administration
bbc
breeding
campus
commonly
containing
creation
deities
die
divine
int
seconds
snow
theory
touchdown
unique
wounded
##uga
53
bring
broke
cells
chapter
crazy
identified
killing
multi
nest
nominated
note
path
promoted
regions
religion
rev
risk
secondary
sl
solo
temperature
##bb
##nd
##ore
34
actress
aired
dvd
egyptian
feel
fi
fired
jane
literature
mouth
nothing
operated
opposed
passing
selling
senior
share
systems
thing
unknown
ur
##led
1970s
agreement
animals
controlled
greek
growth
hundred
offer
sam
sap
scottish
##j
##une
adult
andrew
chapel
choice
confirmed
croatia
explained
fantasy
hope
ideas
pieces
plant
promotion
sand
serve
southeast
tell
urban
writes
##lot
49
altar
bell
bishop
famous
filmed
herself
ib
invasion
jain
kings
landfall
moment
perform
pitched
poetry
rapidly
regarded
sho
southwest
stations
weapons
1972
1989
37
aspects
avoid
battalions
boats
consisted
depth
fast
flow
hip
jim
let
notable
philadelphia
sky
wild
##ap
##birds
##ett
##gan
##ite
##ol
##tes
##wood
130
1987
46
4th
64
9th
dia
families
gives
kai
maintained
murder
occur
retired
ring
slam
value
wa
##ang
##mat
##tro
1985
42
65
actors
chains
chi
connected
creating
dropped
dutch
ep
extensive
failure
laid
matter
mind
roads
seventh
significantly
subsequent
trip
truth
weight
##ess
##lly
##ner
##sc
1990s
48
andy
budget
egypt
finding
gulf
injury
juan
passes
peninsula
prepared
recognized
sustained
versions
walls
why
williams
##con
##lan
1944
600
cardiff
chose
filming
finds
heads
height
humans
ir
mike
necessary
pale
represent
scheduled
sought
spread
vice
##ber
##ise
##rt
##xa
1960
1984
americans
comic
dog
frequently
ice
italy
medieval
nucleus
perhaps
province
publication
recently
starts
steve
y
##ard
##eda
##ee
##ham
##hip
##isto
##ten
##uc
##we
arab
bed
bottom
broad
dated
employed
fought
generation
gradually
guard
intelligence
kill
mel
pet
phase
powers
premier
producers
protection
rating
reaction
request
stones
transfer
##ae
##em
##gl
##oe
##rb
##wa
contained
facilities
gray
lamb
lewis
lieutenant
michigan
mono
nathan
pilot
policy
popularity
regarding
rich
scott
severe
shaped
tail
trial
vietnamese
17th
700
athletes
comes
contributed
degree
dry
hms
ign
improved
join
massive
mean
negative
problem
ru
simple
straight
treatment
waters
worldwide
##ec
##fer
##io
##ko
##og
##sen
##tre
##vi
collected
commissioned
decade
effective
ends
fictional
floor
mad
mae
martin
neither
normal
oxford
serving
survey
text
turner
##be
##ization
##lu
##nell
##vn
##za
1950s
1981
56
adding
allows
canal
centuries
concrete
contain
develop
dynasty
entirely
expanded
gain
glass
items
kilometres
kn
method
motion
nc
programs
ram
safety
slowly
threat
##du
##ell
12th
52
800
belt
boston
chorus
cited
criticism
decades
display
drawn
experienced
host
incident
lisa
mario
pope
reasons
roughly
slow
steel
torpedo
train
wolf
##gra
##mi
##rum
1939
basin
champion
congress
dates
deaths
didn
dollar
evening
formula
lee
memorial
nba
palm
poet
rein
stages
supply
th
violence
##ara
##ari
##hm
##les
##ning
##ong
##tone
1942
allied
avenue
contact
crowd
dress
ed
engaged
imperial
industrial
liu
losses
mit
occasionally
occupied
purchased
speaking
spec
watch
##ds
##era
##gh
##mba
##rh
##rra
1965
1968
1969
ae
boise
brad
championships
chance
conservation
corn
declined
editor
eyes
flood
girls
kang
kits
miss
quite
romantic
sentence
skin
successfully
##head
##jo
##out
1975
43
additionally
arrival
begun
briefly
category
churches
composition
drew
gordon
hell
longest
mor
paintings
pen
permanent
russian
setting
##eck
##ip
##ping
##qui
##rd
##ves
applied
attorney
authors
bro
carr
clean
enter
fields
guide
honor
jamal
kent
leaders
learned
macleod
purpose
raid
regional
val
vo
wedding
##ium
##lings
##rang
1918
96
accompanied
acres
appeal
calls
chu
combination
condition
fore
hired
marine
mine
planning
possibility
qui
settlers
thirty
tim
worth
zone
##bari
##bla
##hl
##mar
##nce
##ops
##ssi
1966
71
94
ann
brian
brothers
developing
dublin
enjoyed
existence
existing
holy
jar
jazz
oldest
participated
performing
rail
responded
sal
seat
sector
simon
solid
sweet
##ja
##ji
##uj
##ward
110
62
72
81
apart
cent
charter
clubs
competitions
den
dominated
earthquake
fellow
guy
han
heard
journal
lasted
literary
motor
moves
opportunity
populations
protest
reserve
reviewers
row
scholars
thousands
towns
typical
ul
widespread
youth
##by
##ding
##her
##nc
##ney
##ros
##uli
41
brief
capable
ceremony
closely
col
consists
crime
everything
faith
funding
greatly
interior
joint
justice
label
missing
mont
mountains
receiving
routes
shooting
stopped
ulysses
weakened
younger
##ord
1936
1950
1952
1974
anthony
anything
billion
burn
caribbean
dec
derived
details
dream
economy
electronic
evil
finish
fit
goes
happy
headed
holding
jump
painting
provides
rescue
rio
rural
simone
store
task
technical
tells
transportation
vehicles
##ating
##istic
##ven
##ys
1967
ari
atmosphere
bat
bought
cd
classic
creator
dissipated
element
falls
filled
fine
flights
ill
innings
invited
maria
max
monument
pal
question
raf
regime
rolling
serves
similarly
storyline
strike
survived
turning
viewed
worship
##ake
##ani
##au
##chan
##illo
##ius
##ize
##san
##tri
1930
1946
1973
54
61
acquired
arm
asia
assistant
banks
classified
colonel
dan
def
describing
engine
establish
exist
grade
grant
grey
hat
hills
moon
noisy
opinion
prey
reality
receive
restaurant
somali
trying
turkish
turns
watched
##ades
##ford
##ovic
##sti
##tar
##unk
##ure
1945
85
95
alien
bart
che
coal
coastal
colonial
cult
douglas
eagle
focused
fuel
gwen
habitat
haiti
locations
mortal
ob
opposition
oslo
perry
sang
signing
stock
technique
venus
vision
##and
##ball
##cu
##eli
##ger
##nta
1914
1971
ant
boys
chemical
christ
constantine
converted
depicted
destiny
drop
entering
entry
establishment
holds
homer
mtv
mushroom
narrow
palace
pi
prize
reading
rivers
romani
sat
shared
spot
succeeded
suggest
teaching
whereas
##cle
##len
##tan
##town
##ua
##ura
112
1919
250
3d
55
6th
77
agent
camps
caught
certified
cruiser
dating
decline
delivered
eighth
equal
inner
jones
knew
ones
pattern
plum
poems
providing
rival
rome
rules
separated
supplies
throw
tied
ty
##fl
##fo
##ors
##rp
##vic
1930s
article
assistance
athletic
carry
charts
chelsea
colour
communist
defined
desire
examples
hits
louis
lover
methods
novels
outstanding
penalty
progress
protect
renamed
von
##ay
##hee
##ier
10th
1943
1963
1976
1982
8th
ama
arranged
attached
basketball
bit
brien
classes
credited
engineering
engineers
fresh
gameplay
georgian
morrison
pole
portrayed
remainder
ritual
siege
soul
utc
##ric
##rm
##ski
11th
acid
agricultural
australians
colonies
columbia
consisting
count
croatian
discovery
facing
fear
howard
indicate
occurs
oh
protected
reception
remix
reputation
santa
secure
soil
sunday
sur
tests
threatened
views
walter
ways
worst
#
##ak
##red
16th
1916
1980
accounts
adapted
appearing
champions
chess
civilian
denied
feeling
feelings
finishing
fountain
getting
hearts
hindu
hop
interested
iv
jersey
leads
leaves
masters
miner
none
noting
producing
rarely
replace
samuel
specifically
spirit
statement
strand
studied
successor
supreme
usa
wins
wooden
##adi
##cca
##cha
##ivision
##ret
##ring
##rop
##uis
##zi
1915
1953
1956
1978
acts
alan
archaeology
arthur
basic
biographer
bull
cape
chairman
dismissed
dun
favorite
flank
flat
hollywood
introduction
labour
library
lords
maintain
maryland
message
moore
nbc
plain
politics
principal
reviewer
seeing
symbol
tomb
ts
window
##aurus
##bury
##dra
##ks
##pan
##ries
##uri
##val
1913
aa
ace
admiral
alternative
ass
calvert
capacity
charlie
considerable
discussed
distinct
dna
drawing
expansion
firm
function
gate
measure
mississippi
mode
neck
online
opponents
pitch
plants
respect
shore
sing
sort
speech
talk
target
tribes
wars
weak
##ab
##ech
##ei
##fu
##ou
66
87
98
ago
alexander
allah
anzac
app
arsenal
attributed
av
bio
biography
bush
challenge
charges
communities
connection
continuing
daniel
danny
dh
difficulty
dollars
door
exchange
expedition
forests
gen
global
isabella
magic
marks
matt
ninth
offers
origin
quick
railroad
ruled
scientific
session
showing
someone
specimens
stefan
taught
tie
trail
yank
##im
##ju
##ree
57
59
academic
adventure
airline
bolivar
bradford
changing
commanded
dean
diameter
emotional
inland
involvement
launch
manner
med
memory
parallel
professor
rangers
rifles
split
standards
step
towers
##ary
##com
##fr
##ica
##lmer
##mic
##ms
##zong
##ø
121
122
aston
bono
brigades
camera
candidate
char
classical
crossing
divisions
duke
enterprise
exit
faces
fashion
guardian
historians
knots
landed
leadership
missions
norman
offense
organ
passage
picture
twelve
victoria
wilde
ze
##eo
##hed
##ied
##ker
##kh
##kin
##lt
##xi
1961
7th
adults
arc
believes
bin
breaking
bringing
card
clarkson
completion
cory
distributed
distribution
estate
extremely
fei
fungus
grow
heritage
hind
intersection
jam
legs
mar
mole
muslim
parties
picked
pursue
races
rapid
rat
recommended
replacement
sarajevo
secured
skye
stephen
teacher
teeth
theater
zoo
##ane
##aur
##car
##eu
##hr
##isation
##lay
##ments
##ral
##rn
##sel
##tor
##ud
##yn
1979
agency
ak
armor
bee
concerns
constitution
frederick
gone
hem
inspiration
isolated
jerusalem
joe
lap
learning
missed
nevertheless
nomination
object
pin
rifle
rocky
spin
squad
surrounded
surviving
table
tar
territories
tries
windows
wu
xi
##hy
##zer
1917
1937
1948
79
amateur
anniversary
approached
block
blocks
carter
charm
courts
description
destroyers
emerged
encouraged
extreme
firing
immediate
joy
ken
ky
mix
nightingale
observations
organizations
partial
ratings
reconstruction
rooms
roy
sounds
tall
thin
triple
wants
watershed
wrong
##amy
##dine
##gs
##ps
##ras
1951
1958
acc
apparent
attempting
bow
cloud
commonwealth
cong
controversial
controversy
crossed
dar
detailed
documentary
eggs
existed
gerard
giant
grass
hamilton
hart
hoped
institutions
kit
mcc
olympics
orbit
protests
relationships
reunion
roll
ryan
simpsons
sons
stands
suffering
##ah
##dre
##eka
##ora
##pha
##ren
##rom
##rti
##sho
13th
1954
1955
accept
admitted
aged
approved
argentina
assumed
bridges
coup
electric
emphasis
flu
franchise
francisco
hundreds
identity
indeed
initiative
marines
opposite
owner
personnel
platoon
pointed
portrait
purchase
references
regularly
relative
sections
sequel
sessions
strongly
surrender
tunnel
unusual
warm
wearing
##cel
##gi
##hn
##ious
##ists
##kie
##mas
##nio
##osa
##pen
##yo
07
1949
adam
arrangement
attracted
bas
bureau
cab
characteristics
concerned
concerts
congo
counties
destroy
easily
farm
fixed
footage
frame
gallery
ghost
hum
improve
indicated
janeiro
jeff
labor
languages
las
laws
medium
musicians
partly
pol
possession
practices
protagonist
recognition
rush
sell
somalia
sq
streets
terminus
treated
visible
wine
##ft
##gative
##lb
##los
##vati
06
1983
97
accused
adams
bce
carbon
carol
convoy
cycle
designation
dramatic
effectively
equivalent
falling
fia
flag
freedom
gall
genre
georgia
incorporated
internal
jean
lennon
looked
moral
owen
pool
register
remnants
require
resources
rod
roof
settled
specimen
sw
traveled
videos
##bic
##gas
##gy
##he
##lder
##mb
##mura
##port
##ray
##tell
##tle
##urs
1977
63
99
adjacent
afterwards
attacking
bath
blacks
cambridge
cole
correct
craft
desert
dom
driving
duties
express
funds
graph
imagine
kin
manga
measures
meets
mention
montana
obtained
phil
pick
pitcher
pleasure
publishing
puppet
rated
recalled
recovered
restoration
richardson
ruler
sas
seemed
shots
somewhat
speak
sul
supposed
tam
trials
verse
ye
##cho
##int
113
1910
88
89
ages
artificial
aviation
bone
cancer
cop
covering
crisis
debate
destruction
earl
elizabeth
else
essential
fraser
gang
garcia
generals
germans
hear
holiday
household
jay
jesus
korean
linked
map
meetings
ministry
neo
normally
operating
painted
passengers
platform
preserved
priest
rebels
representing
sculpture
sit
solar
tales
tan
tank
toll
tone
township
tribute
una
winner
##ano
##bra
##har
##ial
##ino
##lla
##lor
##nan
##ola
##one
##pro
##tad
1920
1931
1935
69
absence
arabic
bore
cake
carrying
cave
chamber
circulation
crash
criminal
crosses
dad
dc
difficulties
disaster
equipped
expensive
goddess
grace
heaven
hosted
income
jose
legislation
lowest
panel
pink
princess
prison
pupils
researchers
roger
rough
sees
shoot
sisters
slide
stayed
steam
sum
throwing
trading
vessel
victims
×
−
##ala
##bro
##bs
##hen
##ians
##pr
123
1912
1932
amino
ash
bright
burning
canyon
chan
closer
composer
compounds
consider
context
defeating
defences
defended
demo
destroyer
drum
elsewhere
environment
exposure
favor
helmet
hen
institution
interaction
junior
lawrence
marlborough
nintendo
occasions
otherwise
parks
pri
programme
promote
pushed
reduce
tailed
trust
understand
understanding
voted
##eb
##ging
##hat
##ov
##qua
##rith
##rst
##tory
##tta
##water
##zu
160
1909
achieve
arrested
batsman
boom
bound
cambodia
cbs
chen
citing
comments
distinguished
dock
eleven
exception
false
forming
gates
hunting
impossible
intensified
involving
johnston
judge
learn
legend
mail
mayor
medal
mobile
monarch
narrative
objects
pat
patrick
periods
pic
poland
por
praise
punt
rag
raise
reconnaissance
retained
returns
stable
stevens
survivors
sword
unsuccessful
vessels
villages
voiced
walk
wimbledon
withdraw
##bar
##cus
##rak
1911
1921
1929
74
93
apparently
beautiful
belief
canterbury
committed
convection
convention
covers
criticised
dialogue
diet
directors
doesn
gross
grounds
hull
journalist
lang
mas
moments
monuments
notably
ns
observatory
overseas
parish
preferred
products
proposal
rama
representative
responsibility
rhodesia
rocks
saved
shakespeare
stanley
supporters
thousand
visitors
##app
##ass
##dar
##dh
##gu
##ini
##sm
##wick
##work
86
ao
audio
chronicle
clay
considers
contra
democratic
departure
dominican
extension
fallen
fate
followers
formal
formally
fra
garrison
heat
hockey
intense
kick
mall
mediterranean
mexican
mixture
needs
netherlands
page
phillies
posted
prop
qu
ready
ref
represents
resistance
reveals
selection
shipping
spoke
stationed
storms
tale
universal
usd
warning
##fles
##ii
##ost
##top
##tops
##tors
##ula
##ver
##ym
140
1938
73
82
actual
af
annually
behaviour
bert
boss
cart
cemetery
climate
creative
deck
depending
deployed
displays
doubt
engines
ensure
environmental
format
ina
informed
jan
laboratory
mental
modified
option
poorly
purposes
ranges
rap
recordings
refer
refers
sale
saves
sh
spiritual
submarine
suggesting
temples
tend
trouble
twin
vehicle
vin
##bi
##bri
##cera
##cs
##ef
##ex
##lic
##mir
##oko
##rem
##rl
##tase
##ters
##worth
##zo
15th
1940s
1959
1962
58
68
abd
add
advertising
anime
assist
atlanta
aware
bulls
cater
causes
choir
coin
coins
collaboration
colorado
communications
cotton
crest
demand
detail
driven
easy
extent
fair
federation
happened
housing
indo
influential
injuries
internet
israeli
lose
materials
micro
mint
models
moderate
municipal
musician
pace
plane
product
productions
proper
publisher
rates
readers
regard
republican
scholar
shark
shear
shop
simultaneously
situated
sung
superior
talking
throne
u2
useful
watching
waterfall
wings
withdrew
##boy
##hg
##illa
##ins
##nz
##q
##ran
##ser
##vis
##zhou
05
194
67
anthem
archbishop
bomb
charity
cinema
circumstances
clock
code
dawn
entitled
excavation
generated
grammy
historically
howe
influences
installed
kan
layer
lists
loose
maggie
mora
movements
networks
nhl
operate
opportunities
price
prove
rai
representatives
richmond
sequences
severely
stan
tape
thereafter
trek
victories
westward
wil
##ato
##elo
##end
##its
##med
##mer
##ob
##ular
##yd
101
1920s
ah
amongst
ana
animation
athletics
barker
benefit
biggest
breed
brick
burned
carved
cool
dangerous
dev
driver
emergency
establishing
everyone
founder
fund
id
instruments
interests
kat
mba
miller
nad
nick
norway
originated
pagan
palestine
partially
plateau
portugal
ron
shells
sis
spores
stem
substantial
survive
swedish
thinking
universe
whilst
wright
##ace
##ban
##cal
##ged
##izing
##mon
##ometric
##ster
accident
adventures
agents
allen
ammunition
amy
anyone
auto
baker
bearing
behavior
blues
citizens
compete
construct
continental
defend
delayed
downtown
factors
formerly
gary
gilbert
haitian
hawaiian
hudson
hurricanes
instance
jr
kannada
lay
looks
mal
massachusetts
nurse
objective
ok
patty
phoenix
predators
premiered
proto
radiation
relations
resigned
restored
rising
sid
spend
stewart
struggle
suicide
techniques
twins
veronica
victorian
wasn
wilson
writings
##6th
##ability
##cles
##dan
##gos
##ig
##oni
##piece
##pre
##rac
##rc
##tha
##yan
08
1927
1928
900
91
affairs
ambassador
application
armored
audiences
bear
blu
catch
corporation
costs
describe
differences
dig
eaton
experiences
forcing
gal
garden
globe
greg
herald
herd
intention
interesting
kam
kara
marquez
martial
measured
metallic
minimum
mozambique
om
pure
recognised
reinforcements
resolution
sacred
scheme
scientists
sin
sole
steep
stu
terrorist
tha
tide
upset
valuable
vary
##ag
##can
##ert
##hma
##lis
##oli
##py
##tal
##tropical
##ug
##vert
##wai
02
09
1900
amp
archaeologist
aside
badly
bal
barry
bones
caesar
cars
caves
cecil
characterized
cleared
clearly
column
commons
convinced
crops
depicts
designs
det
documents
dual
engage
eric
ethnic
feathers
fifteen
fig
forty
grown
huge
illustrated
jobs
kevin
lit
loyal
orchestra
pc
plate
plus
premiere
pun
ranging
remarked
residence
retreat
revolutionary
rhythm
russia
saturday
scully
signal
simpson
skills
starred
streak
striking
sufficient
tactics
tel
toronto
trained
virgin
wet
wives
##af
##bble
##berg
##del
##game
##gon
##hae
##hra
##ile
##rro
##the
##tus
03
155
1933
92
address
architecture
arriving
artistic
aspect
bands
boundary
boxing
cargo
childhood
claiming
communication
compound
conduct
cruise
cubs
decides
defending
designer
determine
discover
duty
elections
fee
fifa
frequent
gan
giants
graphics
hamlet
herb
impressed
infrastructure
kansas
kong
loud
magnitude
maya
offices
oscar
owners
partner
peach
personality
presentation
promised
protestant
quarterback
ranking
recovery
regiments
revival
ride
serial
shut
soft
styles
tanks
temporary
texts
tre
vote
voyage
wasp
wear
willing
##agi
##ata
##cor
##ep
##ern
##ev
##ich
##iri
##lip
##nis
##nts
##oa
##oy
##rin
##rth
##tsu
##ub
##vr
1957
approval
arrive
attained
attend
bible
bulk
bus
cavalry
centers
charged
closest
coleman
considering
constant
decay
deemed
degrees
detroit
difference
displayed
distinctive
doo
drums
elaborate
excavations
fill
gill
harbour
inhabitants
lia
liberal
machines
nave
newspapers
opponent
ot
perspective
philosophy
poll
predecessor
prompted
properties
qi
residential
restricted
roots
ruling
seas
smoke
spaces
ss
steps
strategy
strengthened
tip
ton
tourist
turks
warren
##ania
##hes
##lar
##lin
##mana
##ped
##sha
21st
ale
amounts
angelo
ara
banned
brand
brazil
brooks
bun
carmel
celebrated
davis
defenders
deity
diamond
dominant
emmy
erected
exclusively
exists
explains
factory
favour
furthermore
handled
honour
hp
impression
injured
inscription
jon
kim
kirk
kurt
leslie
leukemia
magnetic
malley
mathews
mechanical
metro
mon
mrs
mud
northward
occupation
ordering
outbreak
preparation
repeated
resumed
scattered
send
shin
tenth
theatrical
variation
viet
vulcan
waiting
“
##all
##aw
##des
##fe
##hs
##ld
##lli
##nge
##ok
##ote
##pit
##pur
##thi
##tom
##uo
1905
78
abby
adaptation
argues
bel
boot
celtic
cho
chronicles
circle
clark
corner
cot
cp
crystal
delivery
demonstrated
disappeared
drug
emi
enters
executed
exposed
fifty
gay
gust
harsh
heroes
highways
houston
ideal
investigation
landings
lies
magazines
metre
nielsen
nl
passion
peaking
penn
prevented
pry
raaf
retirement
roberts
schedule
seek
select
settlements
smooth
sting
substitute
talent
testing
tooth
touch
tournaments
tracy
turrets
ut
violent
wagner
ward
wr
zinc
##gal
##hol
##ici
##ill
##imi
##imo
##ira
##lit
##mun
##nen
##nger
##omp
##own
##ris
##rma
##rus
##sta
##tu
##vin
##yre
##zed
##zh
1000
117
1924
1926
acre
afternoon
anne
arch
architectural
armament
assassination
assisted
basement
biological
buy
cash
chain
chase
chevalier
comics
credits
crews
demands
discuss
duo
edges
elephant
evans
feels
fundamental
genetic
gets
guilty
il
indicating
initiated
jackets
jews
jonathan
kelly
kw
lan
liked
lyrical
mature
mini
ol
patrol
persian
pounds
referring
runway
sac
sixteen
spur
stores
structural
subjects
sugar
sunk
suspended
tor
trick
trio
umpire
valve
withdrawal
yankees
##ada
##ast
##cake
##eus
##fra
##ida
##ification
##ified
##ising
##kes
##lam
##lea
##mit
##ram
##tam
##tive
01
1925
84
abc
acute
agree
altered
anglo
asian
bats
berlin
bern
blow
brain
certainly
circuit
colleagues
commandos
components
concern
conclusion
conservative
crab
dakota
dams
dave
definition
dense
drove
eliminated
employees
fat
geoff
graves
hang
harold
herzegovina
hostile
inscriptions
keys
lac
les
loan
measurements
melody
nebraska
northeastern
organisation
origins
parade
philip
pretty
print
profit
putting
reader
realized
rebuilt
receives
reducing
relation
requested
romanian
sad
seeking
seem
shrine
skull
southeastern
stale
stood
string
strip
stump
subspecies
swiss
tax
territorial
toured
translation
vast
venues
warrior
weapon
##ach
##art
##bha
##cend
##col
##ibar
##ix
##mes
##oso
##ox
##rites
##sk
##tis
##wn
1890
1934
aggressive
alfred
argentine
asks
bases
benjamin
birthday
chicks
collapsed
conversation
cougars
devotion
doctor
earning
eli
epic
favorable
fishing
fled
freak
gale
helium
ion
keeping
lad
logic
madison
mere
mg
molecules
omar
operational
organised
ox
pain
paramount
parody
patron
peck
pictures
potentially
pounder
pp
propaganda
publications
releases
removal
remove
respective
reveal
riding
sentences
shoulder
spacecraft
tag
tennessee
underneath
updated
vertical
walking
weir
wo
##ides
##ify
##kko
##lf
##lock
##ned
##nl
##nu
##och
##off
##oma
##pot
##sin
##sund
##umi
##uro
##yi
##yt
125
14th
180
1908
abbey
acids
asking
ballad
battles
believing
borough
boundaries
bronze
columns
comparison
completing
contribution
doctrine
documented
dod
eve
expression
factor
feeding
flower
gap
gardner
gift
halo
hawaii
kills
lanes
lumber
madrid
maha
mariana
mk
murray
offs
ontario
peoples
phrase
platinum
profile
prom
questions
rhyme
rick
rid
runners
salt
sample
satellite
scrap
sculptures
sen
shorter
sm
suit
suitable
translated
usage
visiting
voices
vol
weekend
wider
wrapped
youngest
##ded
##ede
##eer
##fort
##lat
##lm
##mont
##nation
##non
##ome
##play
##pp
##rg
##saurus
##side
##sing
##sit
##ste
##ux
##ved
114
161
advancing
albert
artwork
autumn
battleships
bears
belgian
belgium
bowler
brilliant
campbell
carpenter
census
christopher
closure
competitive
controller
easter
encountered
ernest
explain
failing
finale
gil
goat
hal
harbor
ian
inclusion
industries
isle
jason
joining
leigh
louisiana
mainland
mara
millennium
mines
molecular
negotiations
noble
objectives
operates
oregon
panzer
parliamentary
personally
powered
prepare
produces
programming
provincial
reflected
representation
revised
rhys
rounds
rows
sanskrit
segment
signs
sings
spending
starring
submitted
suddenly
sure
surgery
telugu
temporarily
topped
traded
trophy
ultimate
walker
wildlife
wish
##ati
##bat
##chi
##cre
##das
##dern
##hai
##hal
##if
##ming
##ologist
##rine
##rk
##rre
##sb
##tel
##yu
105
360
83
abilities
administrative
advice
approaches
armies
assembled
batteries
beats
beauty
briggs
cabinet
casting
charted
choose
christine
collapse
consequently
cook
corpus
couldn
credit
cullen
daughters
demolished
discussion
dispute
dynamic
enemies
est
exact
facility
flash
fran
friendly
fusion
gene
gravity
harrison
hay
hidden
illegal
islamic
isotope
jacob
jet
lakes
lesser
lifetime
likewise
lin
marry
mars
memories
meters
metropolitan
neutral
pagoda
percentage
prix
pulled
restore
rotation
sailed
sec
senator
shares
sheffield
singapore
snake
stern
survival
synagogue
threw
toni
toy
typhoon
underwent
universities
unnamed
upgraded
veracruz
volumes
”
##ade
##cea
##ction
##cula
##dic
##ena
##eri
##ero
##ions
##ipe
##ivity
##jan
##linger
##lle
##nes
##nie
##oid
##olo
##ori
##oth
##ress
##ston
##uba
##yne
350
accompanying
achievement
agriculture
airlines
appointment
architect
beating
beings
bennett
burial
canning
carries
cass
charlotte
classification
clinton
columbus
commands
commenting
connecting
consent
controls
dahl
decisions
demon
developers
drivers
dudley
eventual
fatal
fitted
flesh
gospel
grave
hampshire
hence
honorary
idol
jaw
keith
korea
lie
mainstream
manual
neil
nh
offering
ongoing
oz
permission
phone
pilots
presidential
ps
queensland
racing
rank
reforms
reviewed
sharp
shift
shu
sioux
soldier
span
speaker
strategic
struggled
sweden
taste
telling
themed
tony
trap
unlikely
uprising
usher
wei
wishes
yu
₹
##iche
##ire
##nh
##oca
##ock
##oh
##ology
##our
##rian
##tian
##tte
##witz
##yr
115
1907
1922
aerial
allies
animated
backed
characteristic
christians
conflicts
conform
contest
cooperation
danger
depicting
deputy
divorce
dub
duration
earn
eat
elevation
experimental
expert
ferry
flies
gardens
genera
grandfather
hatch
helping
icon
idaho
investment
junction
kate
knights
lights
limit
manor
mast
mccartney
measuring
merely
mitchell
nazi
obtain
orange
pairs
policies
pot
pregnancy
preparing
prisoners
punishment
reduction
rushing
shirt
sk
sony
sporting
spots
stellar
strange
stream
switzerland
teachers
temperatures
terrain
tight
timber
traveling
travelled
trunk
uncle
vii
wanderers
westminster
##ance
##av
##bal
##bei
##bl
##cted
##fide
##hem
##ima
##let
##llo
##pati
##rino
##roy
##sau
##sberg
##tat
##tine
##ult
##ʻi
116
118
1902
230
accurate
adelaide
aimed
alternate
arkansas
balance
balls
beliefs
cancelled
chair
closing
commanders
copy
crusaders
decorated
dies
dinosaur
donated
dover
dubbed
embarked
encounter
exactly
execution
farmers
farming
feed
fernandez
francis
gaelic
handed
heavier
hunt
hydro
hydrogen
indicates
leonard
maintaining
margin
mask
matters
mob
offshore
onwards
pages
partnership
patterns
pest
positively
pyramid
raising
raja
ranks
reactions
rebellion
recurring
revenue
rib
roadway
searching
seattle
sep
sitting
statistics
strongest
sydney
tak
tenure
tigers
transcription
trapped
unclear
values
vis
wells
##ama
##bba
##cen
##dia
##ene
##gno
##hic
##iga
##ith
##kim
##lai
##oll
##pet
##ssa
##sse
##stic
##ulation
##wall
106
127
1861
1895
aero
aerodrome
aim
airports
amid
appropriate
archaeologists
arena
ashore
attitude
bald
battleship
bowling
broadway
canon
christi
civilians
clothes
compositions
concentrated
consistent
conversion
cousin
cutting
dal
dependent
detected
distant
downstream
draws
ea
earnest
engagement
fewer
fires
fourteen
gaining
goods
harry
hoover
horror
increases
inning
interstate
jeremy
lacking
manuscripts
marsh
membrane
milk
movies
nice
numbered
observation
ono
oxygen
photographs
pitching
poets
ports
presbyterian
preston
printed
pursuit
reaches
roller
sank
savage
seats
serbs
seriously
significance
singers
solely
sri
stronger
stuart
succession
successive
surprise
telegraph
tokyo
tours
trails
transition
transmission
trend
vegetation
vertex
volunteers
wan
watson
waves
wealthy
wellington
wickets
witchcraft
wore
##ain
##amp
##ax
##bed
##cc
##che
##cht
##cks
##cut
##hair
##hill
##ible
##ical
##ities
##leg
##mel
##most
##my
##nik
##nk
##ook
##oot
##pu
##rr
##rup
##sis
##yme
04
1889
240
abuse
acoustic
acted
alive
angle
anna
arabs
arrangements
beau
bombardment
burr
capturing
carl
coma
commerce
compilation
concession
confession
continuous
cruisers
cyrus
dd
deer
dil
elder
everton
evident
evolved
extinct
forever
functions
gender
grain
habitats
hospitals
hub
hungarian
identify
interpreted
jury
kyle
linear
loved
m3
machinery
madonna
mona
monkey
monster
morgan
mortar
mothers
myself
mystery
nasa
obvious
occasion
occurring
opinions
oral
ownership
pam
parrot
participate
permitted
physics
pirates
platt
pregnant
presents
preserve
probe
proportion
protesters
pull
puzzles
qualified
quit
rains
rays
reinforced
relegated
revived
rothschild
rubber
sci
solution
sovereign
stakes
starter
targets
thirteen
tissue
twentieth
ud
virtually
votes
wait
waste
whatever
withdrawn
##back
##dom
##ees
##ema
##etic
##gn
##ios
##kam
##mal
##more
##ography
##ona
##par
##rea
##sl
##sol
##tern
##ule
##wald
1849
1903
1923
22nd
abroad
alliance
allmusic
announcement
ask
authorized
barrier
bills
blocked
breaks
cambodian
candidates
coaching
conventional
crush
cruz
custom
declaration
delaware
departed
depiction
dim
displaced
dreams
ds
europa
exclusive
exhibition
exploration
extend
files
flooded
flowers
funeral
gia
governments
grammar
helps
housed
hugh
humor
hunter
immigration
indigenous
infection
intellectual
ioc
irregular
kickoff
kilometers
leeds
leon
mack
margaret
mlb
nominations
oak
operas
perceived
photo
pistol
pm
promotional
questioned
radar
radical
raw
reg
registered
renewed
repair
requires
resemble
restrictions
rom
romania
salmon
scorer
seized
sending
sheep
sized
speculation
sultan
swamp
tai
tasked
touchdowns
touring
understood
varied
vicinity
victim
volunteer
wwf
xiii
zero
##anga
##bil
##bird
##brush
##dd
##ete
##ew
##gar
##gil
##ids
##ila
##lence
##lus
##met
##nad
##nna
##owa
##sco
##sy
##tem
##tions
##uve
1897
absolute
absorbed
acclaim
armoured
asteroid
bombing
bree
cameo
cards
cas
chronic
clothing
collect
component
confusion
defender
delay
dinosaurs
distances
disturbance
drinking
eastward
electro
electron
escort
essay
examination
extending
faster
fastest
flew
funny
gaming
graphic
hans
hari
hong
illness
interact
kris
maintenance
manuel
mate
mil
militia
miners
minimal
ministers
ncaa
opposing
parachute
parting
posts
pushing
puzzle
ras
reflecting
ren
reportedly
rescued
rivals
sb
shallow
skinner
strap
tickets
trains
tristan
trondheim
trough
undertaken
vegas
vital
web
worn
wrestling
yd
##arte
##bin
##bis
##ders
##eg
##feld
##gate
##hin
##ient
##ili
##lad
##nall
##nti
##odon
##oss
##phi
##pic
##por
##ship
##tum
##ulate
151
1906
220
aboard
accommodate
alleged
arguing
atop
az
barbarian
barracks
battlefield
beam
beaten
beds
behalf
birmingham
bread
brethren
bruce
cleveland
complimented
comprised
concepts
conjunction
conquest
crop
curved
dancing
dem
dennis
derby
device
diplomatic
districts
drainage
electrical
ensemble
escaped
essentially
explore
extensively
flock
font
fortune
fred
gel
glider
gregory
hairs
hannah
heading
hitting
hughes
humphrey
indigo
intelligent
interactions
kennedy
legislature
lincoln
load
locally
lucas
mach
marge
marketing
marking
matthew
minority
mold
nan
neutron
norwegian
ohio
parent
pas
persons
peters
praising
priests
reform
relatives
replied
requirements
rice
rum
sciences
sf
sim
slave
slayer
sleep
software
statements
sudden
taxi
tempo
ter
tubes
usual
zagreb
##book
##ette
##fast
##gna
##ht
##ik
##mate
##nse
##nsis
##oys
##pers
##rit
##rri
##uf
##yde
102
111
163
1860
1878
1901
261
advised
alfa
allocated
apply
approaching
argument
backing
beak
borders
cam
caps
centimetres
chapters
chin
christianity
coalition
coaster
cod
coffee
colon
commenced
commissioner
consistently
courses
coverage
deals
disco
download
doyle
duet
dwarf
edited
egg
egyptians
exhausted
expressway
fits
gorilla
guides
hearing
hobbs
households
innocent
intra
iowa
isles
justin
kids
lacked
leo
listen
loop
manufacturing
marie
mills
min
myth
naked
og
painter
partners
placing
plains
politicians
predicted
quoted
rape
reagan
recreation
recreational
reflect
repairs
rockefeller
saving
sexuality
shadow
sic
slopes
sponsored
steadily
tactical
teach
tennis
tested
tier
tombs
tools
tracked
transported
une
unrest
users
uss
venue
worse
wyoming
##00
##ably
##bor
##ches
##cko
##ctive
##dalen
##ek
##ened
##gur
##hon
##hur
##ien
##isi
##issa
##ivo
##like
##min
##nka
##ole
##onia
##tti
##ull
##ving
##wer
##ws
131
1819
1857
1880
advertisements
alex
ang
anton
archer
arizona
austrian
belle
bet
bold
bon
businesses
cable
calculated
cardinal
carriage
celebrate
challenging
check
cobra
collections
concentration
concerning
condemned
connections
constantly
consumption
copper
deco
density
directing
dressed
dropping
dump
dying
eating
emotions
enormous
experts
export
familiar
fed
flagship
forth
foul
fragments
funded
graduate
grasses
happen
highlight
hoping
ic
ignored
improvement
inaugural
insects
item
judo
karl
kenneth
knocked
kun
labyrinth
lam
lev
liner
log
magical
marc
metric
ml
nam
navarro
neolithic
nights
palestinian
poetic
portions
proceeded
pt
push
realistic
resident
respond
retrieved
russell
ruth
screens
ser
similarities
slip
sox
spell
squadrons
stability
statue
storylines
stretched
studying
subtropical
symptoms
synth
talks
todd
tong
travels
troubles
tunnels
uefa
unless
variations
venture
visits
warned
wicket
yorkshire
##ale
##ali
##atin
##cat
##cation
##ching
##ered
##fish
##flow
##ice
##ico
##ines
##ites
##mm
##mu
##ond
##sed
##sie
##than
##uk
##uke
##und
##van
##wny
##wo
##zam
##zen
108
alphabet
angles
angry
antonio
athlete
atp
austro
baptist
beer
belonging
bernard
besides
blockade
borrowed
boyfriend
button
cai
caliber
canals
catholics
centered
colours
commanding
comment
complement
cooper
covenant
decide
dedication
destroying
devoted
donald
dozen
educational
eng
excess
exercise
explaining
exterior
finest
flows
franklin
gathered
glee
graham
hebrew
humanitarian
hunters
hyper
imagery
improvements
incomplete
inhabit
intersects
investigations
iraq
johnny
kid
knight
landscape
lau
lion
loch
lying
manage
mccarthy
memorable
migration
mum
mvp
mythology
narrator
navigation
nevada
noise
nos
occasional
oxide
pad
participants
permanently
portrayal
progressed
promise
que
ratio
reinforce
relay
relegation
replacing
reporter
retail
retain
romance
ronald
salary
scholarship
seemingly
shaft
shaw
shipments
sinai
singh
spotted
spy
stereo
stew
substance
surge
surrendered
sv
synonym
tasks
teammate
thai
tommy
tributaries
triumph
turkey
urged
utah
vertices
vet
vs
wanting
yang
youtube
µ
##ami
##ates
##board
##bot
##ere
##feng
##gam
##gue
##has
##itz
##kra
##lim
##lp
##nch
##olin
##ota
##ots
##pass
##point
##quet
##rdi
##real
##rial
##rie
##row
##rte
##ses
##sfield
##unt
##via
##ype
##zing
129
135
154
acceptable
advisor
aggregate
annals
arrest
astronomers
atletico
atomic
attendance
attract
avoided
axis
bergen
beta
billy
bis
bishops
brenda
bristol
cattle
ceased
circular
coat
colors
complicated
computers
cretaceous
dealing
decommissioned
deliver
destination
diaz
document
eighteen
enjoy
estimates
evacuated
everyday
evolution
expand
explosive
floods
fungi
gains
garnered
gathering
gladstone
grows
heir
helicopter
hollow
holocaust
hut
immigrants
internationally
involves
jimmy
journalists
lancaster
larry
lawyer
leicester
lifestyle
limestone
limits
links
liquid
maurice
merchant
mild
montreal
mysterious
naming
observers
offerings
opined
ordinary
passages
patriarch
perfectly
planes
planets
polar
powder
precipitation
predominantly
printing
prohibited
publicly
quad
queens
quest
rectangular
remarkable
rendition
repeatedly
rituals
robinson
sacked
sailors
scout
screened
sean
senate
sensitive
siblings
sick
silk
sixty
sketch
skill
sufficiently
supernatural
surprised
telephone
threats
tonnes
tourism
traditions
travelling
truly
turnpike
tutor
ulster
vale
variable
verses
warfare
weakening
witness
witnesses
woodland
woods
yugoslavia
##bert
##cer
##cia
##dt
##ele
##eth
##ez
##fen
##ffi
##ibe
##ided
##ifying
##ington
##itaire
##lei
##lia
##lide
##list
##lk
##nas
##of
##oin
##oke
##opa
##over
##pin
##ple
##rai
##rio
##spar
##star
##uen
##uld
##uous
##ust
##ute
##vas
##vers
##zai
1856
adopt
advances
affair
affect
aided
airborne
alter
angel
arcade
articles
auburn
awareness
boo
bypass
camel
campaigns
cats
challenges
collaborated
commercially
comprehensive
confidence
console
crowds
crusade
cuts
cyclones
darwin
deliberately
demanded
deployment
descent
devin
dick
disbanded
dust
dwight
ear
eleventh
elgin
employment
extends
flotilla
focusing
foster
friendship
frontier
gig
governed
guitarist
halted
het
highlighted
imposed
inducted
instrumentation
intermediate
isn
julian
kicked
klein
learns
leather
legends
liberty
liz
mansion
mentions
monk
mosque
napoleon
naturally
nephew
opens
options
organic
overcome
participation
pete
pioneer
poles
populated
preceding
processing
publishers
quinn
raymond
realised
reformed
releasing
relieved
reservoirs
restaurants
reverse
rig
rushed
scots
screenplay
seal
secular
semifinals
songwriter
stanza
strengthen
superman
tal
therapy
tracking
trinity
tube
ui
uncertain
user
varies
walks
welcome
wig
wikipedia
wisconsin
xbox
æ
##are
##aria
##bel
##belt
##ben
##berry
##boro
##ept
##far
##fin
##gia
##hara
##hood
##idae
##ings
##iza
##name
##ologists
##ont
##ridge
##rist
##sto
##ture
##uge
##uta
##vet
##vor
##weight
109
1200
126
175
1848
1850
1851
1854
2000s
737
abundance
ami
answer
apartment
assyrian
astronomical
attending
austria
bang
bend
biblical
blame
bombs
brazilian
brood
cadets
cakes
cheese
commentators
comprising
conceived
connects
constitutional
convict
damages
dealt
declaring
directions
dish
disrupt
diverse
doc
drawings
drugs
drummer
elite
employ
estimate
examined
extant
facade
faulkner
founding
foxes
gao
gather
guidance
guinea
guinness
handle
hara
harmon
hey
hook
ia
impressive
intact
invaded
invitation
io
isbn
jumping
lab
lame
licence
lloyd
lone
mirror
nicholas
nickname
nonetheless
paying
perception
pig
playable
portable
positioned
pound
pressed
proposals
puerto
qualifying
rapids
rebel
recognize
recover
responses
rim
root
seed
shifted
speculated
staying
sullivan
survivor
switch
sync
tata
telescope
tourists
uniform
vargas
velocity
viaduct
villain
violation
vishnu
vista
wallace
widow
zones
zu
…
##bach
##bridge
##ceae
##cent
##chu
##coming
##dou
##ear
##ect
##feit
##fest
##guard
##hand
##imeter
##iness
##iss
##lent
##light
##master
##ova
##pack
##pop
##rne
##sch
##sil
##ska
##tina
##uan
##ught
##umb
##uter
##wan
##wl
##ye
##yra
103
152
156
1832
1865
1880s
1891
1894
1904
abundant
acceptance
accomplished
alignment
amazing
anger
archipelago
arose
associate
barons
barr
batting
beside
bonus
brings
bunker
cameras
caste
celebration
centres
chest
clan
clocks
coaches
coastline
commentary
commodore
competed
consequence
corresponding
costumes
das
davies
debt
decrease
denmark
discussing
dissent
editions
elevated
eliminate
enabled
encounters
exhibit
exhibited
experiment
external
fears
feud
finance
forecast
frequency
fringe
genres
graduated
guards
hampered
handling
hemisphere
hosts
humanity
hurt
indie
indoor
inhabited
insisted
intervention
interviewed
involve
jun
katherine
kicking
killer
lancashire
lasting
leagues
lowland
marched
markets
marshal
mart
mclaren
messages
meta
meteorological
millions
mounts
mutual
nelson
nose
notice
nursery
observer
occupy
orlando
orleans
overlap
pakistan
parker
passenger
paths
phi
platforms
plumage
pointing
pose
principle
prophet
prose
provisions
racial
radius
rafael
reactor
remake
reserves
retaliation
revenge
reviewing
rob
ruins
saints
seasonal
seventeen
silent
spelling
symbolic
synthesis
teachings
terry
thoughts
torpedoes
tough
transformed
undergo
uneven
uno
vest
vicar
vocalist
wake
wished
zombie
##ans
##ator
##bly
##dal
##dr
##ece
##eki
##eni
##esh
##face
##gated
##gor
##grade
##graphy
##gus
##hmi
##hurst
##hwa
##iste
##iv
##ogist
##org
##oro
##ort
##pel
##rah
##rate
##rel
##rya
##tron
##tyle
##type
##ual
##uck
##ugh
##urg
##war
153
170
1881
1898
abandon
acknowledged
addressed
administered
advocated
affecting
agrees
antagonist
appeals
appoint
arguments
arrives
asserted
blamed
bombers
boulevard
breeds
broadcasting
bruins
buddhist
cage
cannon
categories
chances
chord
clad
companion
comparing
confrontation
confused
congregation
consist
cooking
correspondence
counterattack
decoration
deeply
demonstration
desired
developer
discovers
disorder
dispatched
dragon
dressing
elementary
emphasized
enlisted
entirety
eps
excellent
exciting
fairly
fault
favourite
feared
filed
fitting
focuses
fossil
framework
frigates
gamer
genes
geo
gibson
gothic
governing
grande
harris
holes
identical
imagination
interviews
iso
janet
knee
knows
lacks
layers
legacy
levi
lightning
maps
mat
meat
meter
michel
montgomery
moth
nat
newport
organisations
outfit
oval
overs
overwhelmed
owing
persisted
photos
pie
pitt
progression
prompting
proof
recruited
rei
replay
reversed
rhode
ric
rna
robin
rookie
rounded
sanctuary
sara
scratch
segments
sexually
shall
slaves
slight
statues
storage
submarines
suburb
summit
symbols
targeted
ted
thesis
thompson
throat
thrown
ties
tres
troop
truck
victor
vulnerable
warriors
##aa
##act
##apa
##cated
##chel
##cin
##ening
##gie
##gt
##hil
##his
##idi
##iya
##jin
##lica
##mina
##nne
##ogen
##omi
##pon
##rf
##rz
##sar
##sd
##shing
##udi
##ulating
##yana
##zar
107
1830
1862
1870
1882
27th
abbot
affection
applications
audition
ave
bach
barely
baron
belonged
binding
bonds
bride
canons
carlos
carrier
challenged
coined
comet
conception
connect
contracts
cooke
cooks
cove
crimson
critique
crucial
darkness
debated
debris
decisive
deposits
developments
devil
dining
dirt
disabled
downloadable
drought
dug
dunn
enzymes
error
expanding
expeditions
explored
fails
farms
fatalities
ferdinand
ferrari
fighter
fights
flair
flown
forbidden
ford
forget
fortress
fragment
frigate
functional
geological
golf
guthrie
hale
harm
hears
hole
hotels
hua
hug
iaaf
implemented
inform
ingram
instrumental
introduces
itv
joan
joshua
judith
labeled
leinster
lessons
lions
listeners
listing
massacre
mei
mets
mining
mixing
monthly
mood
nearest
nicknamed
nineteenth
nova
nuclei
obstacles
paint
papal
patch
patrols
persona
phenomenon
portraits
prefecture
proximity
quiet
refuses
reminiscent
remote
rendered
repertoire
reservoir
resort
riff
rumors
samples
scope
scripts
sight
situations
smart
snap
solve
soviets
specialized
spoken
staged
stopping
stretch
striker
subjected
subordinate
suggestion
tang
tapes
technologies
theo
tiny
tool
totally
traditionally
turbines
unstable
unusually
update
veteran
wealth
witnessed
xu
##als
##ars
##azi
##bour
##cos
##dam
##dict
##eh
##eld
##ence
##eti
##ges
##gina
##graph
##gre
##hos
##iff
##ih
##isa
##kir
##nder
##nium
##nova
##ois
##pton
##rol
##rous
##sal
##sson
##sw
##tones
##truct
##ulated
##var
##zan
##ł
133
1859
1874
1896
1899
52nd
adrian
aria
attractive
averaged
barbara
berg
bobby
boca
borg
boulder
breakdown
brigadier
browns
carnival
cc
celebrity
chemistry
civilization
clair
claws
clearing
clusters
competing
confluence
considerably
cow
crowns
crusader
cuba
curtis
curve
deciding
delays
descriptions
discussions
diseases
dispersed
distinguish
donations
doors
drafted
dull
duran
ellis
exeter
exile
feast
fighters
flame
franco
frontal
gb
guided
hate
helicopters
hers
hopes
improving
indies
intent
interpretation
jamie
jenkins
jerry
joins
josh
junta
kahn
keen
kinds
landmark
latest
legion
liam
liberation
lithuania
lithuanian
litter
livestock
loft
mani
manufactured
marble
marilyn
minerals
mist
monica
mt
multiplayer
murphy
museums
nationalist
northumberland
patients
persuaded
possessed
preventing
prosecution
provinces
ralph
reflects
relied
retreated
rico
roundabout
saigon
saxon
scores
seated
sect
securing
separately
separation
serb
seventeenth
sham
shan
shelter
shock
soap
sometime
spectrum
streams
strengthening
strikeouts
suez
suffer
suspected
tension
terrible
thailand
thanks
tides
torre
trademark
treat
tune
unesco
unity
valid
venom
viewpoint
viola
worker
##ages
##away
##bas
##cap
##cit
##ego
##ella
##erly
##eto
##fare
##gg
##hea
##iel
##iva
##izes
##king
##kur
##log
##mates
##nies
##oo
##oto
##rim
##rite
##rone
##rran
##sso
##stor
##uation
##ui
##ulo
##use
##vira
##writer
##wski
##ə
104
119
137
157
167
1877
1890s
1892
25th
2d
355
42nd
abe
accomplish
achievements
aden
afterward
agencies
ambition
amphibious
andre
armour
attributes
bai
barnes
beaver
bent
bloody
branches
breast
canceled
carroll
cedar
channels
characterised
chip
clergy
clouds
colored
commando
commitment
communists
compromise
concentrations
continent
contributions
convey
costume
coupled
crescent
cure
deadline
demanding
demographic
denomination
descendants
diocese
dip
doll
dolls
drink
durham
emma
enlarged
evacuation
faculty
felicia
frustrated
genuine
glen
governors
guild
habit
hiatus
hui
incorporates
infected
ingrid
instrument
interrupted
intimate
investigate
isla
jai
julio
jumps
kiss
lal
legislative
lei
len
literally
loyalty
mali
mammals
managing
manning
manufacturer
maple
marvel
maternal
mating
mechanism
metals
metaphor
michaels
midway
modes
morris
mrna
ms
muhammad
nashville
nautical
nee
newfoundland
numbering
ou
palmer
panther
paralympic
partition
physically
pile
playoff
playoffs
principles
proceeds
prolific
puck
refuge
regardless
remnant
removing
reopened
resolved
robot
sai
sail
sarah
satire
savannah
scales
scar
scenario
sensation
sentiment
sighting
sitcom
skeleton
spear
sperm
stallion
steamboat
strict
substances
supplied
suspect
swept
symphony
syria
tab
tackle
tends
termed
thereby
throws
tiger
topological
traders
transmitted
treasure
tributary
trilogy
um
unsuccessfully
vic
victorious
wang
wanna
wheat
winners
witch
wonder
wound
zhang
ˈ
☉
##aged
##aj
##ations
##ave
##az
##bala
##burn
##cher
##dick
##enburg
##ering
##gli
##guchi
##had
##horn
##hus
##ick
##iers
##iso
##iti
##jal
##lik
##mine
##nto
##oder
##onis
##orn
##phy
##quil
##rid
##rle
##rman
##rut
##sby
##scu
##sman
##ties
##tland
##tov
##tter
##tv
##una
##urus
##vy
##wal
##wil
139
1836
1853
1858
1863
1885
1888
1893
750
accidentally
acclaimed
acquire
adapt
adds
advisory
aids
aires
ala
ambitious
assessed
bag
bark
beg
belong
bolton
brass
broncos
brook
brow
brunswick
buenos
bullet
ceiling
cellular
charting
clement
coloured
complained
composers
comprises
conducting
conquered
contacted
contracted
cooler
coordinated
creature
damaging
dea
delegates
depend
depends
deploy
desperate
disappointed
disliked
dome
dread
editing
editors
empty
ensuing
envelope
etc
exercised
explorer
extraordinary
facts
faithful
farther
fever
finger
finland
fis
floating
fortified
frames
funk
fuse
gauge
gp
guitars
hanging
highlights
homosexual
honors
honours
hood
horns
identifies
imprisoned
interception
investigated
italians
kitchen
lawsuit
leonardo
lifted
lighter
listening
logs
lou
maintains
mana
mann
medley
megan
melbourne
merged
moritz
mp
muslims
nasal
nash
neighborhoods
nests
nicholson
nme
observe
orbital
ordnance
orton
outcome
output
pali
poisoning
poverty
prayer
pressing
projected
prototype
pseudonym
quake
raids
ramp
randy
recalls
reed
reflection
regulation
relating
relevant
relocated
remixed
requiring
reserved
resignation
respected
riaa
rises
robyn
routing
sailing
shoes
sinclair
sink
ski
slope
sms
somebody
southwestern
spite
sporadic
stick
strain
stress
succeed
supplement
supports
swift
sympathetic
tactic
testament
theaters
thickness
thinks
thirds
threatening
torch
torn
toxic
trace
treason
trench
tribe
tucker
twelfth
vault
viewing
weaken
weighed
##0s
##ald
##ase
##ater
##ative
##bility
##bt
##dies
##dock
##enham
##fold
##gic
##gis
##hang
##hor
##low
##nine
##osity
##raj
##ration
##take
##tm
##ways
##wr
##wy
##zzi
##ʻ
134
164
1838
1840
1847
260
accordingly
actively
admits
afford
aftermath
albeit
alcohol
ally
anchor
anticipated
associations
austin
backs
barre
bells
belongs
beneath
bite
bluff
butt
captains
captivity
catholicism
chambers
champ
chancel
chapman
chasing
chopin
climax
cloth
collectively
collision
colonists
comb
compact
comparable
competitor
competitors
compiled
concludes
confessions
consequences
contrary
corridor
courage
demolition
devi
diego
dimensional
discipline
dissolution
dominion
dried
ease
easier
educated
elderly
eldest
elect
electricity
ely
embryo
enable
endangered
endemic
equally
errors
eugene
evacuate
excessive
expecting
expense
experiments
fail
fantastic
fierce
fir
fischer
fletcher
fluid
fold
folklore
forgotten
formations
fortifications
franz
funnel
graduating
grandson
graphs
grid
halt
hardy
helen
herbert
highland
holland
immortal
imprisonment
indians
indirect
indonesian
inflicted
innovative
instances
issuing
javelin
jennifer
joke
kala
kentucky
knowing
ladies
layout
lorenzo
manufacturers
mason
maturity
mercy
mistake
mort
neglected
newark
nico
nude
oath
observing
olive
olivia
ore
oriented
overwhelming
owe
pack
panels
paralympics
parking
participating
pd
peaceful
philippines
pianist
protagonists
quarters
regulations
remembered
remixes
reproduction
resolve
retro
robe
sage
sandy
sediment
settle
shoots
signature
sinking
societies
spawned
spelled
springs
statute
stolen
stuff
stunt
substantially
susquehanna
sussex
swimming
swing
tanya
tap
tara
tea
tensions
terror
thriller
traces
traits
tran
unaware
undertook
variant
vassal
visions
visitor
warrant
warships
weakness
wee
wembley
whenever
whites
width
wit
yellowstone
yoko
##30
##day
##dge
##eva
##fied
##fully
##hard
##heim
##hetic
##hri
##hum
##ibility
##ination
##kr
##lands
##lers
##lice
##loid
##mann
##nar
##net
##now
##ono
##ough
##ouk
##pher
##rad
##rain
##rca
##rest
##rna
##rta
##sma
##tas
##tish
##tos
##unda
##wee
##wing
##zy
##ل
169
1876
202
330
80s
abraham
accent
accessible
activated
adequate
adi
adriatic
aft
alam
alarm
alpha
altogether
americas
angered
assessment
autobiography
averaging
aw
bard
beth
bias
binary
bitter
blake
bran
braves
brutal
butterfly
cabin
cara
careers
catherine
cease
chaos
chemotherapy
cherry
claire
clinical
clip
collecting
collective
connor
consciousness
contemporaries
controlling
conviction
coordination
coronation
cream
crimes
decreased
definitely
delta
depot
detective
devices
dictator
discontinued
discusses
displacement
disturbed
domain
downs
dresses
eaten
economics
ensued
entertaining
everybody
expectations
explicitly
farmland
fathers
feldman
festivals
financially
fingers
fission
fog
fond
forge
fossils
friedrich
frost
gerald
gills
glasgow
greece
gut
hardcover
henri
honey
identification
illustrations
implement
individually
inscribed
intro
introduce
ix
jewel
judicial
juveniles
legitimate
lemon
lens
lift
ling
loaded
loves
lowered
lucky
luke
m2
mans
marcus
matrix
membership
merge
metacritic
microsoft
moody
mortimer
munich
municipality
murdered
nationally
nfl
nobody
novelist
occupies
oliver
opted
overlooking
owl
papers
pau
peggy
pharaoh
philosophical
photography
pierre
pittsburgh
pont
possess
possessions
practical
pradesh
precise
predator
predecessors
preservation
prisoner
prospect
psychological
pulp
puppets
random
readily
reassigned
regained
remember
repaired
rf
rodriguez
rubble
satisfied
sergeant
sheet
shelters
sip
slate
specially
spill
sprint
struggling
submit
superficial
survives
teaches
terminal
thames
topics
touching
trucks
turret
unlimited
villagers
viscount
warsaw
yugoslav
‘
##aca
##aka
##ash
##bain
##bh
##bia
##ched
##ean
##elle
##enia
##eter
##ets
##eur
##fall
##gat
##gle
##gul
##ics
##ifer
##ilis
##ken
##kers
##lling
##long
##mani
##nant
##nsor
##oga
##ope
##osi
##page
##pol
##rba
##rius
##rud
##storm
##tch
##try
##ude
##was
##wc
##world
##wyn
138
145
159
1850s
1852
1883
217
550
abolished
abs
absent
accumulated
adaptations
advent
advocate
afraid
aging
alberta
albion
anal
analyzed
anthology
aramaic
arise
assume
assured
attraction
authored
azores
basket
beaches
blackburn
blend
blind
bloom
boilers
breach
byron
calendar
candi
capcom
cardinals
carriages
choral
circulated
cleaning
collector
comedian
commit
complaints
concentrate
confederate
confident
connie
consensus
contested
contribute
convert
countryside
couples
cox
cultures
decent
dee
delicate
descended
diagnosed
disagreed
disciples
disputes
distinction
ditch
doctors
eddie
encourage
enduring
engaging
enhance
ensured
epithet
erik
escapes
exceeding
excited
excluded
expect
extinction
fairy
favored
feat
fork
gag
gaga
gandhi
horizon
horizontal
humorous
hurdles
hypothesis
import
imported
inferior
informal
interim
introducing
investors
jeffrey
judged
ked
lars
leaf
leaked
lebanon
liga
lighting
loading
lobster
majors
malaysia
manages
manufacture
manuscript
maori
mata
median
mercury
midnight
mock
mod
modest
monastery
moons
mound
mw
myths
nail
nap
naturalist
nec
nesting
northwestern
notices
notion
odor
operator
oro
orthodox
paved
pays
performs
perth
pipe
placement
plastic
plates
plaza
pleased
poe
prem
preparations
primitive
privately
proclaimed
prof
progressive
puts
ramon
ranger
react
referee
relieve
requirement
retiring
revolt
rivalry
sealed
seize
shield
shipped
shipyard
shorts
slavery
solutions
speakers
speaks
springfield
staple
steady
stokes
strategies
strictly
suited
supporter
susan
symmetrical
tad
tamil
temperate
theft
theories
thread
ticket
till
tobacco
tolerance
topic
treasury
trips
ultra
undergraduate
ups
versus
vintage
virtue
wise
yan
yeomanry
yield
zoe
zombies
##aea
##aga
##ail
##bank
##cam
##cz
##dale
##dot
##edes
##eras
##gers
##gio
##gm
##gram
##graphic
##hala
##hot
##igo
##isha
##itt
##lain
##llin
##mad
##nal
##nga
##nr
##pid
##ppa
##rama
##rand
##ritan
##rou
##sat
##tled
##tric
##uche
##uda
##ums
##usion
##uth
##uti
##vana
##vent
##vie
##vre
##win
##yk
##zes
##ła
1855
1860s
1866
1872
=
abnormal
absolutely
accomplishments
accusations
actresses
affects
airfield
airing
aisle
alert
amber
antiquities
anywhere
architects
arrows
atmospheric
atoms
avoiding
benz
bigger
brighton
brit
broadly
brownish
bulgaria
busy
calm
carefully
cement
ceremonial
chancellor
charitable
circles
cliff
coe
combine
commercials
communal
composite
constantinople
cope
corpse
crane
crowned
dancers
dare
darker
daylight
decreasing
delhi
demons
depict
deposit
determining
devon
devote
dial
diane
digging
disney
dive
diversity
dogs
dorsal
doubled
eligible
emerging
employee
esa
essays
essex
estates
estuary
explosion
faction
fascist
favoured
fees
finn
flags
floors
freely
fusiliers
ganga
gentleman
gin
glitter
governmental
gravitational
guilt
halfway
hank
harmony
harvest
hereford
hindi
hungary
huron
incidents
incumbent
index
induction
inherited
insurance
integrated
interactive
invented
investigating
invisible
jealous
keyboard
knife
laps
lateral
limitations
linking
lip
lovers
ltd
lunch
lust
marcel
marrow
mercedes
merger
mess
moist
monks
mushrooms
nancy
necessarily
neighbouring
newcastle
niche
niece
nina
norse
obsolete
oct
orchestral
overnight
pedal
petition
phases
phillips
physicist
pill
pirate
please
politically
populace
prices
princeton
proctor
prominence
prominently
protective
pseudo
publicity
publish
purple
realize
realizes
reasoning
recommend
refugees
relaxed
reliance
requests
resembles
resign
revealing
rings
riots
rip
roofs
rovers
ruined
saga
scenic
scrapped
screening
seam
secretly
senators
shame
shops
shrubs
slated
smackdown
sounding
spaced
spans
spike
sponsorship
squat
staples
stepped
steven
stiff
stockholm
stored
sue
surfaces
sweep
tackles
teenage
texture
tongue
tract
traverse
trivial
underlying
unfortunately
unpopular
upstream
varying
vent
verdict
viz
voyager
vu
warnings
wayne
websites
wire
witches
wonderful
woodward
wyatt
⁄
##air
##aries
##aris
##avi
##bre
##cco
##ctor
##dlow
##down
##dro
##egan
##ela
##eum
##flict
##front
##grad
##hiro
##ign
##inus
##iro
##iser
##ked
##lage
##lau
##lc
##lese
##lid
##merie
##mission
##mos
##mus
##nac
##nate
##nn
##orescence
##put
##rdo
##ried
##rnet
##run
##ske
##table
##tail
##time
##tl
##tur
##uma
##unes
##ural
##ush
##vac
##vara
##vu
##wich
##xt
##yat
##yna
124
1800
1833
1837
1842
243
30th
370
480
accelerated
accepting
achieving
acquisition
admiralty
airplay
aj
alike
allegations
ambulance
appealed
arabia
armstrong
astro
attackers
attain
augusta
bachelor
baja
batter
beast
bermuda
bind
bog
burden
caravan
castles
celebrations
ceremonies
cheap
chef
chestnut
cn
coincide
colin
colombia
complexes
consumed
continuously
contributing
courtyard
critically
declining
deeper
depictions
derives
designing
detached
determination
dictionary
dinner
discarded
disrupted
distortion
dockyard
drunk
dubious
edible
edit
efficient
eliot
erosion
escorted
everywhere
expeditionary
explanation
faint
fake
fc
felix
file
finch
fins
firmly
fitness
flanks
flora
folded
foraging
freestyle
frustration
gems
geography
govern
griffin
grossing
harvey
hd
heaviest
heights
hide
hiv
horsepower
hs
infant
instructions
insufficient
invention
itunes
jail
jewels
kaiser
kamal
kumar
laying
lease
legendary
lengthy
levine
liang
licensed
loosely
loses
luis
marketed
masses
mathematical
ming
minorities
mira
missionary
moderately
molecule
monitors
monte
morale
motifs
mountainous
mouse
narrowly
newer
nobel
novak
nut
orbits
oswald
outpost
parasites
patterson
pawn
peer
penis
performer
persistent
persuade
petit
pigment
plasma
politician
portland
precious
prefer
prehistoric
pride
progresses
promising
promoting
properly
proven
provisional
pursued
qin
quantities
raj
rankings
ravi
realism
reasonable
rebuilding
recognise
reds
refit
refusing
remarks
renowned
retire
reward
rhymes
robertson
rosa
rumours
sacrifice
sebastian
sectors
selective
seller
sentenced
sentimental
sewer
shirts
shrub
sizes
smoking
solved
specialist
spectators
stained
strings
strips
stroke
submerged
subtle
sud
suite
summers
supposedly
televised
tended
tertiary
theology
timing
townsville
tram
transformation
trauma
triangle
trigger
trim
tudor
utilized
vijay
wadi
waterway
wears
wednesday
winston
wisdom
wouldn
##aid
##aly
##ashi
##athi
##awa
##bad
##band
##bet
##bid
##bing
##bling
##cast
##cie
##color
##cope
##craft
##die
##dos
##ery
##firm
##for
##fy
##games
##gren
##hari
##igen
##ink
##inn
##itzer
##iz
##ject
##lusion
##nea
##nel
##nity
##nos
##nst
##nte
##ntial
##num
##oi
##oper
##oria
##osomal
##parts
##qa
##rner
##rry
##rwood
##shire
##sia
##tate
##tea
##tori
##tp
##tr
##uni
##uz
##vel
##walk
##wine
##xia
##yer
##zog
##æ
##α
149
158
1801
1821
1834
1870s
1886
190
24th
275
320
57th
650
accommodation
accompany
accounted
activists
addresses
adoption
aide
airfields
allegiance
alma
alonso
amanda
analyses
ancestry
angular
antilles
antiquity
appreciated
artefacts
auckland
availability
backwards
barn
bars
batch
belfast
benson
blown
bosnian
breeders
broadcasts
broom
brussels
businessman
carlisle
catalogue
certificate
cher
chile
churchill
churchyard
circus
cis
clade
classics
clearance
comfort
compares
complaint
conclusions
conde
consolidated
constituency
consultant
corners
crack
crashed
culminated
customers
dear
defeats
delegate
deter
devised
diagnosis
diana
diary
din
disappointing
dismiss
dismissal
disruption
distress
diver
dodge
doug
duchess
ecclesiastical
echoed
edinburgh
edmund
effectiveness
elevations
emily
enforce
enhanced
enjoyable
ensuring
episcopal
exercises
expressing
facilitated
feral
fitz
fixtures
fleets
flint
forested
founders
fraction
freed
freeze
gala
galaxy
gambia
gambling
genius
gentle
gerry
glory
granting
grants
guerrilla
guys
hai
hammer
handful
happens
hbo
heated
herds
hermann
hitter
hosting
hubbard
iconic
imprint
independently
instructed
instruction
intercourse
interpretations
jaguar
jointly
juvenile
knock
krishna
lamps
lance
lasts
lighthouse
locals
logical
logistical
magnet
maids
manhattan
marginal
maybe
meantime
medicine
mic
microscopic
midfielder
minds
minsk
mir
missile
mobility
monitor
monitoring
montagu
moor
mosaic
moss
motivated
motto
mounting
mumbai
nas
nay
necessity
negotiate
negotiated
nervous
newman
nguyen
normandy
noticed
notorious
observes
otter
otto
outdoor
outnumbered
ow
particles
patronage
pearl
percussion
periodically
pew
pike
podium
pond
portray
portraying
postseason
prairie
preceded
prevalent
priority
processes
profound
prohibition
proposes
proud
provoked
psycho
quan
rails
recipes
reformation
rent
resembling
retaining
richie
robust
rook
routine
rowland
rpg
ruin
salon
salvador
scandal
scandinavian
scientist
scouts
scribe
sends
shah
shipbuilding
shrines
sided
signals
sins
slash
slowed
slower
soccer
stake
stalk
stamp
stance
subsidiary
summoned
suppress
surveys
talented
targeting
tears
templar
theoretical
tomas
toro
totaled
toys
trailer
trustees
underwater
unofficial
vague
varieties
veil
virus
voting
wages
walked
warner
wartime
watches
weird
wines
worried
wounds
ا
##acle
##ahl
##alo
##asa
##backs
##bes
##boat
##br
##ced
##ception
##cies
##clusive
##cock
##cot
##dev
##dhar
##ensis
##eta
##eux
##fat
##ffer
##grass
##hak
##hell
##hora
##ifies
##ige
##ilo
##ily
##ime
##iner
##ique
##itated
##ited
##kle
##lio
##mac
##mond
##moor
##nched
##ndi
##nem
##nick
##nist
##oms
##omy
##onic
##pes
##pis
##power
##press
##quest
##rant
##rer
##rov
##rzy
##sky
##some
##stone
##sun
##tera
##test
##tile
##uit
##uki
##ules
##uss
##vil
##wang
##ware
##wen
##works
##xide
##zel
128
143
148
1769
1830s
1867
1879
1884
210
317
abstract
accounting
admired
advantages
airspace
amendment
ancestors
argue
assert
assess
assets
astonishing
attribute
automobile
bacteria
baha
bb
bile
blair
blank
bleeding
bosnia
broader
bs
buck
bucket
bugs
bulgarian
capitals
capped
cascade
casey
ceo
citizen
clever
cluster
colleges
collins
comeback
commissioning
committees
compensation
confined
congregational
connector
contend
contents
contests
convicted
councils
craig
creed
criteria
custody
cute
danish
deception
democrats
demonstrate
deny
devastated
differs
disappointment
dismay
diva
diversion
dorothy
dos
dozens
drops
duncan
editorial
eighteenth
embassy
emotion
employing
encouraging
endorsement
espn
evaluation
evan
examining
exhaust
exhibits
expo
feedback
fiba
fisher
flanked
fleming
galley
generating
generations
glad
gladys
glorious
gonna
google
halftime
hawks
healthy
heath
highlands
hm
honduras
honest
hyde
hyderabad
ibn
ile
immature
inauguration
incorporate
indonesia
insect
insurgents
inventory
ip
ira
isis
ivan
jackie
jen
jokes
julia
jurisdiction
kitty
labelled
lengths
likes
limbs
liszt
logo
lopez
lyric
macarthur
macdonald
maine
mane
mansfield
marina
maritime
marty
math
mathematics
mechanics
merging
merit
migrate
mimic
minneapolis
misunderstood
modeled
moors
muscle
namely
natives
neighborhood
neighboring
neon
newell
noel
nt
objections
obsession
odd
odyssey
operative
organisms
organize
organs
oricon
outs
owed
payment
payments
performers
phoebe
physician
pledged
pocket
prefect
prism
proceedings
professors
protecting
punk
radioactive
rc
rca
realm
referenced
relates
repeat
reunited
rhythms
roosevelt
rot
roth
rulers
sandstone
satirical
sewage
seymour
shafts
shapes
sharing
sharks
shelby
shelley
sheridan
shooter
shortage
siberia
skeletons
smallest
southward
spinning
spreading
staircase
stays
stealing
steals
strait
struggles
suburban
suburbs
surpassed
surveillance
talked
taxes
teammates
theatres
thematic
theodore
thief
transporting
tribune
tripoli
tying
uc
unexpected
unwilling
validity
verbal
virtual
volunteered
wai
wally
wcw
whig
whistle
wii
wool
workshop
worlds
worshipped
wreck
yellowish
~
##aba
##aine
##arian
##arm
##asco
##base
##berger
##box
##cate
##cci
##ceptive
##cke
##cki
##eau
##ega
##erman
##erson
##fication
##fire
##form
##frid
##gni
##hel
##hler
##hope
##hua
##iac
##ias
##ication
##ider
##ika
##iko
##ille
##ind
##ined
##iot
##isms
##jm
##kawa
##lies
##lights
##lina
##llis
##logist
##lver
##matic
##mini
##oco
##odies
##ographic
##oka
##ological
##olved
##oon
##ory
##ose
##pal
##phic
##ply
##quin
##rew
##rgh
##rkin
##sett
##shan
##sop
##sor
##sr
##sville
##tia
##tie
##tting
##tze
##uka
##ulu
##uring
##vation
##wart
##wheel
##yang
##zon
##с
132
168
1825
1831
1840s
1869
23rd
280
910
absorption
activist
admire
adverse
aims
ancestor
angels
arnold
assignment
ate
attracting
auction
augustus
autonomous
baldwin
banning
barbie
barrel
basal
bassist
beethoven
beneficial
boost
bram
buff
burnt
campaigned
carlo
carving
caution
chuck
civic
cock
collegiate
comfortable
commemorated
complain
confederation
confirm
connecticut
consort
conspiracy
constituted
consume
convoys
cooling
cornwall
cubic
cw
dangerously
dash
deadly
declines
decorative
decree
demise
democrat
deposited
designers
desires
destructive
differently
disappearance
dispatch
displaying
distribute
diverted
diving
doubts
drains
drifting
duck
eclipse
edith
ee
elk
ellen
embark
emerge
eminent
enabling
enacted
enclosed
enforcement
entity
exceptional
exceptions
exploring
expose
fai
failures
falcon
feminist
fernando
ff
flashback
flattened
fledgling
flee
footballer
framed
francois
friday
gamma
garage
garth
generate
genesis
gm
gran
granite
grassland
grip
groove
guarantee
gunpowder
happiness
hardly
hare
healing
heinrich
heroin
hybrid
illustrate
indiana
innovation
insane
ist
iucn
ivo
jill
julius
jungle
kv
lamp
larvae
laura
lawyers
lear
leased
ledge
lindsay
lisbon
lobbied
locke
longtime
lowe
macro
mammalian
managers
manifestation
markings
marshall
mca
melancholy
memoirs
merchants
meteor
mineral
minh
momentum
monarchy
montenegro
narration
negatively
nineteen
nm
nonsense
offspring
omitted
opener
openly
ottomans
outlets
outlined
overlooked
overly
oxidation
pac
pageant
paste
patient
patrolling
peers
penelope
periodic
permit
pia
picking
pier
pipes
plagued
pluto
poison
portico
prasad
predict
primetime
profitable
prolonged
pronounced
pudding
qualities
quebec
quota
racist
reads
reclamation
recruit
reddish
regards
rejection
rejects
rejoin
rely
remastered
reno
reporting
retains
revelation
revision
ridges
riot
ruthless
sawmill
scholarly
scrub
seeds
seeks
seventy
sheen
shy
sinn
slot
soc
soils
solitude
sounded
spanning
spare
sponsor
staging
stalin
sticks
stretches
stud
summarized
supervisor
sylvia
synthesized
taunton
taxa
technically
technological
teenager
terrace
testified
tightly
tonight
townships
treatments
trent
tribal
tsar
uncertainty
underway
underwood
unidentified
unite
unnecessary
unveiled
vancouver
vertigo
vibe
viewer
viking
vulgar
warn
wasps
wheel
winters
withdrawing
zen
##ache
##ame
##amo
##ann
##anta
##aran
##asi
##bag
##bol
##burg
##cating
##ces
##chen
##cial
##court
##croft
##dha
##dian
##dl
##dle
##dya
##edge
##elli
##eng
##ese
##finger
##gation
##hab
##hall
##heads
##icia
##ido
##inate
##inski
##km
##lab
##lane
##lish
##lled
##llen
##lman
##lous
##mah
##mark
##mie
##mind
##mut
##nda
##nde
##neas
##nett
##nted
##oat
##oche
##ode
##oj
##olio
##ologies
##open
##ott
##pani
##para
##pio
##plane
##rag
##resh
##rick
##right
##rily
##rita
##rity
##rot
##rsa
##sted
##sus
##tale
##ther
##till
##uded
##uh
##uil
##ulata
##ury
##uw
##weig
##wk
##woman
##yuan
##zation
##zza
##τ
136
165
1790
1844
185
1864
1873
1887
26th
28th
310
accidents
accurately
admission
agustin
ain
airs
allegedly
ambush
andrea
answers
antioch
archery
ark
array
ashes
associates
assumption
automatic
avatar
aviv
backdrop
backup
badge
bali
banner
beloved
benefits
billed
biographical
bordering
bot
bottle
breath
bud
builds
burnley
byzantine
canadians
cancel
candidacy
capt
captive
casa
celebrating
celestial
cincinnati
clare
cliffs
coincided
commissioners
comparisons
compensate
comprise
concluding
confederacy
confronted
consumer
contingent
convenient
conventions
conversations
convincing
cord
corporate
counterparts
courtship
coward
criminals
crowded
culminating
czech
dante
deceased
declare
define
delivering
demonstrating
deserted
destinations
detect
devastating
develops
differ
differed
disastrous
discharge
disguise
dislike
dissolved
divorced
dona
dove
dow
drain
drake
dramatically
dwarfs
elliott
enforced
enthusiasm
enthusiastic
envisioned
eras
europeans
examine
experiencing
explosions
facial
facilitate
factions
farmer
fifteenth
financed
findings
fix
franciscan
fulfilled
fungal
gabriel
gases
glamorgan
glasses
grouped
guests
gunnery
halls
harder
heller
heroic
herr
hewitt
highlighting
hitler
hog
homeless
homo
hon
hove
hunted
hymns
ibrahim
ideology
immense
imminent
implied
improvised
inappropriate
inca
infiltrate
input
insert
inspire
installment
intensive
interceptions
interpret
intricate
ironic
isabel
jasper
jihad
joyce
judges
kant
kay
keeper
kindergarten
knot
landslide
latitude
laughing
launching
laurence
lavish
lester
letting
lew
lifelong
lineage
localized
locked
lodge
lulu
malaya
mare
mari
marriages
masonry
maxim
mb
methodist
moisture
muzzle
nationwide
nr
nursing
obligation
olaf
ordinance
parallels
pioneering
piper
pitchers
plague
plank
plaque
plume
pneumonia
portrays
portsmouth
possessing
posters
preference
presenting
presumed
privacy
probable
professionally
professionals
programmes
quantity
quartet
questioning
radial
raft
rams
ranged
rao
rapper
rats
recommendations
reconstructed
recruiting
rector
reduces
regulate
rehabilitation
reigning
remark
rendering
rene
repetitive
researched
resemblance
reside
retrospective
reuben
richards
riders
ridiculous
rocket
rogers
rope
roster
rude
runner
sanctioned
santiago
satisfy
screw
sept
servants
shed
shifting
shifts
shocked
sicily
sketches
slant
slaughter
solving
sophomore
spine
splash
splinter
spouse
sterling
stranger
strikes
substituted
successes
superiority
superstructure
supplemented
surgeon
surname
surprising
surrey
sustain
switching
tallest
tau
tavern
terri
testimony
textile
thirteenth
tick
tina
tired
tomorrow
topping
torture
totals
touched
traced
trafford
travelers
treatise
troubled
ukraine
unemployment
unhappy
unified
unions
unprecedented
unreleased
unsure
vacation
veto
voters
ware
weber
whale
whiskey
woody
worthy
wwe
yeah
yourself
²
##35
##48
##ack
##aco
##ancy
##arat
##ark
##asse
##block
##borough
##brook
##chemical
##chy
##cratic
##cule
##dant
##dling
##ege
##erate
##eve
##fect
##fm
##force
##fusion
##genic
##gne
##hale
##hana
##harat
##icus
##ield
##iferous
##ific
##isk
##itive
##lag
##lake
##lated
##lian
##logy
##media
##metric
##ncies
##ncy
##ners
##ngo
##old
##ored
##osition
##ouse
##pac
##phon
##phone
##ports
##pus
##rade
##ril
##rina
##rke
##rose
##runner
##sey
##sham
##sive
##smith
##ssel
##sław
##tee
##tok
##tub
##uber
##ulates
##uls
##uman
##ured
##urt
##usa
##uted
##vat
##wind
1500
1660
1794
1824
1875
205
450
48th
aaa
absorb
academics
accuracy
acknowledge
acquiring
admit
affiliated
afghanistan
agreeing
algorithm
amazon
ambushed
anglican
ankle
annexed
approve
arabian
aren
assists
ata
attendant
autonomy
ava
awakening
bae
baltic
bangkok
bare
barriers
beads
bearded
bench
besieged
beverly
bicycle
blog
boots
boycott
bp
brig
brooklyn
brush
buckingham
buffalo
builder
burst
buses
buying
calder
cameron
canopy
captures
caretaker
causeway
chiefly
choosing
chords
cia
clash
classify
cockpit
coco
columnist
comparatively
compare
consoles
constellation
continuation
contracting
contradiction
conversely
copyright
corruption
cote
counterpart
creates
creatures
criticizing
crust
customer
dealers
debts
definitive
delegation
democracy
denis
depressed
differentiation
digitally
dignity
disagree
discretion
disguised
disputed
divisional
dogg
dominate
dominic
drafts
drained
dreamer
dynamics
ears
edwin
ek
elbow
electoral
enrolled
enzyme
exceeded
excellence
executives
explicit
extras
famine
fare
fashionable
fcc
feather
fielding
finley
firms
flowing
forbes
foundations
frankfurt
fulfill
fumble
galen
gaul
gear
grapes
gum
guru
hailed
halle
hana
happening
hartman
harvard
heartbreak
hides
hiding
ignore
illustration
incorporating
incredible
installation
instructor
intentionally
intentions
intercepted
invertebrates
irrigation
islam
jacques
jenna
johann
justify
karnataka
kendall
kingdoms
laser
lea
license
likened
limb
lined
lining
locate
lots
louise
lp
magdalene
mandatory
maneuver
manned
martyr
mates
mead
melt
menu
mistress
mls
mons
monumental
motif
musically
mystic
naga
narrower
nazis
neighbors
nic
nickel
nike
occurrence
org
oriental
orientation
outright
overthrow
packed
panama
panic
paradox
patrons
penalties
penetrate
persecution
persians
persist
photograph
phylogenetic
pity
plantations
pledge
pod
polka
polls
pornographic
portage
posed
possibilities
postponed
posture
preliminary
premises
prestige
prestigious
principally
privy
probability
proceed
promises
proportional
protested
provision
puff
purely
quotes
raiding
rainbow
rash
raven
receiver
reconcile
recovering
redesign
refusal
regulated
reject
rejoined
relate
reliefs
religions
renaissance
replica
reprint
rescues
resource
retreating
rewarded
rm
rowing
royalty
ryder
saddle
sculpted
semifinal
seth
sexy
shoe
shopping
shoulders
sierra
silence
similarity
sire
skilled
snakes
socio
sociologist
solitary
solomon
sophisticated
spaceship
sparked
speeds
spiders
splits
spokesman
spp
statistical
storytelling
stratford
stressed
structured
subsidies
sulfur
supervision
suspension
tables
tanner
tanzania
tbs
tempest
tendency
tender
tent
terrestrial
theologians
thermal
thorn
thoroughly
thrill
thumb
tips
toe
torso
toss
transplant
travis
trout
tyre
unbeaten
uncover
undertaker
unlock
unused
vertebrae
visibility
vowel
wash
whip
wilder
wizards
woodlands
zimmerman
##abi
##active
##aks
##atic
##bn
##cape
##cd
##cis
##db
##dm
##duction
##eem
##een
##ello
##erated
##fly
##forth
##gami
##gau
##gel
##get
##gin
##hman
##hyl
##iary
##idia
##ieg
##iest
##ieu
##ilised
##ior
##itation
##iter
##itor
##ivating
##kara
##kon
##lace
##lessness
##lithic
##ller
##llie
##lls
##llus
##logical
##lore
##maker
##makers
##mart
##mers
##nagar
##nam
##ntal
##ometer
##oof
##oting
##ovsky
##oz
##pling
##pres
##qu
##quent
##rated
##rda
##rga
##rka
##rton
##sas
##set
##sic
##sten
##tage
##tec
##tou
##tree
##ulf
##ump
##urn
##urst
##uy
##vate
##vid
##viere
##vite
##worthy
##yla
##zie
##ː
##ν
##е
##ا
*
142
1818
1839
1845
1868
1871
221
319
accepts
adjoining
adjusted
adolf
adorned
aka
aliens
alteration
amnesty
andreas
andrews
ascension
assassinated
assemble
attitudes
augmented
backgrounds
bahamas
bala
barrels
barrett
bays
beatles
bishopric
blaine
boxes
brandon
breakfast
bred
brittany
bronx
burton
butler
cafe
canvas
capability
captained
carrie
certification
chad
chandra
chang
chapels
cheers
chester
chick
claude
climb
clips
coasts
coil
collectors
comedic
commemorate
commitments
compartments
compose
comrades
conceal
concurrently
configuration
confiscated
confront
conrad
conservatoire
conspicuous
contacts
contradictory
converting
cooperate
corey
counted
crossover
crow
cruising
crushed
crypt
curriculum
customs
dai
dana
dangers
defenses
defining
deliberate
deluxe
denial
deposition
derek
detection
diamonds
directive
dirty
disadvantage
dishes
divide
dominance
doorway
doping
draining
earnings
eccentric
ecological
edwards
efficiency
eh
elongated
enclosure
endorsed
energetic
enlist
environments
eternal
everett
excavated
excitement
exodus
expired
exploits
f1
fable
fabric
filling
finnish
fisheries
fixture
flavor
foods
forthcoming
fourteenth
frequented
freshman
fruits
fused
gabrielle
geoffrey
georg
gibraltar
goaltender
gravel
grossed
guatemala
gui
habits
hail
hamburg
hastings
hatred
hawk
heron
hint
hispanic
holdings
hostilities
hue
humour
hunger
hymn
imaging
impacts
ineffective
infections
ingredients
inhibit
inlet
inserted
integration
invested
invites
iran
iraqi
ironically
irony
isolation
jacket
joey
julie
justified
kali
lao
leisure
lend
lent
levy
lightly
likelihood
limiting
liv
liver
lounge
lsu
lunar
lung
magnolia
manipulate
masked
masterpiece
matching
maze
mentioning
michelle
microscopy
midst
migrants
minus
mistaken
morphology
mortality
motivation
mule
mural
myers
mysore
nara
neared
newmarket
ng
nigel
nile
ninja
nirvana
nomadic
noon
nord
norton
novo
obscure
openings
organise
outlet
outward
oversaw
owls
paradigm
parasite
pastoral
paternal
peaks
penultimate
perceive
perimeter
peru
phenomena
philosopher
piers
pistols
plantation
planted
pleasant
pollution
ported
precinct
preferring
prefers
presidency
pressures
prevention
procedure
proceeding
procession
propeller
prospects
prosperity
protector
pulling
pulse
punish
pupil
qualify
racism
rally
rational
rd
reactors
rebuild
redesignated
referendum
reich
reins
renovated
replicate
reproductive
researcher
responsibilities
risks
rockets
rolled
romans
runoff
rushes
safely
salisbury
sampled
sergio
sharply
shawn
shortened
shortest
simultaneous
singled
sits
slender
slipped
smell
sociology
somehow
somewhere
songwriters
sonic
spherical
spirits
spoiled
stabilize
stalled
static
stems
stevenson
stimulated
stoke
stomach
stops
strained
stripped
stunning
subcontinent
sued
surfaced
surroundings
swim
syndrome
synthetic
takeoff
tanaka
terra
thorough
timed
tops
transports
traps
trusted
uncommon
unfinished
upcoming
uttar
vacant
valleys
vapor
variants
vatican
vaudeville
vermont
vernon
veterans
vicious
vinyl
violated
violations
virgil
visuals
warming
washed
weighing
winged
μ
の
##32
##40
##acy
##ahu
##anda
##arding
##arts
##aya
##bbe
##bey
##body
##bon
##break
##bus
##cala
##care
##cker
##claim
##coe
##cona
##cum
##dden
##deck
##dent
##din
##dina
##dium
##ein
##eis
##ense
##ental
##eptive
##eria
##eries
##ffen
##fighter
##film
##gly
##grapher
##haw
##hear
##hian
##hing
##hir
##hore
##idium
##iful
##igan
##ike
##iled
##imeters
##isan
##ison
##ital
##ito
##iving
##izations
##jing
##just
##keeper
##lco
##lda
##lde
##lem
##lets
##lium
##lster
##lyn
##mbo
##mill
##mist
##ml
##nig
##nor
##ores
##ound
##owing
##pas
##ppe
##pse
##rane
##rano
##rar
##rce
##rdy
##rock
##scribe
##see
##shin
##sos
##sque
##stra
##sum
##tated
##tf
##thor
##tial
##tick
##train
##ttle
##tto
##udy
##ues
##umber
##under
##vable
##vani
##vez
##vio
##voking
##wed
##yon
##yst
##ος
##ρ
1100
173
1770
1817
1820
1823
1829
1846
196
199
251
270
420
440
50th
abandonment
aberdeen
abrams
accompaniment
acronym
ada
administrator
advertisement
aesthetic
aggressively
agreements
aground
alaska
alternating
alternatively
alvarez
ambiguous
amended
amidst
amounted
anatolia
ancestral
angus
annoying
apollo
appreciate
apprentice
approximate
apt
arches
archie
arctic
arenas
arrow
arsenic
arterial
artifacts
assaulted
assemblies
asserts
asteroids
astronomer
atom
attachment
attaining
augustine
aus
avalon
averages
babe
backward
barge
baroque
basel
bash
beck
bedroom
benign
bequeathed
bestowed
blast
bomber
bonaparte
bout
bowled
bros
bug
bust
buttons
campaigning
carly
carson
catches
catching
catchment
cds
censorship
centro
cf
chandler
chant
chat
cheaper
checked
chemicals
choices
cinematic
cites
clerk
climbing
clive
clown
collided
communicate
compartment
compatible
composing
concessions
concurrent
congregations
congressman
conical
constitute
constructing
containers
counsel
counts
cracks
creations
cry
curious
cyber
dani
daniels
database
definite
delivers
dell
demonstrations
denying
detachment
deteriorated
diagram
dime
disagreement
discovering
distributor
doctoral
downed
drift
drill
drives
dubai
duel
eager
eliminating
elimination
eliza
elvis
embodied
emigration
engineered
enrollment
entertainer
erect
ernst
erratic
esq
etat
examines
exchanged
excluding
expelled
expenses
exploit
explorers
explores
explosives
exported
fatigue
fauna
fen
feudal
flaws
forwards
fragile
fraud
freighter
frog
furniture
gavin
gazette
gifted
girlfriend
gliding
gonzalez
goose
governance
grades
grazing
grounded
guerrillas
guildford
hacker
harper
hartley
headquartered
highlanders
hilarious
hilda
hire
hoc
homeland
hometown
homosexuality
ich
identifying
imposing
inability
inaccessible
inadequate
indication
induced
inexperienced
insight
intentional
interference
intermittent
interned
invade
invest
irresistible
isaac
jess
jew
jewellery
jewelry
jubilee
judgment
juno
kerry
keyboards
kneeling
laboratories
lauderdale
laugh
licensing
linebacker
lineup
lore
lt
magnificent
maid
maj
maker
malone
mammal
mandate
marching
margins
marker
marseille
martinez
matched
mats
meals
medals
meg
melodies
memo
mercer
microscope
milan
milestone
milton
mina
minded
mistakenly
mongols
monitored
mourning
mug
municipalities
nak
narrated
newborn
newton
nightclub
nightfall
nowhere
np
obe
occupying
octagonal
odds
optical
organizers
ottawa
outfits
paranormal
parkway
patent
patriotic
payne
peat
pena
penal
pere
personalities
perspectives
petersburg
playground
plea
plymouth
polo
ponder
portal
porter
pray
precursor
premise
preparatory
presumably
prevailed
preview
progressing
promo
pronunciation
proportions
propose
prosecutor
provoke
psychiatric
pub
pumping
punch
pursuing
quarry
rabbi
raphael
readings
recommendation
reel
reggae
reliable
renault
render
renovation
reprinted
residues
restless
resume
revenues
revisions
risen
robbie
rochdale
rosen
rubin
sacrament
salts
salvage
salvation
sandwich
scan
scotia
scouting
secrets
seldom
selections
serpent
settling
shang
shanghai
sheriff
shields
sights
simulator
ska
sleeping
smug
songwriting
spark
specialised
specified
spectacle
spectacular
spectral
spiral
spreads
spruce
starr
statehood
steamed
steering
stein
stole
stupid
substrate
suffrage
suggestions
summary
swan
swords
tails
tampa
tate
taxonomic
tear
tents
terminated
terraces
theological
timor
tissues
tow
trades
transform
transitional
triangular
turnover
unchanged
undercover
undergoing
undergone
unopposed
unreliable
upgrade
urging
valentine
valued
variously
vegetarian
vhs
vienna
viii
viper
volley
waldo
wat
watt
webster
wheelchair
whereby
wilderness
willie
wishing
wolverhampton
wolves
woodstock
wrought
ying
zack
zee
đ
##actic
##ago
##aha
##ais
##aki
##ao
##bay
##bie
##camp
##cas
##cellular
##chus
##cic
##cio
##cott
##crat
##ctic
##deh
##dell
##dication
##eit
##eke
##eman
##eme
##emi
##ency
##eration
##eric
##erus
##evic
##farlane
##fc
##fields
##fleet
##gger
##gui
##hd
##hof
##hue
##iy
##jee
##jun
##kal
##kha
##kis
##lation
##leaf
##life
##lift
##litz
##lizer
##lom
##lund
##manship
##mere
##mobile
##mori
##mount
##mpt
##mute
##nay
##nish
##nivorous
##nstein
##ods
##olar
##opers
##osis
##pad
##pate
##path
##rates
##rating
##rek
##rey
##rgan
##rgo
##ride
##routed
##rrell
##rva
##ryl
##sburg
##scopic
##sdale
##sell
##shaw
##sible
##sir
##sle
##sper
##stick
##sts
##sul
##sur
##tain
##tched
##thy
##tist
##tma
##tort
##tower
##tten
##vial
##worm
##written
##yam
##yce
##ying
##yse
##р
##т
##ス
141
144
1600
1648
166
1795
1816
1835
285
36th
402
460
640
978
aaron
abolition
accordance
accumulate
admiration
aggregator
akin
alt
amendments
amor
amusement
apartments
appealing
archaic
ashley
assassin
assaults
assuming
asthma
attractions
aura
automatically
avalanche
awkward
balanced
ballads
ballot
barrage
basically
bea
behave
beijing
belly
benedict
berkeley
berth
bidding
biographies
birthplace
bizarre
bmw
boarding
bollywood
bombed
boring
bourbon
brandy
bryant
builders
bury
campuses
cannes
capabilities
careful
carnegie
cartoon
casino
casualty
celebrities
cents
chariot
charming
cheek
chop
chromosomes
chun
clarified
clayton
coffin
colleague
companions
complaining
compulsory
concerto
conductor
confusing
consecrated
consideration
consul
container
contrasting
controllers
conveyed
corporations
cosmic
cosmopolitan
countess
creators
cries
crude
cs
cuban
cultivated
cunningham
curt
curves
cylindrical
dame
dans
debates
declares
defines
demos
denominations
densely
depleted
descendant
designations
devout
dialect
differentiate
differentiated
digest
digit
dimensions
diminished
diplomat
disasters
discount
discus
disgrace
disturbing
divert
doctrines
dodgers
donors
downward
drag
draught
drowned
ecosystem
elegant
emperors
empires
establishes
exaggerated
exhaustion
exotic
exposing
extract
favourable
fearing
feeds
feminine
fertility
fest
fibre
finer
flames
flanders
flemish
foremost
forestry
forgiveness
fortunes
framing
freight
fuller
furious
garner
garrett
gemma
generators
generic
geologist
geometry
giacomo
gifts
glenn
goalkeeper
goalscorer
goo
gracie
graduation
graf
greens
greenwich
gruff
guangdong
guaranteed
guerrero
guess
gunfire
gutierrez
hastily
hats
headwaters
hearted
heather
hereditary
hid
holmes
honolulu
hung
illuminated
impress
impressions
improper
incense
incredibly
infamous
influx
infrared
inherent
inheritance
insurgency
interface
intersecting
invalid
inverness
jarvis
jaya
jeep
jerome
jessica
jets
joanna
juice
jules
katie
kerr
kicker
kissing
krakow
kramer
kung
lai
learnt
legally
leopard
libretto
linda
listened
literal
lookout
lotus
loving
ludwig
magician
mama
maneuvers
markers
mastery
maxi
mccoy
mecca
memoir
mick
microphone
migrated
modeling
modelled
modifications
moe
montenegrin
mori
motives
motown
murderer
muster
nagar
naive
nano
nasty
necklace
ned
ness
nobility
norfolk
obama
objected
olds
opt
overrun
oversee
packaged
painters
pairing
paperback
patches
patton
pee
pencil
penguins
percy
peripheral
pilgrimage
planners
plaster
plenty
plural
polymer
porch
poster
practically
preacher
prediction
premium
pretend
prevents
prints
priorities
prizes
problematic
promptly
proponents
protege
providence
prussian
ptolemy
purge
qualification
quarrel
quote
ramps
ranch
reacted
realizing
recaptured
reconciliation
redeveloped
regain
reluctant
rendezvous
repetition
resembled
resting
restrict
restructuring
revisited
rigid
robes
rolls
romano
romeo
rosemary
rossi
rouge
rufus
rugged
sacrifices
sadness
sake
savoy
screenwriter
sentiments
shades
shadows
shake
sheer
sheets
shocking
shortages
sighted
skulls
slots
socialist
sociological
socks
soluble
soundtracks
sparse
specifications
speeches
sphere
spines
sponsors
spontaneous
spotlight
stab
staffed
storey
stranded
stretching
succeeds
sugarcane
sunken
superb
supervising
suppressed
suppression
surreal
syllables
syn
taxon
taxonomy
teen
telecom
timeline
tis
transferring
transitioned
translate
trash
treaties
treating
trends
trevor
tricks
truncated
twenty20
twist
twitter
tyres
uh
unacceptable
unanimously
uncovered
undermine
undertaking
undeveloped
unexpectedly
uphold
upright
valentin
vaulted
venezuela
vickers
violet
vita
volcano
wagon
waited
wakes
webb
weiss
welfare
wen
westbound
wetlands
wholly
willis
woo
wooded
yeast
yes
yuan
♯
##42
##60
##ading
##ads
##agger
##agne
##alis
##ander
##ants
##ario
##athy
##bai
##balance
##bara
##beat
##bell
##bill
##born
##connected
##copic
##cular
##date
##dit
##dog
##ease
##elin
##elled
##emia
##endra
##enstein
##ents
##eon
##eran
##esis
##eye
##ffe
##ffed
##ffie
##ffy
##fle
##fur
##fus
##genesis
##grin
##hart
##hend
##hers
##hips
##hiti
##hop
##hul
##iated
##icated
##iling
##inge
##ingly
##inian
##itating
##itic
##js
##kk
##lessly
##lie
##lines
##llah
##logram
##logue
##lon
##making
##mise
##mith
##naire
##nami
##nent
##not
##onga
##orus
##otte
##ours
##ously
##pura
##rae
##rard
##rcle
##rdan
##rds
##rno
##ropolis
##rse
##sche
##script
##sg
##smo
##stan
##sworth
##tag
##tility
##uated
##udes
##uding
##uel
##upt
##uto
##vian
##vier
##vina
##vir
##vision
##vius
##wash
##wat
##yal
##yle
##ylus
##zman
##zone
##đ
##ɪ
##ι
##а
##ル
146
1625
1643
1646
1650
177
1776
1808
1811
1813
1826
1828
1841
262
271
290
29th
470
60s
690
70s
90s
abdomen
abnormalities
aboriginal
accessories
accord
activate
addicted
advancement
agnes
aisles
alba
alec
ambitions
ample
analysts
animator
annie
answered
antarctic
antibodies
anticipation
api
apparatus
arched
archives
arguably
arrange
asa
assign
assumes
attendants
attendees
attested
avenge
axe
babylon
babylonian
bahrain
bankruptcy
barges
barron
basins
battered
berkshire
berman
bing
birch
blows
boards
boeing
bony
boris
borne
bounds
bowie
boxer
bradley
brent
brittle
bubble
buddha
bulb
cade
calculations
cane
cardiac
caroline
carriers
cello
centenary
centred
chased
chloride
cholera
chong
cinemas
citation
clerical
coa
coached
colombian
colonization
combatants
combinations
combines
comedies
commended
commentaries
compelled
complications
concealed
conceded
confessed
confirmation
confronts
consolidation
constraints
consulted
consulting
consumers
consuming
contaminated
contention
continually
continuity
contrasts
convinces
cooperative
copenhagen
coral
cork
costa
costly
coven
covert
craftsman
creep
cricketer
criticisms
croix
cultivation
cummings
currents
dances
dei
deleted
delightful
dent
dentist
destined
detailing
deterioration
dire
disagreements
dismantled
divers
donation
dong
dots
drumming
ducks
dumb
duval
eagles
echo
ecosystems
ego
emitted
emotionally
employs
endurance
endured
epidemic
equilibrium
eroded
erotic
escaping
exceptionally
executing
exemplified
exempt
exploitation
exploited
eyed
facto
fang
fence
fiji
finishes
flare
flats
flawed
flexible
float
flux
fm
foliage
forts
freezing
freshmen
frey
frozen
fulton
galleries
gangster
gareth
generous
gloss
goldberg
granada
grasp
grimsby
guidelines
hanover
hardcore
hartford
hated
hayes
hedge
helena
heroine
hinted
holidays
holster
homage
honored
horizons
horsemen
huddersfield
hugo
humidity
iberian
immune
implications
inclined
inconsistent
incorrectly
indoors
induce
informs
initiate
innocence
instability
instantly
intake
intellectuals
intending
intercept
intruder
iris
jake
java
jefferson
jian
jing
journals
jude
judgement
junk
jurassic
kaufman
khmer
kicks
kidnap
kilograms
lange
lauded
layne
leap
lecture
levant
libraries
lifespan
lima
lineman
listener
liter
lois
lombard
loops
lovely
luck
lungs
luther
lynch
madagascar
magnate
majesty
manitoba
marlene
marquis
marrying
marvin
matilda
mayer
mcdonald
meal
meredith
metis
mice
midday
middleton
midlands
milky
mined
miracle
mitochondrial
modification
moines
mom
monastic
monopoly
monsters
morality
moreover
morocco
moscow
mosquito
muscular
nana
narayan
nato
nazareth
nectar
neighbor
neighbours
netflix
nicaragua
nocturnal
nominate
nominee
nur
oaks
obey
obstacle
obviously
occult
oklahoma
operatic
optional
opus
originals
outlaw
overhead
pamphlet
pantheon
parsons
pasha
pastor
patricia
patti
peculiar
peptide
permits
peterborough
petitioned
petra
petroleum
philosophers
phrases
piercing
pitches
plausible
plug
poisonous
polished
posthumously
poured
precisely
preface
prescribed
prevailing
primaries
productive
prone
propelled
prospective
prostitute
psi
psyche
pump
purity
raiders
railways
rana
randolph
razor
rebound
recall
recapture
rectory
reese
refinery
refuse
registration
rehab
relics
relocation
relying
remedy
remembering
remembers
reminds
renovations
rented
reproduce
requesting
resistant
resonance
respects
responding
rested
resurrection
reunite
revue
reworked
riddle
rn
rods
ronnie
rotating
rutgers
ry
saloon
scarce
scarlet
scranton
separates
sequels
settings
shane
shannon
sharma
shattered
shelf
shepherd
shores
signaling
simplicity
simulate
singular
slabs
sleeves
slogan
smash
snowy
socially
spencer
spoil
stark
steal
stint
straightforward
stripes
strive
stuck
submission
subterranean
succeeding
suns
sunshine
supportive
surf
surveying
susceptible
suv
switched
synonymous
syrian
tens
terrorism
thicker
tipped
titus
towed
trailing
transcribed
transverse
traveler
triggered
turbo
turmoil
turtle
uhf
ukrainian
ultraviolet
underside
uniforms
uranium
urgent
utter
vengeance
venice
versa
viable
vigorously
wage
waist
wardrobe
warns
warwick
weaker
weaving
wes
whitish
willingness
worms
wren
wrestled
xvi
yucatan
zimbabwe
ø
α
‑
##11
##19
##aan
##acio
##amine
##ams
##arded
##ares
##att
##atter
##atus
##avia
##balls
##bana
##bation
##bc
##boot
##borg
##brand
##cade
##champ
##chase
##child
##cier
##cius
##combe
##cting
##cture
##cup
##cure
##dai
##dating
##dation
##df
##dity
##dler
##dor
##dry
##eche
##eded
##eles
##elia
##ener
##felt
##fight
##finder
##firmed
##gara
##gating
##gement
##gent
##gies
##gins
##ground
##hawk
##hita
##hort
##iana
##iate
##iculate
##ience
##imated
##imating
##iom
##irs
##ister
##itate
##iu
##ively
##ivism
##jack
##jar
##jn
##jou
##kali
##key
##kind
##kong
##kor
##lev
##lga
##lib
##liest
##lined
##llet
##llon
##lr
##lth
##lva
##mism
##mot
##nail
##nism
##nock
##nsk
##ntation
##ntes
##olic
##olis
##ony
##oration
##orin
##osing
##osphere
##oya
##pc
##piration
##plicity
##qi
##raph
##rase
##raus
##reate
##rent
##rland
##rod
##ross
##roup
##rrie
##sable
##sler
##ssler
##stream
##thesis
##tics
##titled
##tium
##tner
##tooth
##trip
##ttering
##ttes
##tucket
##uaries
##uin
##uity
##ulator
##ulous
##ulsive
##ume
##urity
##usions
##valent
##vances
##vres
##west
##yas
##yed
##zaki
##zine
##zuki
##zzle
##ˈ
##ο
##о
##ה
##د
1772
1775
1793
1800s
1803
1812
1827
201
203
206
208
253
3000
305
32nd
49th
660
abandoning
accelerate
accession
acknowledging
addict
adopting
affiliation
affinity
africans
agenda
aggression
algorithms
alicia
aligned
alligator
alloy
alterations
altering
altitude
ambient
amiga
andhra
announce
antique
applause
aquatic
archdeacon
arising
asset
assistants
assisting
auditioned
authenticity
avery
avon
axel
bafta
ballet
bayern
befriended
bernstein
billing
biology
biting
blade
blanc
blanche
blessing
blew
blocking
blond
blowing
blur
boating
boon
bounded
bowls
bowman
branded
breakout
brest
brightness
brows
bump
burt
calcutta
camouflage
camped
campground
capitol
cared
carpet
carvings
catalog
catcher
charities
charlton
chatter
cheltenham
chemist
chiefs
chooses
clause
client
clients
clutch
cnn
coating
colton
commence
compliment
computing
conclude
conquer
constrained
consultation
contexts
controversies
convince
corona
costing
countdown
counting
coyotes
cristina
croats
cromwell
crowe
croydon
cruel
cryptic
cuisine
cycles
cylinder
damn
deciduous
delaying
demonstrates
depart
deposed
depths
derivatives
desirable
detonated
dictatorship
dillon
dion
disappear
disciplines
discouraged
disqualified
dissolve
doubles
drilling
dwell
echoes
economically
educate
elaine
elastic
elle
elm
embrace
emmanuel
emphasizes
employer
empress
encore
encouragement
engagements
engraving
entrances
entries
envoy
equality
este
ethiopia
etymology
evade
evolutionary
evolve
exemption
expertise
explode
expresses
expressions
expressive
extravagant
fairies
fanny
fascinating
fashioned
faults
fbi
feasible
fidelity
filmmakers
finances
firth
flip
folds
formidable
fortification
fragrance
freeman
frescoes
friction
fried
fumbled
functioning
gabon
gallo
gallons
gaza
gee
genuinely
geographic
gesture
gillian
gradual
grange
grape
grasslands
gratitude
greco
gregorian
grief
grooves
gus
gym
hack
hammond
hardware
harmonies
haunted
hazardous
heavyweight
heinz
henderson
hitchcock
holden
honeymoon
hotspur
humanities
ibm
icy
identities
ie
ike
illusion
imagined
impending
implementation
inaugurated
incapable
incarnation
inclination
incorrect
innovations
inspection
intend
intends
interlude
intervals
introductory
inventor
invincible
invoked
ions
ivory
jamaica
jelly
jeremiah
jesse
johan
jorge
katy
keepers
kelley
knocking
ks
lana
landmarks
lanka
launcher
launches
lectures
lesson
lexington
ligament
lincolnshire
linguist
locks
logan
lonely
luminous
mace
mackenzie
madness
magnus
mai
malcolm
mania
manila
mankind
mariners
marion
maroon
masculine
maxwell
mayo
mayors
mckay
measurement
melting
merry
mesopotamia
messenger
middlesex
midland
migratory
millimetres
millionaire
missiles
mistakes
monetary
monroe
mughal
mutiny
nah
nails
neal
necessitated
needing
neural
nik
nod
noticeable
nottingham
npr
obedience
ole
operators
oppose
optimism
organising
orient
outlook
outrage
overturned
parcel
particle
passport
pavilion
peasants
pending
penetrating
perfection
perpendicular
petty
phones
pilgrims
pinnacle
pioneers
pools
poorer
possesses
potent
practitioners
prayers
precedent
predatory
predominant
prep
preserving
presided
pressured
princes
profession
proposition
prototypes
publicized
purported
quo
rack
rae
rage
ransom
realise
receptors
recipient
reclaim
recognizes
recognizing
recorder
recounted
recruits
reef
reefs
rees
refined
refrain
regret
regulatory
reinstated
remade
renew
renewable
repeats
reprise
residing
resisted
rests
resurrected
revive
rhythmic
ribbon
richly
richter
ricky
riverside
romanesque
rooted
rotten
rowe
ryu
sails
sampling
sanford
sans
scarf
scenery
schemes
schmidt
scream
screaming
scripted
scripture
seizing
semitic
separating
serialized
sheikh
shoreline
showcase
shropshire
sidney
simmons
sirius
sixteenth
skeletal
sloan
slug
sniper
sob
souls
spanned
sparrow
spikes
stall
starboard
steward
stigma
stimulate
straw
subgenus
sunny
sunset
superintendent
supervised
suppose
surround
susanna
swallowed
swansea
swarm
tablets
talents
tame
theorist
therapeutic
threaten
thursday
tobias
tod
tomatoes
toned
tragedy
transmissions
trenches
troupe
truce
tsunami
tunes
turf
turing
unconscious
undertake
unfair
unicorn
unionist
universally
unnatural
urine
valle
vein
vertically
vineyards
vivid
voluntary
vr
wb
webber
welcomed
widened
wilbur
willoughby
winger
winslow
wires
worcestershire
wrestler
wrist
yahoo
yearly
yielded
ymca
youthful
≤
##10
##33
##50
##achi
##akes
##aneous
##anger
##ante
##any
##ardo
##aro
##ask
##athing
##aux
##baum
##bers
##bian
##bir
##bone
##bow
##bula
##bular
##cede
##cene
##centric
##chai
##chang
##chemist
##chio
##cise
##cite
##city
##cta
##cturing
##cured
##dav
##dilly
##ead
##eak
##eca
##eers
##efe
##eil
##eland
##elt
##enes
##ented
##eres
##erry
##etti
##ever
##ffa
##flower
##fying
##ghan
##ginal
##gled
##grove
##hawks
##helm
##het
##him
##hold
##iani
##icide
##ifice
##iki
##ility
##illon
##inae
##inations
##ingdon
##ises
##ishment
##itia
##itis
##itude
##kic
##kovic
##lassified
##lch
##leen
##lge
##lining
##lite
##llation
##lord
##lter
##lts
##mmer
##mt
##ndo
##nian
##notes
##nov
##odes
##ogy
##omics
##omo
##otti
##outs
##pf
##phs
##pine
##pper
##pping
##print
##proof
##quay
##quette
##rada
##rank
##rasia
##rator
##raya
##raz
##rford
##rge
##rgeon
##rise
##rmin
##rogate
##room
##rted
##rter
##rys
##sities
##som
##tama
##tation
##thest
##tious
##tly
##tment
##tock
##tral
##uate
##uder
##unce
##uru
##uven
##vik
##weed
##working
##year
##yte
##zee
##zzo
##ław
##μ
1605
1632
174
1804
1809
1810
1822
1843
186
215
232
254
263
272
281
352
44th
560
590
950
980
<
aba
abortion
abrupt
accuse
accusing
acknowledges
additions
addressing
adequately
administer
admitting
advertised
advocates
advocating
aiming
airways
akira
alexandra
alexandria
alumni
amateurs
analytical
anatomy
anchored
annex
announcing
anomaly
anterior
anthropology
antony
apocalypse
apologize
appalachian
appropriately
apr
aristocratic
armenian
ascending
ascot
asleep
assassins
assent
asserting
astronomy
asylum
atkinson
atlas
austen
autobiographical
aux
avant
await
axle
backyard
bain
balloon
bane
baptiste
barack
basilica
bathing
beams
beard
beaufort
beech
biased
bike
biologist
blending
blessed
blitz
blonde
blossom
blunt
bolivia
bonding
boogie
bordered
bounce
brace
branched
braun
bravery
brawl
breakup
brett
bricks
brightest
brutality
bunch
bundle
burials
burma
cadet
caf
calculation
camping
candace
candy
carbonate
castile
castro
casual
caucasian
ceded
certainty
chalk
chamberlain
chesapeake
chocolate
choreography
christina
cite
clarke
classrooms
claw
cleric
climbed
clyde
cognitive
combining
commentator
committing
comparative
compelling
compressed
compromised
computational
condemning
conditional
conscience
constable
convergence
convex
cooled
coordinator
corrected
correctly
cosmetic
cottage
councillor
courier
cousins
crafted
creativity
crested
crocodile
croft
culinary
cups
cured
curiosity
curse
daly
darren
davenport
debuting
decreases
defect
definitions
degradation
degraded
delight
deng
denver
departments
descending
descriptive
deserves
desk
despair
desperately
diagonal
dialogues
dickens
disciple
discontent
disgust
disk
disposed
distract
dorset
dose
downloads
drunken
dubois
duc
durga
eco
edgar
edmonton
eduardo
embankment
embedded
emblem
emphasize
emptied
engages
engraver
enjoys
enterprises
excel
execute
exhibitions
exits
extraction
extremes
fade
fades
famed
fancy
fatima
faust
finely
fisherman
flanking
flashes
florence
flowed
fluorescent
footballers
footing
forbid
forehead
forgive
friar
fullback
futile
garde
gaunt
geology
georges
ghetto
ghosts
glamour
glossy
glowing
goats
goldman
gorgeous
graded
greenish
greenland
greeted
grind
groom
gustav
hampton
handing
handsome
hansen
harassment
hardest
harmonica
haste
haul
hauled
hazard
heating
hierarchy
holders
holt
hooked
hopefully
hopkins
hostage
hubert
hungry
hutchinson
iceland
idle
immortals
implying
impose
inactive
incorporation
indirectly
indochina
injustice
ink
insists
installations
insult
integral
integrity
intel
interfere
internationals
invaders
inverted
investments
ipswich
iroquois
jakob
jesuit
jett
joked
judas
jumped
kata
keel
keeps
kemp
kilometre
laborers
lacy
laird
lamar
lambert
lawful
lawn
layered
lays
lean
leaning
lebanese
lecturer
leopold
leveled
lever
lifting
ligand
likeness
lil
lionel
livelihood
loaned
lodged
logging
loneliness
looting
lordship
lowell
luc
lucrative
lund
lush
madame
magistrates
makers
makeup
mala
malta
mandated
manipulating
manipulation
manpower
mater
maui
meadow
meanings
mechanic
mechanisms
medication
mentally
metropolis
mickey
midwest
minimize
misses
missionaries
mocking
monday
moniker
monkeys
morally
morphological
morton
motions
mozart
muddy
mustang
mutations
mutually
myles
naples
nationalism
navigate
nebula
needle
neill
neutrality
nitrate
nitrogen
noises
notified
numerical
nutrients
nwa
oakley
obliged
obstruction
occupational
okinawa
onstage
onward
optimistic
orbiting
ordination
osaka
outraged
outskirts
overhaul
overlapping
overture
oyster
package
packs
pads
paler
pamela
papa
paterson
pathogen
pathways
pedestrian
peel
penny
perch
perfume
phosphorus
pines
pipeline
pitchfork
pits
pius
planetary
plots
pockets
policeman
popularized
postal
posting
potatoes
powerhouse
precision
prelude
presenter
priced
priory
privilege
procedures
proclamation
projectile
proprietor
propulsion
protestants
proving
psychology
pumps
purchasing
qc
quarterfinals
quasi
questionable
quoting
railroads
rattle
rb
receptor
recital
recruitment
recycled
redesigned
regeneration
rehearsals
rejecting
reliability
relic
relocate
reluctance
reminder
renewal
repairing
repertory
reply
reporters
reptiles
reset
resigning
reused
revered
revolutionaries
rhino
ridden
rides
robbery
roberto
robots
rodney
roland
rourke
rover
rower
rpm
rub
rudolph
sabotage
salem
sammy
samoa
sanctions
sant
saunders
sawyer
scheduling
scholastic
scrutiny
sd
searched
searches
semester
servant
severed
sexes
shade
sharpe
shelton
shine
shone
shutter
sinatra
slim
snout
solicitor
sorts
southbound
sparsely
specialists
spends
spit
spokesperson
spun
spurred
stanisław
starbucks
steele
steiner
stephanie
stink
stipulated
strategically
streetcar
strengths
stronghold
styled
stylistic
subdivisions
sunderland
superhero
sustaining
swallowing
swell
swung
takeover
taxation
teens
telecommunications
tentative
theorem
thor
threatens
threshold
thrilling
thriving
thrust
thy
tilt
tire
toilet
tones
totaling
tottenham
toxicity
translucent
travers
treats
troll
tuned
turbine
twenties
twigs
umbrella
unanimous
undoubtedly
unpaid
unrelated
unseen
updates
upward
useless
utility
utilizing
utterly
vampire
vance
vanished
vanity
varsity
vector
vegetables
verge
vibrant
villains
vincent
vine
visually
vocalists
void
volcanic
waking
walled
wander
wandering
warehouse
warship
weary
wheels
whoever
wills
wilmington
windsor
wiped
workforce
workplace
worry
wreath
wynn
yacht
yuki
→
～
##12
##16
##22
##24
##28
##41
##abe
##aceae
##ado
##ador
##ael
##ager
##agh
##ains
##aire
##ards
##aring
##aru
##athan
##atory
##belle
##berman
##bib
##bine
##bius
##bles
##boats
##bolic
##bson
##carbon
##card
##cats
##cian
##coat
##crest
##ctable
##dicate
##diment
##dio
##dote
##ej
##enter
##eous
##erine
##essed
##ested
##factory
##fan
##fies
##gence
##ghi
##ghton
##git
##glers
##gonal
##grave
##hammer
##havan
##heard
##hesion
##hia
##hom
##hta
##hun
##iating
##ically
##ichi
##icing
##ij
##inger
##ional
##ioned
##isen
##itas
##ivated
##iver
##jiang
##jk
##kee
##kov
##late
##lier
##load
##lok
##lou
##lov
##lun
##lysis
##lz
##mble
##mc
##meter
##mia
##minate
##mons
##music
##nberg
##nding
##nesian
##night
##nostic
##np
##oda
##oked
##oki
##omic
##omorphic
##ones
##onne
##oping
##ories
##otide
##oton
##oun
##ount
##oxide
##pace
##pathy
##phobic
##pie
##pile
##plex
##pod
##polis
##poo
##posed
##post
##qual
##raf
##rath
##rigue
##rika
##rium
##rmi
##roll
##roud
##rso
##rza
##sari
##shore
##sian
##sport
##sser
##static
##stock
##stown
##sty
##taking
##tek
##text
##tituted
##tling
##tore
##trom
##tson
##tures
##turn
##uca
##uch
##uer
##uid
##uled
##ulin
##uria
##used
##uts
##vance
##vard
##version
##vies
##vington
##vos
##vyn
##wara
##wari
##watch
##wire
##write
##xon
##yama
##yman
##zak
##ن
##ه
##ي
##ा
##ン
##ー
1300
147
162
1628
171
172
1783
1806
182
1900s
211
312
314
31st
35th
375
38th
403
406
430
47th
520
54th
850
abruptly
abused
acquaintance
adultery
adventurer
adviser
advisers
affiliate
affirmed
aforementioned
afro
agrarian
airbus
airship
alarmed
alexis
amsterdam
amusing
analog
angela
annoyed
anthropologist
antigua
anymore
anyway
applicant
appointments
appreciation
arbitration
arbor
archive
arid
arises
arithmetic
ars
articulated
ashton
asiatic
asphalt
assertion
astoria
athens
atv
aug
aurora
authentic
authorised
awful
ax
baba
bags
bail
baked
ballroom
banker
barbados
barcelona
bari
bartlett
baton
beaumont
becker
bees
bei
belts
benefited
benevolent
bengal
betray
betrayal
betrayed
bids
bits
bodyguard
boiler
bolt
booked
boosted
bottles
bouts
brackets
brake
brat
brave
breadth
breakthrough
brisbane
brooke
bryan
bucharest
buddhism
burgess
burke
burrows
bursts
butter
canoe
cares
caring
cartoonist
cartridge
catalyst
catastrophic
cautious
cavity
ceasefire
centennial
champagne
chanting
charms
charters
chennai
choreographed
christie
cid
cinematography
circa
citadel
clarify
clashed
classroom
clerks
click
clinch
clinic
codes
coincidence
colchester
colder
coli
collapsing
communion
competent
conceptual
confess
confirming
conflicting
congestion
congressional
connell
conner
consortium
constituents
cora
corpses
correspond
cortex
cosmos
councillors
courtroom
cowan
crafts
craftsmen
crashing
crete
crosby
crushing
crying
ct
cub
cue
cuff
culturally
cum
curator
cushion
daisy
dale
danes
daring
darling
dart
davidson
dealings
decca
decorations
deliveries
denise
denounced
depended
deprived
descend
descends
desktop
destroys
detector
devastation
devoid
dew
dharma
diaries
dictated
diesel
dimension
dina
ding
directorate
discourage
discreet
discrimination
disposition
divides
dl
domains
donor
dough
dripping
duets
dundee
dunes
dung
dungeon
dusty
dynamite
eagerly
eastbound
ecology
edmond
efficiently
ein
embracing
emerson
emile
enables
encoded
encompassing
encourages
enraged
equatorial
ernie
erupted
escalated
essence
eugen
eurasian
evaluate
evaluated
evangelical
evangelist
evidenced
exceed
exiting
exploded
facebook
factories
fading
fallon
famously
fascination
favorably
faye
fearless
fertile
fetch
fielder
fiesta
filmfare
filmmaker
finalists
finite
fishes
flavour
fleeing
flick
flores
flourished
flowering
flynn
foe
foreigners
forerunner
forster
fountains
francaise
fredrik
frequencies
fries
frogs
frontman
frustrating
fry
fuji
fundamentally
gable
galileo
garbage
garments
gasoline
gatherings
geek
gentlemen
geographically
georgetown
gibbons
glands
gotta
gown
gradient
grandmother
grenades
grit
grouping
groves
gt
guarded
gunners
handel
handheld
harassed
harriet
hassan
hazel
headlining
hearings
heightened
helmets
heresy
hermit
heterosexual
hostility
huffington
hulk
hume
humid
hydroelectric
hypothetical
idf
ignoring
illustrates
illustrator
imitation
immortality
implies
impromptu
improvisation
inaccurate
incidence
incurred
indicative
indicator
indira
inevitable
inherit
initiatives
insisting
inspirational
inspiring
instinct
interiors
internally
internationale
intersect
intervene
interviewing
intrinsic
invading
investigates
inward
istanbul
jacobs
jamestown
jaws
jennings
jenny
jerk
johannes
juarez
juliet
jung
kilometer
knicks
landowners
latino
laughs
laughter
laureate
leak
leaping
legitimacy
leone
lethal
liberties
libre
lime
lips
lively
localities
longitudinal
looted
lowlands
macbeth
magdalena
mage
magnum
maiden
malaysian
malibu
mantle
mapping
marches
marco
markedly
masks
matthews
maximus
mcgrath
mcmahon
meadows
membranes
meng
mentor
mesa
methyl
michele
middlesbrough
miniature
mitch
mobilized
mocked
monasteries
monsoon
motorcycle
motorsport
mouths
mps
multitude
muscles
muse
naacp
natalie
nationality
nearing
neglect
negotiating
ngo
nightmare
nobles
nominal
nominally
northampton
northwards
norwich
notch
notre
nottinghamshire
null
nutrient
oasis
octave
originating
ornaments
orson
ought
outgoing
outlaws
outline
outspoken
overshadowed
owns
paced
packaging
padma
palaces
pandit
pardon
parole
patents
pathway
pedro
peerage
pens
perez
perrin
petrol
photographed
php
picnic
pictorial
pillar
pillars
pip
pitted
populous
poses
potassium
pottery
pour
predicting
premature
presenters
presidents
pretending
privileges
profits
prompt
proposing
prostitutes
protruding
prussia
pulpit
punished
qing
quietly
raided
rebounds
receptions
recipe
reclaimed
recounts
recreated
rediscovered
reductions
referencing
refining
regal
regency
reid
reminded
replaces
replies
reprised
republicans
residences
resist
restoring
retailers
retention
reverend
revolver
rey
rhone
rift
ripped
roche
rocker
rogue
roommate
rosary
roses
rotherham
rr
rs
rumble
rus
russ
rye
sabbath
sacks
salad
salman
santo
satisfying
sato
saturn
scaled
schooling
secretive
sega
segregated
seminole
sensory
sermon
servicemen
sg
shaking
shale
shaman
shankar
shootout
shuttle
silicon
sima
simplified
skate
skeptical
skies
slit
sloping
smile
socialism
softer
solemn
sophie
sorcerer
soup
soyuz
spectra
spider
spins
splitting
spurs
stabilized
stain
standings
stare
stat
statutory
staunch
steamship
steered
stepping
stereotypes
stir
stormed
stray
streaks
stricken
strikers
stripe
subdivided
subfamily
substrates
subtly
sui
supervise
supper
supplier
surgical
suspects
suspense
suspicion
sutra
swap
sweeping
swelling
sworn
sympathy
symphonic
synthesizers
talmud
temper
temperament
template
tenor
terre
tess
textures
theologian
threads
titan
tortured
toxin
toyota
tragic
trainer
translit
travellers
trey
trolley
twisted
ufo
ugly
unconstitutional
undefeated
unemployed
unitary
unlocked
unpredictable
unsafe
utilities
vain
valiant
vase
vastly
vegetable
verde
viceroy
vie
vigorous
villiers
violate
viral
virtues
vitamin
vitro
volatile
voltage
walters
walton
wards
watkins
waving
wc
weekends
weigh
weighs
wentworth
wherein
widening
widowed
willow
wiltshire
wired
worsened
wrecked
xl
xx
yours
youths
yun
κ
€
##15
##31
##aday
##aging
##aint
##anies
##antly
##anza
##aud
##avian
##ays
##bby
##bered
##bilis
##bio
##boards
##bound
##bourne
##breaker
##cana
##case
##cens
##chin
##cino
##cious
##clave
##crow
##cts
##dah
##dc
##dicated
##dles
##eding
##erted
##esa
##escu
##ety
##eville
##frey
##gall
##gard
##gens
##giri
##gler
##gun
##hei
##held
##hering
##hesive
##hey
##hine
##hism
##how
##iard
##iba
##idge
##ignant
##ija
##ilia
##ils
##iman
##inator
##ingham
##ining
##iny
##ished
##isse
##izer
##kai
##kit
##kker
##kowski
##kt
##lash
##law
##lete
##lini
##lity
##lta
##mans
##max
##may
##mis
##moto
##nat
##nb
##nberger
##ncia
##neck
##nko
##ogenic
##oint
##oit
##ols
##oman
##onate
##oom
##orous
##osed
##oted
##phus
##planes
##plin
##points
##pose
##pressed
##rail
##raine
##rative
##rera
##rica
##rich
##rified
##rill
##rington
##rini
##roids
##rok
##rong
##ror
##rove
##rred
##rret
##sden
##shed
##sies
##sity
##skin
##sms
##space
##ssar
##ssen
##ssing
##ssion
##stellar
##suit
##sure
##taka
##taro
##tein
##tery
##thus
##tiv
##tized
##torium
##tracted
##ttal
##typic
##uary
##ucher
##udge
##ulus
##umen
##unciation
##uration
##using
##ution
##vale
##vant
##vating
##von
##vs
##weiler
##wg
##wicz
##wig
##with
##xy
##yen
##zier
##zz
##ε
##り
##イ
050
1400
1604
1609
1622
1629
1630
1644
1653
1664
1689
1759
176
1789
179
1791
1792
1805
222
231
233
258
267
268
286
311
4000
425
512
820
^
abbott
abusive
academies
accents
accidental
accusation
adapting
addiction
adept
adhere
adherents
adjective
adolescence
advisors
ahmad
airplane
albany
alerted
allan
alleviate
alta
amassed
analogous
anchorage
anchors
annum
antics
anxiety
ape
apex
apostles
applying
armistice
aroused
arun
ascended
asha
assigns
assortment
astros
attorneys
authoritative
authorization
autism
auxiliary
backbone
backstage
baden
baku
bam
banana
banished
banking
baptised
barbed
barber
barred
basalt
basil
bearer
beatty
begs
beirut
believer
benedictine
benoit
berger
bernie
bestseller
bethany
bethlehem
bf
bitch
blaze
boarded
bologna
booker
booklet
booming
botanist
bows
boyd
brandt
bravo
breathing
brentford
bridgeport
briefing
brink
bubbles
buffy
bullets
butterflies
byrd
cairo
calcium
calculate
canteen
capsule
captives
careless
carlson
cassette
catering
chaired
cheer
cheshire
chesterfield
chicken
cigarettes
cinematographer
citizenship
ciudad
clandestine
classmate
classmates
cleopatra
clergyman
clone
coarse
coded
collaborate
collar
coloring
commendation
commissions
communicated
como
compassion
compatibility
compilations
completes
complexity
concord
condo
conferred
confesses
confirms
conscription
consistency
constituent
contenders
contestants
contraction
contractor
contributes
contributor
contributors
converge
copied
correspondent
corresponds
corridors
corrosion
corrupt
cottages
countless
crater
craters
creeks
cruelty
cumbria
cyclic
cynthia
cyprus
daddy
dade
decks
demi
denny
denote
derivative
derrick
deserved
detecting
detectors
determines
devotees
dignitaries
dino
disappearing
disappears
discharged
discourse
dispersal
distracted
distraction
disturbances
dividing
divinity
docks
doctorate
domestically
dominating
doris
doubted
doubtful
dramas
draper
drown
duplicate
dye
dysfunction
eats
eclectic
eisenhower
elders
eleanor
electorate
electronics
elemental
elliot
elliptical
elton
elusive
elves
email
embarrassment
emerges
emigrated
endeavor
endless
endure
enriched
entourage
eponymous
equator
esteem
estranged
ethical
etudes
eun
evolving
exam
excuse
existent
expands
experimenting
explodes
expulsion
fairfax
falcons
fantasies
farmhouse
favorites
fearful
ferguson
fide
fielded
fills
fist
flashbacks
flea
flees
fleetwood
floated
foil
folding
forcibly
forensic
forks
franchises
fucking
fueled
fulfilling
fundraising
fury
futuristic
gaines
gamble
gaps
gateway
gdp
geared
gem
generosity
genome
gently
gideon
giovanni
glacial
gloucestershire
gma
goa
goodwill
goodwin
graceful
gram
grinding
gripping
guiding
guineas
guise
halifax
hangs
hanoi
harding
hash
haunting
hawke
headline
headmaster
healthcare
heats
hectares
heel
henan
hideout
hiking
hindus
hints
hollis
homecoming
honda
honorable
honoring
hornets
hospitalized
hr
hugely
humble
humiliation
hydra
hydraulic
iain
ideally
ideals
illustrating
imam
imply
inclusive
incoming
inducing
infinite
inflation
initials
inquiry
insignificant
inspect
inspected
insulting
intensely
interacting
intriguing
invasive
inviting
iona
irrelevant
iss
iteration
jade
jailed
jana
jealousy
jesuits
johns
judaism
kapoor
karachi
kei
kinetic
kitten
ladder
landscapes
lastly
lawson
lax
leafs
leverage
levin
licenses
lille
limitation
linen
llc
lobby
lobbying
lobe
logistics
loire
longing
lough
luca
lucia
lucie
lucifer
lutheran
m1
magistrate
malaria
malay
managerial
manifest
manners
marian
maris
marquess
maureen
mauritius
mcpherson
meaningless
melee
memorials
mercenaries
mercenary
meridian
mesh
metz
mirrors
mixes
modelling
mohamed
mohammed
moi
monarchs
moshe
motive
mueller
mythological
namesake
nassau
nelly
nicola
nicolas
nigeria
ninety
nino
nodes
northbound
norwood
notebook
nurses
nz
oaxaca
obtaining
oceania
offended
offset
onion
oracle
orchestrated
orchid
organizer
orioles
ornate
osborne
ostensibly
overseen
pact
pak
pakistani
panthers
paragraph
parisian
parked
passionate
passive
pathetic
paw
pearson
pep
perished
photographer
picket
picks
piston
plotting
poisoned
policing
polling
pops
popularly
postwar
pow
practised
praises
prank
praying
preach
prejudice
premiership
presentations
prick
prisons
prohibit
projecting
projection
projections
promotions
proprietary
prosperous
prostate
proton
publishes
racecourse
rainy
raises
rammed
rashid
rebellious
receivers
recommends
redevelopment
reelection
reformer
reforming
refurbished
regaining
registry
regulars
relies
remarkably
rematch
remind
renaming
replacements
replication
representations
reputed
researching
reservation
restraint
restriction
reyes
rhetoric
robb
rochester
romney
royalist
rudder
runaway
russo
rust
rutherford
safer
sailor
sampson
sandra
sanitation
satan
scare
scared
scary
scattering
schumann
sculptor
seaside
selfish
seminal
sentencing
sheltered
shen
shepard
shouted
shower
sicilian
silly
slap
sleepy
slick
sock
sodium
someday
sonata
soo
sorrow
sourced
southampton
spartans
spat
specification
spire
splendid
spoon
sprawling
stabilization
stadion
stamped
staring
stature
steamer
stella
stemming
sticky
stil
stirring
stony
stout
straits
stubborn
sublime
subunit
subway
successors
sucking
suits
sulfate
sultanate
summons
sundance
supplying
supremacy
surpassing
surplus
surprisingly
surrounds
suspicions
swans
syndicate
systematic
tae
taller
taped
tasmania
teenagers
tempered
tenant
thank
thee
thinkers
thinner
thom
thomson
thrash
titular
toad
tolerate
tome
topical
topographic
translating
translations
trident
trousers
tuition
turk
unavailable
unconventional
undisclosed
unicode
uniformly
unincorporated
unmarried
unsuitable
unto
upwards
usc
vacancy
vacated
variables
veins
ventral
verb
vernacular
versailles
vida
vidal
violating
viva
vocational
vowed
wade
wah
walkers
wallis
walt
warmer
warwickshire
waterfront
waterloo
weaver
welles
whereabouts
whitehead
wicked
wight
wilcox
wilkes
wilkinson
wireless
woven
xinjiang
yale
yamaha
yong
yorker
zion
zoom
±
с
・
大
火
##13
##26
##27
##38
##39
##44
##55
##64
##aceous
##acker
##adia
##ailed
##aking
##anne
##aster
##ators
##bard
##bbing
##bolt
##books
##borne
##cek
##chon
##chs
##ciful
##class
##ctions
##culture
##ddle
##dial
##dly
##dman
##ductive
##earing
##ection
##edd
##edging
##eger
##elles
##ely
##encies
##ended
##ending
##ently
##erin
##erland
##erre
##eson
##estinal
##ffle
##fighting
##folding
##foot
##formed
##gb
##gc
##geny
##ggio
##glass
##gling
##gol
##group
##growth
##hli
##hole
##holes
##hoot
##iah
##idal
##iere
##iform
##inating
##isch
##itan
##jer
##jord
##jure
##kas
##kell
##kiewicz
##kka
##kken
##kney
##kus
##lastic
##lating
##laze
##lee
##link
##lization
##llar
##llas
##loe
##mable
##mania
##marine
##meric
##mian
##mies
##mined
##nae
##nction
##nica
##nitz
##nton
##nus
##nut
##obe
##oes
##oic
##olate
##onal
##oning
##ood
##oran
##oris
##oses
##oshi
##otype
##oulos
##ovo
##pathic
##pd
##pins
##plate
##pone
##pore
##pressing
##ques
##quisite
##quist
##rangle
##rata
##rave
##rdial
##region
##resses
##rice
##rien
##rion
##rip
##river
##riz
##rize
##rling
##rney
##roved
##rting
##ryn
##sam
##sant
##screen
##sko
##stand
##standing
##station
##sters
##strom
##swell
##swick
##sz
##tary
##tead
##tica
##tidae
##tila
##tism
##trick
##tructing
##tsky
##tute
##typical
##ucci
##umble
##urgent
##uting
##utus
##vern
##vey
##view
##vili
##vocation
##wise
##wives
##won
##xed
##xes
##yah
##yar
##ych
##yles
##yria
##yx
##zyn
##ɑ
##ر
##い
##の
##ア
##ッ
##ュ
##リ
100th
1649
1701
1714
1737
1764
1766
1771
1777
1784
1796
1802
1814
1820s
187
192
2017
216
224
225
238
247
252
259
264
266
269
322
33rd
354
365
37th
380
422
490
5000
555
570
630
70th
740
880
960
>
accessed
accommodated
activism
adolescent
afc
afforded
afterlife
aiding
alfonso
alla
alleging
alley
allocation
allowance
alloys
alpine
ambassadors
anatomical
angola
angrily
announcer
announces
anthologies
anybody
apocalyptic
apology
apostolic
applicable
applies
appointing
arbitrary
archdiocese
arresting
arrests
ascent
assumptions
astronaut
atoll
attends
attire
auditions
auditory
aunt
auspices
austrians
automotive
aviator
awaited
aztec
babu
bailey
ballistic
bamboo
banded
baptism
bathroom
beautifully
bedrock
beginnings
belongings
benefactor
berry
bethel
bien
bikini
binds
biodiversity
blackmail
blackpool
bleed
blizzard
bloc
blockbuster
blogger
blooms
bn
bodied
bolts
bombings
bonded
boone
bouncing
branching
brasil
breaker
breeze
bret
brighter
brock
bruno
bt
bullying
buzz
bye
cache
canary
cancellation
canonical
cans
capitalism
carlton
carolyn
cartoons
cary
casimir
cavaliers
celebrates
celeste
ceramics
cereal
cervical
chairs
chaplain
characterization
charging
chartered
chieftain
chilean
chips
chronology
cigar
circuits
clashes
classifications
claus
cleaner
climates
clinched
clockwise
clues
cobb
cohen
coherent
cola
collaborations
collaborative
collaborators
commandant
commencement
communicating
communism
commuter
comply
compression
condemnation
conditioned
conducts
conscious
consciously
consecration
consultants
contempt
contrasted
convenience
converts
conway
cooked
coordinate
copa
cores
corporal
corresponded
cosmetics
courtesy
cracked
crashes
crawley
creepy
creole
crossroads
crouch
cruises
crystalline
curb
curran
curtain
curving
cutter
dallas
dancer
darryl
dawson
deacon
default
defendant
defiant
deficit
delighted
demeanor
denotes
deputies
developmental
dexter
diagnostic
diaspora
dice
differing
dimitri
dioceses
dipping
directory
discoveries
disdain
disperse
disposal
disregard
disrepair
dissatisfied
doha
doncaster
doubling
downloaded
dragged
drastically
drifted
drowning
duff
dunbar
durable
dynasties
earthquakes
ecuador
edged
einstein
elaborated
electromagnetic
electrons
eligibility
elisabeth
emergence
emission
enactment
encompasses
endowment
engined
enhancing
enlightenment
ensign
entertained
entities
equals
erased
erica
erich
erie
erroneously
escorting
ethics
examinations
excelled
exchanges
exchanging
exclude
exited
experimentation
experimented
exquisite
extracted
ezra
fabulous
facades
farewell
fatally
felipe
fencing
fender
financing
fined
firstly
flap
flawless
follower
forte
fragmented
franks
frederic
frenchman
friars
frightening
fronts
furiously
fuselage
galaxies
gallagher
genealogical
generator
gloves
glow
glucose
gong
goodman
gotten
graffiti
grassy
grateful
graz
greeks
greene
greenwood
grove
gs
guadalupe
guillaume
gunner
habsburg
hadn
halloween
halves
hamlets
handicap
harmful
harmless
harp
harshly
harvesting
haunt
havilland
header
hee
heirs
hepburn
herbs
hilton
hiring
holm
hopeful
horace
horde
horrible
horseback
hospice
hospitality
hostages
hottest
howell
humane
hurdle
husbands
hussein
ict
ignorance
illegally
imaginative
immigrant
imperfect
importantly
imports
inadvertently
inception
indications
indus
inexpensive
inflammatory
informant
inhibitors
injected
inmates
insights
installing
instant
institutes
intern
intersections
interspersed
interval
invasions
inventions
investigators
iranian
irving
isa
jakarta
joel
johanna
jolly
judiciary
jug
juniors
juniper
kane
kanye
karen
kelvin
kendrick
kenny
kenton
kidnapped
kidney
kiel
knit
knowles
kobe
koppen
koreans
kuwait
lansing
lantern
laos
ld
lenin
leningrad
lets
liaison
liberated
liking
limo
linger
liquids
lithium
lizard
lodging
logged
lottery
lowering
lump
lure
luxurious
luzon
lyndon
lynn
maclean
mafia
mainline
makeshift
mallory
marcia
marketplace
marred
marries
mastered
mathematician
mausoleum
maximilian
mediated
medicines
merton
metabolism
midfield
midsummer
mighty
militant
millennia
miniseries
miriam
misleading
molly
monmouth
monty
moses
munchen
munitions
munro
munster
murdering
murders
mythical
nadia
nationalists
neighbour
nellie
neptune
nichols
nikki
nix
noir
nolan
nomenclature
nominees
norms
nostalgia
notions
novella
novi
nun
nuts
obituary
obscured
obsessed
oceans
oddly
offence
oman
omega
orb
outdated
outdoors
outta
overgrown
oversight
overview
overwhelmingly
pacing
paddy
pains
parades
parameters
parasitic
parental
parted
participant
partisan
pastry
patience
paula
pauline
pause
pear
peasant
penetrated
penetration
penned
pepper
perkins
pets
phantom
philippine
philips
photon
pierce
pilgrim
pinned
pistons
playwright
plead
pleaded
poker
policemen
posing
posthumous
potato
potomac
potter
pouch
powerless
practiced
predictable
prefix
presses
prevalence
printers
profoundly
programmer
progressively
promoter
props
protesting
proves
provider
prowess
puebla
pulses
pumped
pup
purification
quantum
quicker
qur
racetrack
radios
rainforest
rand
randomly
rang
rations
ravine
reacts
readiness
rebecca
rebelled
reborn
recess
recited
redemption
refreshing
refurbishment
regimental
registers
regulating
reissued
relativity
relaxation
remarried
removes
rental
reorganisation
repay
repeating
republics
rescuing
resides
residual
resin
resolving
responds
retrieve
reverted
revolving
reynolds
rhodes
ribs
rider
righteous
rites
roar
roast
rockies
roe
romero
rooster
rosy
routed
routinely
royalties
rue
runways
rustic
sabre
salim
salsa
sands
santos
satisfactory
sauce
saudi
sava
savings
scandinavia
scenarios
scent
schedules
schoolhouse
schooner
sealing
seating
sediments
seismic
seizure
sensual
sentinel
sera
serbia
serra
shareholder
sheath
shining
shipment
shirley
shit
shortlisted
shout
shouts
sichuan
sidekick
silvery
simi
simpler
sincere
sired
skirmish
slab
slovenia
solidarity
solvent
sonia
sour
sparks
spatial
spears
specializes
spectator
spectroscopy
spells
spirituality
spitting
sportsman
squares
starvation
stationary
stephan
stimulation
stocks
streaming
striped
strung
stucco
subdued
substitution
suffers
sufi
summon
sundays
sunlight
superstar
supplemental
supplementary
surely
surveyed
surveyor
suzuki
swamps
swat
swimmer
swollen
syllable
synthesizer
tack
tally
tao
taut
teamed
teaser
telegram
temperance
temptation
terrific
terrifying
theoretically
therapist
thieves
thistle
tho
thru
timothy
ting
tito
tolerant
tracts
trailed
trajectory
transforming
transmit
transylvania
trapping
treasurer
trillion
triumphant
trustee
tug
tumor
tuning
turnout
uncomfortable
undead
unfamiliar
unfortunate
unharmed
unicef
uniquely
unlawful
unleashed
unpublished
upbringing
vacuum
vanderbilt
velvet
ventured
verify
versatile
vicente
vince
violinist
visa
wary
waterways
weakly
wealthiest
wed
wedge
weights
wendy
weren
wesley
wetland
wheeled
whitney
wielding
wildly
winchester
winnipeg
withstand
wolverine
workshops
worm
wounding
wrap
wrestlemania
writ
wrongly
xv
yields
zambia
zheng
zur
ł
β
〈
〉
州
空
##47
##80
##8th
##aith
##ajan
##ales
##alle
##aman
##anal
##ances
##ando
##ange
##arium
##arth
##atable
##ately
##bane
##bate
##beck
##bek
##bilities
##bm
##brate
##bron
##bution
##chester
##chet
##christ
##cion
##cked
##cken
##ckle
##cm
##coll
##comb
##cp
##ctuated
##dana
##dda
##dding
##ddling
##dee
##dek
##dier
##dna
##door
##dorf
##due
##egorical
##ellant
##elling
##elman
##ement
##ennial
##entation
##erik
##erving
##eses
##esthesia
##etto
##eyer
##eza
##fires
##flies
##folia
##fulness
##garh
##glia
##gnant
##gned
##gold
##grate
##hc
##heart
##hein
##hog
##hopper
##houses
##hui
##hya
##ials
##ibly
##iciencies
##icio
##icles
##igh
##imate
##inated
##iol
##ired
##isance
##isman
##ista
##itarian
##itte
##jad
##jah
##jak
##jet
##jic
##kling
##kota
##koto
##ksha
##kshi
##lani
##lative
##lav
##lberg
##leader
##lich
##liga
##lington
##lins
##lized
##lka
##loaded
##logists
##lone
##lum
##mare
##market
##mber
##mbled
##mbs
##mide
##mity
##mme
##mora
##nah
##nare
##nco
##nded
##nese
##nin
##nni
##note
##nson
##nting
##ntino
##ogical
##oney
##oop
##opus
##orne
##orum
##otic
##oue
##ovich
##owe
##ows
##pala
##pire
##pired
##placed
##pm
##pool
##pped
##ppet
##promising
##ption
##puri
##pw
##race
##raction
##rage
##rana
##raphy
##reen
##rell
##relli
##ressed
##riated
##ricted
##riety
##rigues
##rish
##rized
##rky
##roi
##roid
##rons
##rook
##scope
##sf
##sier
##sight
##skaya
##sov
##stituting
##strel
##sume
##tails
##tangle
##tara
##tet
##tical
##tip
##tius
##torm
##tosis
##tour
##tty
##twined
##ually
##uising
##uming
##uously
##ures
##urian
##utation
##uze
##vah
##veda
##verse
##vich
##vine
##vious
##virus
##washed
##wd
##wear
##wei
##while
##woods
##wright
##yard
##yin
##ysis
##ythe
##zcz
##zoo
##и
##к
##ب
##た
##ト
##フ
001
1603
1611
1623
1624
1640
1645
1662
1679
1690
1692
1725
1761
1773
1774
178
1787
1797
1798
181
204
228
245
2500
257
295
315
325
326
333
337
390
39th
410
435
540
56th
60th
730
780
840
930
999
`
abdul
abolitionist
absurd
academia
accustomed
adjust
ads
adulthood
advise
advises
advising
affluent
ahmed
alf
algebra
algeria
alison
allotted
amalgamated
anand
anarchy
anders
answering
antarctica
antibody
antwerp
anxious
apologized
arden
aristocracy
arjun
armenia
arrogant
artifact
ascribed
assignments
assure
astronauts
atrocities
attracts
auditorium
automated
avoids
awake
aye
aziz
babies
backlash
balkan
bancroft
bandit
bankrupt
banquet
barley
batavia
battling
beacon
bearings
bedford
beetle
beetles
beheaded
bela
bellamy
bellevue
benny
bernardo
bey
bismarck
bison
bk
blacksmith
blackwell
bland
blanket
blended
bogota
bombay
bonnet
booth
bored
bournemouth
boyle
bragg
brains
brew
broadcaster
broker
bromwich
brutally
bum
bunny
butch
cabbage
caldwell
camden
canberra
canned
capita
carla
carleton
carver
catalytic
cavern
celia
ceramic
cesar
charcoal
chases
chatham
cheating
checking
chew
chewing
chichester
chickens
childbirth
childish
choirs
chopra
chromosome
chung
cigarette
cinderella
circumstance
citations
citrus
civilizations
clancy
clans
clarity
clemson
clicking
climatic
clinics
closes
clothed
clover
coats
cocktail
coke
collaborator
collapses
collier
collisions
colloquially
columbian
commemorates
commemorating
commemoration
commemorative
commodity
commune
complementary
compliance
comprehend
concurrency
conjecture
conqueror
consolidate
continual
contractors
convictions
corbett
cornerback
cornerstone
cornish
correction
countered
crawford
creamy
credibility
crunch
currency
customized
cv
cycling
dairy
damon
danced
daytime
deed
deepest
defiance
defunct
demoted
denies
dependence
detained
dilemma
diploma
directorial
dirk
disability
discomfort
discs
dismounted
disorders
dissatisfaction
distinguishes
distorted
distraught
distrust
disused
dizzy
documenting
dominates
donaldson
doom
dorm
drafting
dresden
drilled
drills
drying
dumped
dumping
dune
dusk
dwellers
dyke
dynamo
economist
edict
edison
edna
edo
eighty
elevator
elf
embarrassed
embroidered
emil
emmett
empathy
empowered
enamel
encyclopedia
enroll
enthusiasts
entrepreneurs
entropy
entrusted
envy
erection
establishments
evenings
evergreen
exclusion
executions
exercising
explanations
exploding
exports
exposition
extensions
fabricated
fallout
farrell
fascinated
faulty
fellowship
fern
ferries
festivities
fiance
filmmaking
filthy
firearms
fishery
fitzgerald
flanagan
flexibility
flop
flour
floyd
fluent
focal
fool
footed
foothills
footsteps
formats
formulated
forrest
fortunately
forum
fractured
frances
freeing
freelance
freud
friedman
fuck
fundraiser
gael
galway
gangs
gaze
gemini
generates
genetics
geographical
geologic
gilded
glacier
glaciers
glazed
gloom
godfrey
gomez
gothenburg
grab
grady
graphical
grasping
grayson
grenade
grille
grim
grotesque
guarantees
guarding
hacking
hamas
handwriting
hanged
hanna
happily
harrow
harvested
hasty
hates
havana
haze
headache
heck
hector
hellenic
helpful
henson
herrera
hidalgo
highs
histories
hitch
hobart
hodgson
holly
hooks
horizontally
horrific
horrified
hounds
housekeeper
huang
humiliated
hygiene
hz
icons
identifiable
ideological
ignorant
illegitimate
immersed
immersion
immunity
impacted
implementing
implicit
indefinitely
indianapolis
inevitably
infancy
infectious
infinity
informally
initiating
injuring
insignia
insistence
inspector
institutional
insurrection
integrate
interpreter
intrusion
intuitive
invariably
investigator
investing
ios
irrational
irwin
ithaca
ito
jagger
jays
jerseys
joking
jonny
judah
justification
katz
kc
kenji
kidnapping
kinase
kinda
knees
knighted
kota
labels
laden
lakshmi
lattice
laurel
lc
leach
leary
ledger
lending
lesbian
lex
lieu
lightweight
lily
limerick
limp
lingering
linguistic
linnaeus
litigation
livingston
locker
locus
longitude
lorraine
louvre
loyalists
lucius
luxury
lynx
mab
maccabi
mackay
madras
maharashtra
maia
mandarin
mangrove
mao
marche
marlins
marlon
marxist
mascot
massey
mastering
maud
mcgill
mclean
mcmillan
meaningful
meath
mechanized
meditation
melodic
melted
memphis
menace
metabolic
mia
migrant
migrating
miguel
mikhail
milne
milwaukee
minerva
misery
moaning
moat
modernist
mohan
moose
motorway
multinational
murdoch
musicals
mutant
mx
narrowing
natal
natasha
nate
naturalized
nearer
neat
nemesis
neoclassical
nestor
netting
newcomers
newsweek
niagara
niall
nicely
nippon
norm
nostrils
noteworthy
nuns
nyu
oakland
oblique
odessa
okay
ominous
oneself
operatives
opium
originates
orion
ornamental
orphanage
ortiz
ourselves
ousted
outburst
outcomes
outlying
outrageous
outset
outsider
oven
overcoming
owning
painful
paints
paired
palatinate
palestinians
papacy
paradise
paramilitary
paranoid
parenting
parry
partnerships
pasture
patriot
pavel
pavement
pbs
pea
peacekeeping
pedestal
pension
perceptions
perpetual
persistence
persuasion
phased
philipp
philippe
phillip
phosphate
physiological
pianos
picasso
picturesque
pietro
pigs
pinyin
pivotal
planting
pleas
plurality
poole
pork
porn
pornography
portals
porto
positioning
posse
posterior
pots
prague
precedence
predictions
preseason
preserves
prima
principality
privileged
processed
proficient
promotes
prophecy
provence
psychic
psychologist
pulls
purposely
pushes
pv
quarterly
quay
racehorse
radiant
radically
radicals
rallied
rampant
ramsay
randall
ratified
ratios
ravaged
reacting
reactivated
realising
realms
reasoned
recalling
recession
recipients
reckon
recoil
redundant
reflections
refugee
regent
regimes
rehearsal
reilly
reinforcement
relentless
relevance
remorse
renegade
rents
reorganized
republished
repulsed
reservations
resided
respectful
respiratory
resultant
revolves
rhea
rhine
rica
riches
riley
ringing
roam
robotic
robotics
rochelle
rotterdam
ruben
rug
rupert
sabine
sabres
sack
salesman
salle
sami
sash
saskatchewan
satin
scaling
schneider
scramble
screams
seamus
selecting
sellers
senses
sensitivity
sensors
seriousness
servers
settler
seville
shandong
shaping
shelves
sherlock
shetland
shielding
shook
shortstop
shotgun
shouting
showcased
shrewsbury
shrimp
shrink
siegfried
signage
sikh
sizable
skepticism
skirt
skyline
slept
slovene
smashed
smiling
smuggling
snapped
snowfall
sober
societal
solos
soprano
sorry
sovereignty
sparta
spawn
spawning
spheres
spice
spontaneously
springsteen
stack
stadiums
stamps
starters
steer
stemmed
sterile
stiffened
stirred
stockton
structurally
stumbled
subscribers
suck
sudan
superiors
supervisors
surfer
surgeons
surprises
suspend
sutherland
sutton
swelled
swiftly
swinging
swings
symbolism
taiwan
tattoo
tay
telescopes
tentatively
teresa
terminate
theodor
theorists
thirst
thorpe
thoughtful
til
tile
timetable
tonga
topography
tornadoes
tracey
traction
trader
traitor
transaction
transactions
transcript
transforms
transitions
transparent
traveller
treasures
tremendous
tricky
trojan
troy
trunks
trusting
tubular
tuesday
tumble
tun
tung
tunisia
turin
turtles
twain
tyler
tyne
ua
uci
ucla
uganda
unaffected
unauthorized
unearthed
unification
unsigned
upbeat
upgrades
upheld
upland
utilize
utilizes
vaguely
venetian
vera
verdi
vhf
vikings
vinegar
vines
viruses
visitation
vladimir
vogue
voluntarily
vomiting
vow
vulnerability
walsh
warlord
warmly
watts
weaknesses
weaponry
weighted
welterweight
weston
wherever
widen
widows
wiley
winding
wonderland
wonders
woolf
wow
wreckage
wrestlers
wrinkled
xavier
xiang
yankee
yielding
yukon
yusuf
zionist
„
♭
き
戦
日
##20
##23
##66
##75
##85
##acious
##aia
##aja
##aker
##ality
##alla
##ament
##analysis
##anian
##anto
##anus
##arion
##arty
##asian
##ault
##ayton
##bags
##bau
##berries
##bial
##bians
##biotic
##bler
##breakers
##buch
##cao
##carriage
##chment
##chrome
##chua
##ciation
##ckman
##code
##cola
##crats
##creen
##cter
##dable
##ddin
##ddy
##dents
##dham
##dim
##dition
##ditional
##dron
##eal
##ears
##ecure
##eet
##eia
##emy
##enberg
##ente
##ential
##erence
##erty
##esian
##estra
##evich
##ezer
##falls
##fk
##founded
##free
##ght
##gible
##gill
##gingly
##gist
##giving
##going
##gong
##grants
##gration
##haus
##hearted
##hedral
##hema
##hid
##hide
##hila
##hong
##iable
##iam
##iation
##ices
##icient
##iction
##icz
##ifier
##ight
##ignon
##inates
##inium
##ipes
##iq
##ishly
##ision
##itical
##itung
##izzly
##jon
##joy
##kat
##keepers
##khan
##kill
##kki
##kled
##kou
##lah
##laid
##laise
##lance
##lass
##lce
##lene
##lham
##liffe
##liness
##lion
##llan
##llary
##loading
##lson
##lton
##lty
##lves
##mack
##maid
##marks
##mei
##meral
##mics
##minated
##missible
##missive
##mology
##mona
##moral
##morphic
##mounted
##mouth
##mund
##nai
##nary
##nca
##nds
##neil
##nery
##nets
##nob
##nology
##nosis
##nous
##ocation
##olt
##oned
##orf
##oric
##orio
##orro
##osh
##osta
##ouin
##owski
##phile
##pts
##rco
##rdon
##rence
##reus
##rift
##rization
##rley
##rogated
##romatic
##rral
##rrow
##rsk
##sea
##shu
##sibility
##stis
##stle
##tai
##tangled
##tania
##tc
##tech
##tens
##tered
##tino
##toy
##tres
##turing
##uance
##uating
##uce
##uet
##uing
##ungen
##uno
##urer
##urized
##urrent
##usly
##uso
##utnant
##verance
##vere
##vita
##wala
##xie
##xton
##xx
##yad
##yck
##zers
##zia
##zin
##zio
##zle
##ʿ
##ка
##ов
##ו
##ל
##פ
##न
##ა
##ვ
##ი
##か
##く
##し
##は
##ん
##ク
##テ
1550
1612
1620
1621
1651
1652
1708
1717
1751
1765
1767
1782
183
189
191
195
197
198
207
212
218
219
234
239
241
249
256
273
276
277
279
293
302
323
338
340
345
385
395
415
41st
43rd
505
610
620
720
abbreviation
absorbing
abyss
accolades
accountability
acquainted
acquitted
activation
adjusting
adjustments
administrators
admissions
adolph
adrenaline
aegean
affiliates
affordable
afi
agatha
ahl
aimee
airmen
alain
albans
alcoholic
alias
align
allegheny
allegro
als
altitudes
aluminium
alvin
amend
ames
ammonia
amplified
amplitude
analogy
analyze
anson
antoine
antrim
apparel
apples
applicants
apprenticeship
archangel
archeological
archibald
arcs
argyle
armory
aspiring
assassinate
assurance
attach
attic
audible
auguste
authoritarian
avenues
baghdad
bahia
bait
bandits
bangalore
bangladesh
banjo
baritone
barrister
barton
bathurst
batted
beans
beforehand
behavioral
beit
bender
bergman
berries
billionaire
billions
bingham
biplane
births
bites
bjorn
blasting
blazers
bohemian
boiled
bonnie
bonuses
bosses
bothered
bounced
bowen
bracket
braid
branding
breached
brewers
brisk
britney
broadcasters
brushed
brute
bubbling
buchanan
buckinghamshire
budgets
burger
burying
busiest
buyer
bypassed
cabaret
cain
calgary
calvin
cameroon
canadiens
cannons
capacities
carp
cartridges
casts
catalina
cb
cbe
ceilings
celtics
centralized
cessna
chao
charismatic
charleston
cheat
checkpoint
checks
cheering
chihuahua
chilling
choke
chronological
clapton
classed
claudio
clearer
climbs
closet
clue
clustered
coated
coiled
collin
colorful
colt
colts
comfortably
commits
commonplace
compensated
complied
computation
conditioning
cone
conferences
confinement
constantin
constituencies
constitutes
consult
contemplating
contentious
contestant
continents
contractual
convened
convent
coordinating
copying
cornelius
corrections
correlated
correlation
cortes
courthouse
courtney
cranes
credible
crewe
cried
crook
crows
crumbling
curl
curly
customary
dail
damian
damp
danielle
darkening
dartmouth
dayton
dazzling
dealer
deborah
decatur
decomposition
decrees
deepened
defected
defects
demonic
dentistry
denton
dependency
deserve
desmond
dessert
detectives
detention
deutsche
deviation
devils
devlin
diffuse
dipped
disapproval
disciplinary
disciplined
discrete
disgusted
dissertation
distal
distinctions
distinguishing
distributing
distributors
dixie
dixon
documentaries
documentation
domed
domingo
dominique
donate
donegal
donnelly
donnie
doomed
dora
doses
downfall
downwards
dragons
drank
draped
dso
duly
dustin
dwelling
dwellings
earls
eater
ecstasy
eden
eduard
eerie
ejected
electrode
elias
elijah
embraced
emerald
emeritus
emirates
emissions
employers
enclave
encompassed
endings
enforcing
engraved
enigma
enrique
enthusiastically
entrepreneur
enveloped
erase
ethiopian
evaluating
evenly
evidently
exams
exceeds
excursion
exiled
expansive
expectation
exponential
eyelids
faa
facilitating
fangs
fatty
favourites
feasibility
fellows
fences
fiancee
fictitious
fiercely
fifties
figured
filing
filtering
fireworks
fitch
flaming
flared
flaw
fledged
fleeting
flirt
flirting
flourishing
flute
flyer
forbade
forceful
fordham
forefront
formulation
fours
fracture
fractures
francesco
freshwater
friendships
frightened
fulham
fx
galactic
galilee
gallantry
garland
garry
geneva
genevieve
germain
giles
giuseppe
glance
glide
gloucester
glue
goldsmith
gore
gould
grabbed
graeme
grains
grams
grandchildren
granddaughter
grandmaster
grandparents
grasped
graveyard
greyish
grimes
groin
groundbreaking
groundwater
growling
grunt
guardians
gubernatorial
guillermo
guitarists
gunmen
gunshot
gupta
haas
hague
hairy
hallmark
handkerchief
handles
harald
harcourt
harden
hardened
hardship
hardwood
hasn
hawkins
heal
heavens
hectare
heels
helix
helpless
henrik
herman
hermes
heroism
hertfordshire
hesitant
hesitate
hezbollah
hierarchical
hillside
himalayas
hiss
historia
hoax
hoffman
holder
holloway
honesty
honourable
hooper
hormone
horne
horned
horton
hostess
huey
humboldt
humiliating
hurling
icao
icelandic
idiot
ignores
illumination
immaculate
implant
impoverished
incline
incompatible
indifference
industrialist
ineligible
infants
inferno
infringement
inhaled
injection
inputs
insertion
inspecting
install
instinctively
instincts
instrumentalist
insulted
insults
intercity
intercontinental
interfering
interrupt
intervened
intimacy
intimately
intimidating
intrigued
introductions
irritation
irvine
isaiah
islanders
ismail
isolate
italia
italianate
jacksonville
jacqueline
jae
javanese
jed
jem
jeopardy
jiang
jimi
joachim
joaquin
jockey
johannesburg
johnstone
journalism
journeys
jp
judy
jul
julien
jumper
jurisdictions
jurist
kangaroo
kaplan
karin
kathleen
kepler
keystone
killings
kindness
kingsley
kitchens
knives
knockout
knocks
koch
labeling
labs
lagoon
landfill
landowner
lankan
lara
lasers
lauren
lena
liability
lilly
linux
literacy
litre
lizards
loads
loaf
locating
lockheed
longevity
lori
loyola
luciano
lucknow
luigi
luton
lydia
magna
maison
malayalam
malls
mandir
manfred
manifesto
manipulated
mansions
manually
marathon
margot
marino
marital
martha
marylebone
mcgregor
medallist
melinda
merchandise
messengers
milano
militias
mimi
minnie
mischief
misunderstanding
mla
mn
modernized
moffat
molina
molten
momentarily
mongolian
mormon
mornings
mundo
muted
mysteries
narratives
narrowed
nausea
necks
needles
negligence
neighbourhoods
nets
networking
neurons
newest
nicholls
nicky
notwithstanding
numb
oblivion
occurrences
oceanic
offences
offenders
oils
olympus
onset
onslaught
ordained
organism
orphaned
orphans
outing
outlawed
overseeing
overtime
overtook
pablo
packing
pamphlets
panda
papua
papyrus
parochial
passports
peg
perennial
periodical
permitting
persia
pertaining
peterson
phd
phonetic
photographic
pictured
pierced
pillow
piloted
pioneered
pixel
plaques
plastered
plato
playboy
pleasing
pleistocene
plight
plush
pointless
poised
pollard
pony
popping
portfolio
pounding
pouring
powell
pratt
prepares
prequel
presently
priesthood
principals
prized
programmed
prohibiting
prohibits
prosecutors
protocol
provocative
psychedelic
purcell
purchases
pursuant
putnam
puzzled
quakers
quarterfinal
quiz
rabbit
racer
radha
ragged
rajasthan
rake
raked
rankin
rave
reactive
reasonably
recognizable
reconciled
reginald
reindeer
reintroduced
reissue
relaunched
relinquished
remembrance
repeal
reproduced
resented
residency
residue
respectable
restrained
revelations
rex
richest
riga
rigged
rightful
ripe
risked
rite
rivera
roasted
robbed
robson
rocking
rode
rodents
rolf
roma
ropes
royce
rubbing
rubbish
ruby
sachs
sacrificed
safeguard
salute
sanders
sao
satellites
saturdays
savior
saxophone
scanning
scarcely
schwarz
scrape
scriptures
seals
seaman
seamen
secluded
seductive
segregation
seine
selma
senegal
sensing
serbian
settles
sgt
shack
sharon
sharpened
shave
shaved
sheds
sherman
shielded
shovel
showers
sickness
sideways
siding
signaled
signatures
simulated
sinister
sited
situ
sixties
skirts
slang
sleek
sleeve
slightest
slips
slits
slowing
snapping
softened
soloist
somber
somme
sooner
sophia
sorting
sous
southend
southernmost
spaniards
spearheaded
specializing
specifies
specify
speculative
sphinx
squeezed
stacy
stafford
stains
stairs
stalks
stanford
stanton
startling
statutes
stepmother
steppe
sticking
stove
streaked
stumble
stunned
subset
subsided
subsistence
succumbed
sucked
sudanese
sumo
sums
sunrise
suspicious
swimmers
sylvester
symmetry
syndicated
synod
syracuse
syriac
systematically
tabloid
tailor
taiwanese
tammy
tangle
tastes
tatum
taxis
teaming
tee
temporal
tense
terminals
terminating
terrorists
testosterone
tex
textbook
thatcher
theirs
thirties
thorne
thorns
thoroughbred
thrilled
thrive
tia
tiles
timbers
tna
tore
tori
touches
toulon
towering
tracing
trainers
trait
trance
transient
translates
translators
triad
triangles
trophies
trump
truths
turbulence
turbulent
turquoise
twilight
twists
tyrone
ubiquitous
ultimatum
umar
unarmed
underworld
uniting
unmarked
unpleasant
unspecified
unspoken
upstairs
urge
urgency
uruguay
utopia
uttered
uv
valencia
vaults
vc
vedic
venezuelan
ventilation
ventures
verified
vibration
vicki
vikram
vila
ville
violin
vows
wainwright
wakefield
warehouses
warmed
wasting
waterfalls
waterford
wax
weed
wellness
whereupon
wholesale
willard
wingspan
witnessing
witty
wizard
wondered
worcester
workings
worries
worthless
wwii
xii
yesterday
yin
yuri
zach
zebra
zoological
zurich
δ
א
ح
م
′
⅓
り
ス
場
張
##14
##21
##25
##34
##36
##37
##3d
##45
##70
##90
##abad
##acies
##aldi
##alia
##ands
##anial
##anna
##anu
##apple
##asia
##astic
##athlon
##auer
##aus
##aver
##aves
##bbs
##bedo
##bley
##boarding
##bold
##bos
##brick
##bush
##cards
##chal
##channel
##chman
##cine
##claiming
##cliff
##cology
##cote
##cous
##cton
##ctum
##cuit
##cute
##cuting
##dad
##dates
##dermott
##dled
##dome
##drop
##duced
##ducted
##duk
##eaux
##ecin
##edly
##eed
##enting
##erative
##ergy
##esses
##ester
##ettes
##eurs
##fed
##fera
##ffs
##filtration
##foil
##fp
##frame
##fs
##gang
##gga
##gging
##ggy
##gical
##girl
##gles
##gley
##gnan
##gnon
##grant
##grating
##gree
##gum
##hane
##hani
##hesis
##hima
##hly
##hoe
##holm
##hre
##iae
##iano
##icate
##icides
##iente
##ieving
##igate
##ignment
##inal
##inda
##inen
##inga
##inking
##iously
##iring
##itch
##iting
##ivate
##jas
##jit
##kari
##kins
##kla
##kley
##kot
##kova
##kow
##lal
##lard
##laus
##layer
##lby
##ldon
##lein
##lett
##linson
##lists
##lles
##llins
##lten
##lved
##main
##mara
##mata
##mbe
##md
##minating
##monium
##mour
##mur
##nage
##nated
##ndra
##nee
##nesia
##nical
##nified
##nikov
##nsed
##ocks
##ocytes
##oft
##oge
##ople
##optera
##orted
##ossa
##oteric
##oud
##oured
##owed
##phate
##phine
##pies
##pods
##ppel
##pta
##ptive
##rable
##rance
##rani
##raphic
##rations
##rbin
##rder
##rger
##riation
##rier
##rito
##rix
##rned
##rnier
##ropriation
##rosis
##roving
##rrier
##rts
##rued
##sai
##say
##sions
##sonic
##tablished
##tagram
##tance
##tani
##tao
##thal
##tham
##tically
##tify
##titles
##tlement
##tley
##tness
##tow
##trust
##tted
##tung
##uchi
##udence
##ulum
##uppe
##ups
##urable
##urities
##urne
##user
##utz
##vary
##vd
##vera
##vill
##vot
##vus
##walker
##wide
##wife
##wt
##xious
##xley
##yes
##yler
##ytic
##ywood
##zquez
##øy
##ı
##β
##η
##π
##ω
##в
##з
##н
##ъ
##י
##س
##ص
##ع
##ق
##ि
##რ
##う
##こ
##つ
##な
##め
##ィ
##キ
1641
1642
1656
1663
1665
1666
1667
1682
1685
1688
1697
1700
1720
1726
1741
1742
1753
1755
1763
1768
1778
1788
193
2019
213
226
235
237
255
265
283
284
298
308
313
316
321
341
344
381
40th
495
51st
580
680
760
911
aback
abbas
abbreviated
abdominal
abducted
abduction
abdullah
accelerating
acceleration
accreditation
acquaintances
acquisitions
acton
adamant
additive
adherence
administrations
administratively
adventurous
aggravated
agitation
akbar
alarms
alejandro
alessandro
alexa
alexandre
allergic
aloud
alternately
amazed
amenities
amin
amos
analyst
andes
andres
angie
angled
anita
annapolis
antenna
anticipating
antiques
ants
anytime
appetite
appropriated
aqua
aqueduct
archival
ardent
ariel
armada
armand
arte
artisans
aspirations
astonished
attacker
audit
automobiles
avid
awe
awesome
axial
azerbaijan
azure
ballast
ballots
banda
bangor
baptized
barren
baseline
baseman
batman
battled
bayer
beef
belize
bentley
berber
biennial
bilingual
billie
blankets
blasted
blasts
blazed
bleak
blinded
blink
bliss
blurred
bmg
boasted
bohemia
boiling
bombardier
bonfire
bookstore
boredom
borrow
bounty
bouquet
bracelet
brands
bray
breasts
breathe
bromley
brooding
brothel
brotherhood
browne
bryn
buckley
budapest
buddy
buena
bulbs
bulldog
bulldogs
bulletin
bureaucracy
bushes
byu
cafes
caledonia
caliphate
calmly
camille
candle
canton
cao
capitalist
carmen
carnage
carpets
carts
cartwright
casablanca
categorized
causal
centimeters
challenger
championed
chaotic
chassis
chateau
cheerful
chefs
cheng
chet
chimney
chimneys
christy
clarinet
clauses
cleaned
clifton
cloak
closeness
clutches
clutching
coinage
coincidentally
coliseum
collateral
collects
cologne
coloration
colourful
comedians
comets
comical
commencing
compassionate
compiling
compton
comte
conan
concentrating
concussion
confederates
confronting
confuse
congenital
conglomerate
conserve
constabulary
constructions
constructive
contamination
contiguous
converse
cornell
corrupted
coventry
coyote
cpu
crabs
crawl
credentials
crippled
crisp
criterion
crore
crowley
cumulative
curled
curling
curry
cursed
cynical
cypress
cyrillic
damascus
darby
dared
darius
darlington
dat
dax
debating
declan
decor
demographics
denim
denoted
departing
derivation
designate
despised
deteriorating
dietary
diffusion
dilapidated
diocesan
diplomacy
diplomats
dir
directional
disabilities
disadvantaged
disclose
disclosed
disclosure
distinctly
distressed
dodd
domination
donnell
dotted
dowry
drastic
drinks
durban
dusseldorf
dvds
dyer
earthly
eased
echoing
ecole
economical
eddy
electors
elects
ella
ellie
ellington
emanuel
embarrassing
emphasizing
encoding
enhancement
enjoyment
enrico
ensembles
ensures
entertain
equation
erin
eritrea
espionage
esther
eternity
ethnicity
etienne
eton
euros
ewing
examiner
exemplary
exiles
expanse
expects
expenditure
fabrication
fae
falkland
familiarity
fantasia
fascism
fates
faux
favors
fay
fda
ferocious
fiber
fiery
fife
figurative
filippo
filly
filter
filtered
finalized
fines
fitzpatrick
flaps
flashing
flinders
flipped
floral
flung
flushing
flyers
folks
foo
foreigner
forged
forgetting
forums
fragmentation
frankish
freaks
fremantle
fresno
fronted
fuels
fugitive
fujian
functionality
functioned
furlongs
furnished
fuss
gaa
gage
gail
gallon
galloway
gardener
genetically
georgie
gertrude
gestures
ghana
gibbs
gigantic
gilmore
gland
glimpse
gloria
glued
goldstein
golfer
goodbye
gorge
grabbing
granny
grazed
greed
greedy
greenhouse
greeting
griffith
grocery
guam
gunther
guts
hagen
hampstead
handicapped
handler
hangar
hardness
harlem
harrington
hawker
haynes
headlines
heap
heidelberg
helsinki
hendrix
hepatitis
hesitated
hideous
higgins
hillary
hilltop
hinduism
hiroshi
hobby
homestead
hooded
hooves
hopeless
hopping
hormones
horribly
horseshoe
houghton
hq
hugging
hunts
hurley
hutton
hypnotic
iata
icc
ida
idols
illnesses
imaginary
imagining
immensely
immigrated
impaired
impatient
implements
implicated
implication
improves
impulse
incarcerated
incentive
independents
indifferent
inequality
inflammation
inflated
influenza
inherently
inhuman
injunction
inmate
innate
inquiries
inquisition
insist
inspections
instituted
internship
interpreting
interred
interruption
intervening
inversion
invitations
irritating
irs
islander
jagged
jaime
jamaican
jammed
jasmine
javier
jens
jingle
joanne
joao
jock
joker
jonas
jurgen
karate
karel
kato
katrina
kazakhstan
kenyan
kern
khz
kidd
kimball
kingston
kinship
knob
knox
kolkata
kristen
lace
larkin
lash
lashes
layton
leaflets
leaking
leans
leger
legged
legislators
legislatures
lego
leonid
lexi
ley
liable
libel
libya
lick
lid
lila
lindsey
liquor
littered
locality
loco
locomotive
looming
loren
loser
louder
lowers
loyalist
lucille
luckily
luftwaffe
luggage
lured
luz
lyon
lyons
macedonia
macmillan
madeira
mahogany
malaga
malawi
malik
mandy
manny
manson
marathi
marijuana
marley
marshes
martian
martinique
martins
martyrs
marvelous
masjid
masonic
mated
mayfair
mayoral
mccain
mccormick
mckinley
mcnamara
meek
melvin
memorandum
menacing
merits
merrill
microwave
mika
milford
militants
miniatures
minors
miracles
mirrored
mischievous
missy
modernization
modify
monde
monsieur
moods
morals
morley
moroccan
morrow
morse
mortally
mortals
mosques
motors
mri
muller
mundane
murals
murderers
murmur
muscled
musik
mystical
napier
napoleonic
nathaniel
naughty
negotiation
negro
nehru
neighbourhood
nerves
nhs
nikita
nikolay
nils
nj
nmi
nobleman
nora
noticeably
notification
notoriety
novice
nowadays
nunez
nutritional
nw
obligations
oblivious
obscene
occupants
och
odi
offenses
oppression
oppressive
orchards
orderly
organist
organizing
originate
orthodoxy
ounce
outlines
outreach
outsiders
overland
oversized
paces
packages
paddle
padres
padua
pang
pants
paranoia
parapet
parishes
partnered
pastures
patented
patriots
paused
paving
paz
peabody
peas
pendulum
penguin
pennant
periodicals
periphery
philanthropist
philharmonic
photographers
pieter
pigeons
piles
pills
pinch
pisa
pixels
pizza
playback
pleasures
plotted
plunged
podcast
polite
polly
polymers
pontiac
prakash
prayed
precautions
prelate
prematurely
presley
pretended
priestess
primate
probing
procedural
processors
professions
proliferation
propellers
proponent
prostitution
protectorate
protects
protocols
puddle
pulitzer
punching
punjab
purse
pyrenees
qb
qualifications
qualifiers
quentin
queue
rabbits
raced
raged
ramirez
ramsey
rancho
raoul
raped
raul
realization
reassure
rebranded
receipts
reckless
recycling
reelected
reflective
regression
regrets
reigned
reiterated
relocating
reminding
renal
renumbered
repealed
requiem
resentment
responsive
restrictive
reversal
revoked
revolutions
rfc
rhineland
rita
robbers
roc
rory
rosie
rotate
rouen
rounding
rowan
royals
rudd
rudolf
ruiz
rumor
russians
sakura
salaries
samantha
samurai
santana
sapphire
saratoga
sarcastic
satisfaction
saul
sausage
scalp
scars
schultz
scissors
screenings
scrolling
scrolls
searing
seater
secrecy
seduction
semiconductor
seminar
sensible
sequencing
setup
severity
shaken
shattering
shea
sheldon
sherwood
showdown
shreveport
shutting
sibling
signifies
silva
simplest
simulation
simulations
skins
skylar
skyscraper
slain
slams
sleeps
slice
sling
slipping
slump
smoothly
snails
snaps
sneak
soloists
sore
spared
sparkling
specialty
sped
spence
spinal
spirited
sponsoring
spray
spraying
squads
squeak
squirrels
stacked
stagecoach
stairway
standardized
startup
statesman
steaming
stocked
stool
strains
strangers
stride
strife
stripping
stung
stunts
stylized
subcommittee
subdivision
submissions
subscription
substantive
successively
sucks
suffix
suffolk
sumatra
superhuman
supermarket
superseded
supervisory
sustainability
sustainable
sven
swallow
swallows
swam
swear
switches
syrup
taboo
taft
tango
tanker
tapping
tariffs
tasting
tatar
tbilisi
tc
tearing
teddy
tehran
telecast
telecommunication
teller
tendencies
tending
terminates
terminology
terribly
testify
textbooks
textiles
thigh
thighs
throttle
thud
thwarted
tian
timmy
toby
toes
toppled
torah
torment
tormented
tornado
tory
tossed
trailers
transatlantic
transmitting
traumatic
triggering
trinidad
tt
tuck
tumbling
typing
unbelievable
unbroken
undergoes
undrafted
uninhabited
unofficially
untitled
upgrading
upside
urges
usable
vaccine
valkyrie
vanessa
vanishing
vans
venerable
ventura
vh1
villas
vinci
visibly
visionary
vlad
volcanoes
volleyball
voodoo
vowels
waived
wandered
warp
watered
watery
wavelength
weddings
weeds
weeping
welch
wendell
wessex
wexford
wharf
whatsoever
willingly
wolfe
worrying
wrath
wrestle
www
xiv
yao
yarmouth
yarn
yearbook
yi
yoga
yves
zenith
zeppelin
¡
¥
³
·
þ
ο
χ
ח
ვ
ი
მ
ო
†
″
い
か
ひ
も
シ
テ
ハ
ロ
光
劉
同
宗
李
花
##49
##51
##57
##58
##9th
##acion
##ady
##aer
##ailing
##aling
##amina
##ammed
##anov
##antes
##anum
##ape
##arney
##arus
##asurable
##atics
##awan
##ayan
##bbed
##bbly
##beam
##bina
##bino
##bner
##bots
##bourg
##brates
##broken
##buck
##burgh
##buro
##cased
##caster
##ccus
##charged
##chee
##cini
##cision
##cking
##cky
##cliffe
##cloth
##core
##corp
##cript
##cross
##cycle
##cytes
##dak
##dance
##dhi
##dley
##dora
##dp
##dun
##eber
##edo
##eering
##elis
##eller
##emon
##enity
##enne
##eral
##erie
##erina
##eron
##escence
##etano
##etched
##eves
##eving
##fell
##fers
##fia
##fixed
##furt
##gata
##gawa
##gf
##gged
##gp
##gues
##haling
##hausen
##haven
##hay
##haya
##hdi
##herton
##hett
##hh
##hiko
##hire
##holding
##hone
##horpe
##hosh
##hp
##hrer
##iad
##icle
##icular
##iec
##iens
##iensis
##ifolia
##igraphy
##iji
##ilation
##imov
##inging
##istle
##itative
##ition
##ivar
##ivation
##ives
##jana
##jian
##khov
##kia
##kian
##kos
##lana
##lang
##lden
##lean
##lices
##liche
##lind
##lius
##lma
##ln
##loh
##lova
##lowe
##lston
##mage
##mament
##mbit
##mental
##minster
##mmel
##mmon
##mple
##mps
##mpton
##mx
##nable
##nally
##nard
##neer
##neo
##nged
##nging
##odle
##offs
##ogo
##ographer
##oides
##onte
##ooped
##oped
##opsis
##otto
##ounded
##outh
##oven
##patient
##peed
##phobia
##phonic
##physical
##physics
##pkins
##ples
##plify
##pour
##powered
##powering
##psis
##psy
##ractive
##rained
##rber
##rcus
##rdes
##rgen
##rgy
##riam
##rik
##rked
##rks
##rly
##rogen
##roller
##rona
##rooms
##rries
##rson
##ruff
##rval
##sation
##sboro
##scent
##section
##sford
##sher
##shot
##slin
##sling
##slow
##sner
##stadt
##taff
##tained
##taken
##talk
##tang
##tarian
##tative
##tees
##tering
##thed
##thes
##thic
##thing
##tier
##tlan
##tray
##tton
##tura
##tya
##tyn
##uddin
##ulent
##ulsion
##urance
##urbed
##uron
##urse
##uses
##utable
##vered
##very
##vino
##vinsky
##vron
##wad
##wana
##wani
##wark
##wave
##week
##word
##writing
##xin
##zhi
##zione
##zko
##zuka
##zzling
##º
##ß
##ɒ
##ɛ
##δ
##κ
##ς
##υ
##χ
##д
##л
##я
##ت
##ش
##ف
##م
##و
##ण
##द
##र
##ლ
##ო
##ᄃ
##ᄇ
##き
##っ
##れ
##ァ
##ウ
##タ
##ナ
##ラ
##レ
1086
1540
1560
1580
1610
1618
1638
1661
1670
1672
1683
1703
1710
1721
1723
1727
1736
1738
1740
1744
1748
1750
1754
1757
1758
1779
1780
1785
1786
1807
1815
184
188
2018
2020
223
227
242
288
291
292
296
332
34th
357
401
405
451
46th
510
521
525
625
710
747
75th
770
875
\
abuses
academie
accessibility
accessory
accommodations
accomplishment
accountants
accredited
accumulation
aces
ache
adaptive
adjustment
adjutant
adoptive
adorable
advocacy
aesthetics
affirmative
afl
agile
agitated
agra
aidan
airlift
aleppo
algae
algiers
allison
alternatives
alton
aluminum
alumnus
alvaro
alyssa
amalgamation
amar
ambiguity
amc
amplifier
amtrak
amulet
analogue
anglia
announcements
annoyance
antibiotics
apartheid
aperture
apostle
appendix
appliances
apprehension
apron
aquarium
arboretum
archway
argent
armagh
armchair
arranging
arrogance
arson
artemis
artworks
asahi
ashe
asher
aspen
assessing
assessments
assimilation
astor
athena
aubrey
audi
augusto
auschwitz
authorship
autopsy
avoidance
axes
bacon
bacterial
badger
baffled
baggage
bakery
baking
balancing
balcony
balkans
balloons
bandages
bankers
barefoot
barney
barns
barnsley
baroness
bastion
baths
bauer
bavarian
bayou
bean
beers
behaviors
behold
beige
benton
bertrand
betting
betty
bibliography
bicycles
bilateral
biomedical
biotechnology
bipolar
bitten
bitterness
blackish
blaming
blessings
blindness
bloomberg
boasts
bodily
boer
boil
bois
bonn
booking
booster
booths
borneo
borrowing
bosch
botanical
botany
boulders
bourgeois
bourne
boyer
brady
brakes
breakaway
brendan
breton
bribery
briefs
brightly
britannia
brody
brunette
budge
bulge
bulky
bungalow
bunk
businessmen
butte
buyers
c1
cabins
cairns
calais
calculating
calderon
calf
calming
calves
cannabis
cantata
cantonese
cantor
canucks
cardboard
carmichael
cartel
casket
cassandra
castes
castillo
catalan
catastrophe
cautiously
cayman
cecilia
cedric
cellar
ceylon
chants
cheated
cheerleading
chests
cheyenne
chiang
chill
choked
chow
christoph
christophe
chrome
chrysler
churning
cicero
circulating
clap
clarence
clasp
claudius
cleansing
cleavage
clements
clifford
clint
cloudy
clumsy
coca
cocaine
coding
coefficient
cognition
colby
colombo
colossal
combustion
commodities
compass
competence
competes
comprehension
compute
computed
condemn
confidently
configured
congratulations
conservatives
consonants
consulate
consultancy
consultative
containment
contemplated
contender
convicts
coordinates
coping
cops
cornered
cornice
corp
correctional
corvette
couch
counseling
counselor
courageous
covent
cowboy
cramer
cramped
crap
craving
crimean
crooked
crossings
crystals
csa
csi
cunning
cupboard
curate
curiously
cursing
cylinders
cyril
daemon
dane
dangling
danzig
defendants
delicious
demonstrators
dempsey
deported
derelict
derry
detrimental
diabetes
dialects
dickinson
dickson
digits
dioxide
directs
disconnected
disks
dispose
distracting
disturb
diversified
docked
docking
doe
doherty
doi
dolphins
dorian
dormitory
douglass
dowager
dragging
dreadful
dreamed
dreaming
drenched
drone
droplets
drugged
duchy
duct
dude
dukes
duluth
easton
eastwood
economies
ecumenical
educators
eighties
eine
elector
electrically
electrified
electronically
emancipation
emilia
emilio
empirical
encompass
endeavour
endowed
enjoying
enrichment
enslaved
enthusiast
environmentally
epa
epstein
equivalence
eruption
erwin
escorts
estimation
etched
ethan
ether
eucalyptus
evicted
excerpt
excerpts
exchequer
exclaimed
excuses
exhaled
exhibiting
eyebrows
ezekiel
facilitates
faculties
faded
fairfield
fairness
falsely
feeder
femme
fibers
fiona
firearm
firefighters
fiscal
fished
fishermen
fixing
flatly
floats
flourish
fluctuations
fluffy
fluids
flushed
foolish
fools
footprints
forgot
formulas
fortunate
francs
frankie
frankly
frantically
freddie
fresco
freshly
fright
frontiers
frown
froze
frs
furry
gallant
gaston
geese
genealogy
genoa
geometric
germanic
gigs
gillespie
girlfriends
glancing
globally
glove
goddard
godfather
gonzales
goran
gorman
gospels
gossip
gottfried
gov
graduates
grandpa
granville
grease
greaves
greenberg
greer
gregg
greyhound
grins
growl
guerre
guessed
gujarat
gunn
guo
gymnasium
gymnastics
haired
hampson
hancock
handcuffs
handgun
hanson
hapoel
hardin
harmonic
harness
harrisburg
hatfield
haute
hawthorn
haydn
heartbeat
hearth
heartland
heavenly
hedges
heiress
helens
hellenistic
hernandez
herring
hess
hesse
hickory
hike
hilly
hilt
hiram
hires
histoire
hoffmann
hogan
holiness
honneur
honoured
hooker
hopper
horst
html
huff
hugs
humanist
humming
hungarians
hurting
hurts
hush
huts
hybrids
hysterical
igor
illusions
illustrious
impairment
imperative
imperialism
inactivated
indefinite
indicators
indicted
inference
infinitely
influencing
informing
infused
ingredient
inhibition
inhibitor
initiation
insider
insistent
instructional
instructors
insulin
integrating
intercollegiate
intimidated
investigative
invitational
invite
irregularities
islamist
italics
jace
jacobite
jax
jensen
jericho
jia
joints
joo
josiah
jozef
kensington
kenya
kernel
kettle
keynes
khalid
kiev
kildare
kilkenny
kindly
kira
kissed
kisses
kite
klaus
konrad
kowalski
kristin
kuala
kurdish
labourers
laced
lacey
lafayette
laguna
lair
lakeside
landon
langley
lark
larsen
lately
latham
latvia
laughed
laurie
lausanne
lawsuits
lazy
leah
leaks
leaned
leapt
leftist
lennox
lenses
letterman
liberals
librarian
lifeboat
lifeless
lilith
lim
lipstick
litres
loans
lobes
lok
losers
loudly
louisville
lowry
lucy
luna
lux
lviv
macintosh
macon
macquarie
madden
madeline
maestro
magnesium
mahal
maharaja
majestic
maldives
malicious
mandolin
mango
manifold
manufactures
mapped
marcelo
marcos
mariano
marjorie
marko
marquette
marriott
marta
materialized
mathematicians
matrices
mattress
maximize
mayhem
maynard
mbe
mcgee
mcguire
mediation
medicinal
mein
mendoza
merritt
messiah
metaphysical
methodology
mgm
mig
mildred
minions
ministerial
ministries
miocene
miranda
miserable
mixer
modernism
modular
modulation
monaco
mongol
mongolia
monstrous
montane
montrose
moran
mortgage
motel
motionless
motorized
mounds
multiplied
mummy
murderous
musee
mustard
mustered
mute
myra
myriad
mysteriously
nadu
nagoya
nape
nascar
nationals
navigable
navigator
nepal
neumann
neville
newcomer
newfound
newsletter
nightly
nighttime
nikola
nilsson
nissan
node
nonstop
nordic
norma
norris
novelty
nyc
nylon
objection
occupations
oder
oilers
olga
olsen
olympia
olympian
opposes
optic
optimal
orchestras
ordeal
overlook
padded
paige
paisley
palatine
palermo
palette
paraguay
parc
parentheses
parkinson
pascal
paso
passageway
pathology
patterned
paulo
paws
peacefully
peacock
pedestrians
pensacola
pepsi
perched
percival
persecuted
peruvian
pharmaceutical
philanthropic
physicians
pickering
pigeon
pilasters
pious
piracy
plaid
plainly
planck
plata
playful
pleading
pointer
poke
poked
poking
polynomial
polytechnic
pondered
popcorn
poppy
possessive
preaching
preferences
premio
preoccupied
presiding
printer
pristine
promenade
propagation
proudly
providers
psalm
psalms
pueblo
puget
pulmonary
punched
pune
punishments
punjabi
punta
pussy
qatar
quaker
quantitative
quartz
query
quieter
radiating
raging
rahman
railing
rallies
rann
rappers
ratification
realises
reared
reeve
reflex
regents
regina
registering
regretted
regulator
relaxing
reluctantly
remodeled
repression
resisting
resolutions
resorts
restart
restraints
resurgence
reuters
rewards
reykjavik
ribbons
ricardo
ridley
rigorous
ripley
risky
roadside
robber
roi
rotated
rotational
rotting
routines
roxy
rubbed
rusty
sabha
saddam
sadly
saharan
sainte
salford
saliva
samba
sandals
sandwiches
sanjay
sarcasm
sardinia
saturated
savanna
sax
saxons
saxophonist
scarborough
scarlett
schubert
schuster
schwartz
scorpion
scotch
scraping
scroll
seahawks
seasoned
secondly
secretariat
securely
seduce
selects
sells
seminary
seneca
seniors
sensations
seoul
serene
serge
serials
server
serviced
sesame
severn
shadowed
shakes
shaun
shay
shelly
shiny
shouldn
showcases
showcasing
showered
showtime
shrinking
shuffle
siberian
silently
silhouette
sinks
skating
skiing
skinned
skip
slack
slapping
slavic
sliced
sloop
smallpox
smelling
smells
smithsonian
smoked
snatch
soaked
soared
soaring
sobbing
solemnly
solids
sonny
sorted
soto
spaghetti
specialising
spices
spielberg
spiked
spilled
spitfire
spokane
sponge
spotting
sprinter
sprung
squeeze
stabbed
stabbing
stainless
stalking
stamford
standalone
statewide
steak
stepfather
stephens
stevie
stimulus
storing
straining
strands
strata
streamlined
stresses
styling
subsidy
suicidal
suites
sumner
superfamily
supplements
suppliers
surfing
susie
suspiciously
sway
sweating
sweeps
symposium
syndication
systemic
tackled
tagged
tailored
tainted
tamara
tandem
tangled
tasmanian
tattoos
techno
tempting
termination
textual
thanked
thugs
thumping
tilting
timeless
timely
timer
tires
titanic
titanium
titans
tko
toilets
token
tombstone
tonic
toulouse
trainee
tramway
transfers
translator
transparency
trembling
trimmed
trois
trombone
troopers
trumpet
truss
tuberculosis
tulane
turnbull
twinned
twitch
twitching
tyson
uber
uneasy
unfit
uploaded
upstate
urgently
usb
ussr
valor
vampires
vanguard
vanish
vaughan
vectors
vega
vested
vip
vivo
vocabulary
vp
vt
vulture
wagons
waiter
waitress
waits
waivers
walden
waller
walnut
waltz
wand
wanda
warden
warmth
washing
wasted
wastewater
wavy
weathered
weave
weep
wehrmacht
welcoming
welding
werner
westchester
whaling
wheeling
whichever
whistling
whitman
wichita
willed
willem
winfield
wink
winthrop
wipe
wondering
wrapping
wrists
yamamoto
yearning
yell
yen
yer
yiddish
yokohama
yvonne
zachary
zeus
zhao
zhejiang
zhu
zip
§
ʃ
ʼ
π
υ
к
ش
त
ง
ა
გ
კ
₤
⅔
つ
ふ
エ
王
##100
##52
##53
##59
##86
##aar
##aby
##acing
##ados
##akh
##alic
##andra
##apes
##arians
##aton
##avio
##avs
##ayo
##basket
##bbon
##beau
##bled
##boys
##bry
##bund
##cable
##cans
##cave
##cb
##cence
##cheng
##chia
##ciency
##ctors
##ctric
##ctus
##cultural
##dara
##dberg
##dder
##dened
##dini
##dner
##dong
##dridge
##drik
##drum
##dson
##dur
##dus
##dust
##eased
##economic
##eft
##eira
##enary
##etz
##evsky
##ffin
##fine
##gai
##ganj
##gart
##gee
##ggs
##gny
##graphs
##guide
##hardt
##heimer
##hoff
##holder
##holders
##horse
##hosis
##idon
##iface
##ife
##iii
##ikh
##ilde
##imum
##inas
##inatory
##insky
##inton
##istan
##ivist
##jected
##jos
##jured
##kato
##kaya
##kei
##kti
##kulam
##kumar
##lak
##lars
##lase
##laya
##leigh
##lellan
##lena
##leton
##lette
##lidae
##lifting
##liner
##lino
##lita
##lke
##lland
##lley
##llum
##logic
##logies
##lto
##lub
##lux
##lvis
##lynn
##made
##masters
##mation
##mberg
##mbre
##meyer
##miya
##mler
##mma
##mming
##mous
##mussen
##national
##nator
##naud
##nden
##ndon
##nier
##nir
##nya
##nza
##nzo
##ocating
##oese
##ogan
##oids
##oir
##oise
##oku
##oles
##omba
##onale
##oons
##ooping
##oor
##ophone
##orestation
##orno
##orough
##orth
##oslav
##oux
##paper
##park
##pia
##pled
##pment
##pps
##pressive
##qing
##quel
##qvist
##ragan
##rao
##rden
##recht
##rella
##rgos
##rians
##rricular
##rrigan
##rring
##ruck
##ructured
##rug
##scan
##scia
##sef
##sei
##sio
##skie
##sphere
##stones
##suka
##suke
##teacher
##tension
##terol
##ths
##tight
##tique
##tite
##tology
##tonic
##tose
##tsa
##tters
##tua
##ucible
##ulia
##ulously
##umatic
##urai
##utive
##venting
##verted
##vsky
##waite
##wes
##wley
##wu
##yala
##zd
##zow
##ð
##œ
##ɐ
##ɔ
##ɾ
##ʁ
##ʃ
##ʔ
##ης
##θ
##λ
##ии
##ия
##ю
##א
##ב
##ם
##ן
##ף
##ان
##ة
##ك
##क
##व
##ह
##พ
##ร
##გ
##თ
##ს
##ᅢ
##ᅧ
##ᅩ
##あ
##お
##す
##ま
##ら
##る
##ェ
##シ
##チ
##ニ
##ハ
##マ
##ミ
##ロ
1626
1634
1635
1655
1658
1675
1680
1702
1704
1711
1715
1716
1718
1728
1730
1734
1735
1743
1746
1749
1756
1762
1781
1799
1910s
209
20s
214
236
244
246
248
294
297
299
301
303
304
306
307
318
327
328
329
334
336
343
356
3a
530
55th
870
abel
abstracts
accordion
accountable
aching
acidic
adele
adjustable
adler
administering
admiring
adolescents
adversary
afternoons
ajax
albania
alberto
alcoholism
alistair
alliances
almond
alps
alto
amara
amazement
ambrose
americana
amir
amnesia
anaheim
analyzing
anarchist
andover
andrei
angelica
angelina
annexation
antennae
anthropological
apache
appleton
approx
aquino
archduke
archers
archived
argus
argyll
arias
arlington
aromatic
arranger
arrivals
arroyo
arthritis
arturo
aryan
ashamed
ashby
ashok
astonishment
astrid
atari
atheist
atm
attache
audrey
auf
automation
awaiting
awakened
awarding
backside
badges
badminton
bahadur
bananas
barbarians
barbecue
barclay
bargain
bargaining
barnet
baronet
barrie
barrington
basics
baskets
basque
bastard
bavaria
baylor
bazaar
beale
beamed
beatrice
beckett
becky
begged
begging
behaved
belgrade
believers
bella
benches
bending
bends
benfica
bengali
benito
bertram
beverages
bewildered
bianca
biceps
bihar
bingo
binoculars
biomass
biscuits
bitterly
blackberry
bladder
blades
blazing
bless
blinding
blooded
bloomfield
bluegrass
blushing
bodo
bolshevik
bolsheviks
bolted
bop
bordeaux
botanic
bother
bottled
boutique
bowed
bowing
boxed
boxers
brandenburg
brant
breakers
breathed
bremen
brennan
bribe
bridget
brigham
brilliance
bruise
bruised
bruises
bryce
bucks
buffer
bullock
bumps
bundled
burnett
burroughs
bursting
buster
butcher
byrne
cables
cadence
cafeteria
cages
caine
caitlin
calabria
caleb
calhoun
calmed
cambridgeshire
cappella
caracas
caress
cassidy
casually
catfish
cathy
caucasus
cavendish
cbc
cdc
celine
cemeteries
cerebral
chavez
cheerfully
cherokee
cheryl
chili
chilly
ching
chopped
chorale
chores
chunk
circled
circling
clapping
clarissa
claudia
cleanup
clicked
clicks
clinging
clipped
clit
clones
cocoa
coconut
codex
cody
colbert
coldly
comforting
commotion
compiler
composure
concourse
condensed
conductors
cones
configurations
congresses
connacht
connectivity
considerations
consolation
constance
consular
conversions
cookie
coptic
cords
corsica
coughing
counters
coupe
cracking
crate
craven
crawling
crazed
creeping
cremated
crises
crotch
cube
cues
cumberland
curated
curls
currie
curvature
cuthbert
cypriot
daggers
dali
dalton
damien
damned
darkened
darkest
darmstadt
darts
dashboard
dashed
davey
daytona
db
deaf
deafening
debra
debuts
decidedly
decker
deeds
defamation
deformation
delgado
departmental
deportation
deprivation
derive
deserts
desperation
detachments
deutschland
diablo
diagrams
diner
dinners
disbelief
disqualification
dissemination
dobson
dolly
dolphin
domes
domino
donkey
donna
donovan
dormant
dresser
dungeons
dunkirk
dupont
dyed
earle
earrings
easing
ebert
ebony
ebook
edouard
educator
effortlessly
eireann
elegance
elena
elephants
elsie
emails
emir
emptiness
ems
englishman
engravings
engulfed
epilogue
equity
erika
ernesto
eruptions
eureka
evelyn
exasperated
expenditures
externally
extinguished
extracts
faber
fabian
fabrics
faintly
fairbanks
fairs
fastened
fated
feb
federally
federico
felicity
felony
feminism
feng
ferrer
ferris
fiat
finalist
fingernails
fireplace
fitzroy
fjord
flashed
flex
flickering
fling
floppy
foley
fontaine
fontana
foreword
forgiven
forsyth
francesca
frankenstein
frantic
fray
frazier
fremont
fritz
funky
furnace
furnishings
furrowed
gabe
gables
gaping
gardiner
gasp
gathers
gdansk
gearbox
generalized
genocide
gentry
geraldine
gerhard
gershwin
giro
glaring
glover
goethe
goin
goodness
goofy
gora
goth
governorate
grading
grandma
gravely
greta
grill
growls
guangzhou
guernsey
guessing
gunnar
gustave
guzman
hacked
haji
haley
hammered
hammersmith
handball
handbook
handy
happier
hauling
havoc
havre
hayden
hazards
hc
headlined
healy
hearst
heidi
henley
henrietta
herbal
hesitation
hicks
himalayan
hips
hirsch
hoarse
hoisted
homemade
homework
homogeneous
hoop
horrors
hotter
hovered
howl
howling
hugged
humanoid
hunan
huntington
husky
hysteria
ignited
ignition
ik
implementations
incentives
indices
indy
infirmary
info
insanity
insides
intellect
interfered
interrogation
interventions
intuition
inverse
involuntary
ionic
iqbal
irene
irina
irritated
isabelle
israelis
ives
jaguars
jaipur
jammu
jang
jared
jd
jeans
jerked
johnnie
johor
jolt
jonah
josephine
judging
judgments
juicy
juliette
junctions
kade
karma
kashmir
kathryn
kazan
keenan
kellogg
kelsey
kerala
keynote
kgb
kidding
kilda
killers
kitchener
knoxville
konstantin
kosovo
kristina
kylie
kyushu
lahore
landau
landlord
landscaping
lashed
laurent
lava
laval
lavender
leaped
leaps
lectured
lehman
leicestershire
lenny
leroy
lesley
lest
lettering
leung
libby
liberia
lied
lifts
lillian
liquidation
listings
liturgical
livingstone
liza
locomotives
loomed
loosen
loretta
lublin
luce
lucha
lumpur
lunatic
lynne
lyricist
mabel
maddox
madhya
mainz
malice
maltese
mammoth
manchu
manifested
mantra
marin
marsden
marx
marxism
massif
maternity
matteo
mattered
maximal
mcconnell
mckenzie
medications
medina
melissa
mendes
mendez
menon
mercantile
merlin
mermaid
messed
messina
midi
midtown
mildly
millie
milling
milo
milos
mindanao
minogue
miraculous
mirage
misconduct
mister
moans
moderator
modifying
modules
mohammad
mohawk
mojo
molded
moldova
mollusk
monograph
moonlight
morales
moravian
moreno
moths
motorsports
muir
multicultural
multiplication
musa
mused
museo
musica
mussolini
mutter
nacional
nagasaki
nakamura
nanjing
nanny
narrows
natalia
nationale
nationalities
navarre
neatly
nero
nerve
newtown
nexus
ngos
nietzsche
nigerian
nightmares
nikolai
nk
nonlinear
northamptonshire
nosed
noun
nouns
nueva
nutrition
oblast
octopus
offender
olson
olympiad
omnibus
ops
optics
optimization
orchard
organizes
orphan
osborn
osman
otis
outputs
outstretched
overboard
overcame
overdose
oversees
packers
palma
palms
panorama
pantry
paperwork
paralyzed
participates
partisans
passions
patio
pauses
payroll
pcs
pearls
peek
peeled
peeling
pei
pembroke
penang
pendleton
peng
peninsular
penitentiary
pensions
peppers
petitions
peyton
pga
phelps
philanthropy
phyllis
pickup
piedmont
piled
ping
pins
pissed
plaintiffs
planner
playhouse
plc
plump
pollock
pomeranian
porte
postage
practitioner
prescription
primal
priscilla
procurement
prodigy
productivity
professorship
profiles
prologue
promoters
prosecuted
protections
provost
proxy
psychiatrist
psychiatry
psychologists
pubs
pulsing
pumpkin
puppy
purdue
pursuits
python
quadrant
qualifier
quarries
quintet
quiver
rabbis
rags
raider
rained
raining
raju
rampage
rattling
ravens
rbi
realities
reappeared
rebirth
receipt
receptionist
reciprocal
redistribution
redwood
reeling
reeves
referees
refrigerator
reggie
regulates
reigns
relax
remotely
repository
researches
respecting
respondents
restrain
restraining
restricting
retracted
retribution
reunification
rhapsody
richer
rink
ripping
risking
roach
roaming
roaring
roberta
rocked
rockwell
rodeo
roderick
rodgers
romanized
roofed
rooftop
rooney
rosenberg
rotor
rouse
rudy
rumbling
rumored
runes
ruse
rutland
rv
sabah
sadler
safari
sahara
sally
salzburg
sanchez
sanitary
sarawak
scala
scandals
scans
scares
scarred
scholarships
scoop
scrambled
scratched
scratching
scuba
sears
sebastien
securities
sedan
sedimentary
seeming
segunda
seizures
selector
semantic
seminars
sensed
sensor
sequential
sergei
serie
serum
seventies
seychelles
shady
shaggy
shaky
shapiro
sharif
shatter
sheppard
shia
shifter
shire
shocks
shri
shrill
shuffling
sidewalk
sienna
silenced
silky
simulcast
sincerity
singleton
sino
siren
skinny
skipped
slade
slashed
slices
slid
sliding
sloppy
slovakia
sly
smarter
smashing
smiled
smiles
smoky
smoothed
smyth
snarl
sneakers
snooker
snort
snyder
societe
socrates
soda
softball
softness
sonora
sonya
soothing
sorbonne
southport
soy
specials
speeding
speedy
spies
spilling
sprayed
spying
squared
squash
squeezing
squirrel
ssr
stables
stacey
staffordshire
staggered
stalked
stalls
startled
starving
stats
stephenson
stillness
stills
stimulating
stimuli
stinging
stirling
stitches
straighten
straightened
strangely
strangled
straps
strides
stroll
sts
stuffed
stuffing
stupidity
subdistrict
subsidiaries
substitutes
sunglasses
sunni
suriname
susannah
swapped
swearing
sweat
sweeney
sweetheart
swirl
swirling
swore
sykes
symmetric
tablet
taekwondo
tags
taipei
tajikistan
talbot
tangible
td
tease
teased
technician
temeraire
tempted
tenants
tentacles
terence
terrified
tesla
thankful
thence
thereof
theresa
thierry
thornton
thou
thrusting
thrusts
thumbs
ticking
tidal
tinged
tipping
tobago
toledo
tolerated
tolkien
tossing
towing
tracker
tractors
transformations
transformers
traversed
tray
tremor
tribunal
tricked
triggers
tripped
trumpeter
tub
tufts
tulsa
tuscany
twisting
typed
tyrant
ulrich
uncles
understands
undo
undone
uniformed
universite
untouched
unwanted
urdu
utmost
vaccines
valerie
vane
vantage
variability
vendors
verandah
verbs
verlag
veterinary
vicky
viktor
vile
vilnius
vineyard
violently
visas
vodka
volkswagen
voss
voter
walkway
watford
waved
wavelengths
weasel
welded
wharton
whipped
whipping
whisky
whisper
whispering
whitaker
whitley
whore
wigan
wilton
winery
winnie
wiring
woke
wolff
wolfgang
womb
wong
workout
wraps
wrexham
wry
xiao
yates
yelling
yemen
zac
zane
zodiac
zoology
|
½
łodz
λ
ν
ξ
σ
ω
в
п
х
ц
ب
ق
ब
म
य
व
เ
დ
თ
რ
ს
უ
‡
〜
け
さ
す
た
ち
と
ケ
フ
世
中
出
名
女
子
安
山
政
方
星
春
村
義
里
金
陳
